{
  "version": "1.0",
  "truncation": null,
  "padding": null,
  "added_tokens": [
    {
      "id": 0,
      "content": "<PAD>",
      "single_word": false,
      "lstrip": false,
      "rstrip": false,
      "normalized": false,
      "special": true
    },
    {
      "id": 1,
      "content": "<UNK>",
      "single_word": false,
      "lstrip": false,
      "rstrip": false,
      "normalized": false,
      "special": true
    },
    {
      "id": 2,
      "content": "<BOS>",
      "single_word": false,
      "lstrip": false,
      "rstrip": false,
      "normalized": false,
      "special": true
    },
    {
      "id": 3,
      "content": "<EOS>",
      "single_word": false,
      "lstrip": false,
      "rstrip": false,
      "normalized": false,
      "special": true
    },
    {
      "id": 4,
      "content": "<SEP>",
      "single_word": false,
      "lstrip": false,
      "rstrip": false,
      "normalized": false,
      "special": true
    }
  ],
  "normalizer": {
    "type": "Lowercase"
  },
  "pre_tokenizer": {
    "type": "Whitespace"
  },
  "post_processor": {
    "type": "TemplateProcessing",
    "single": [
      {
        "SpecialToken": {
          "id": "<BOS>",
          "type_id": 0
        }
      },
      {
        "Sequence": {
          "id": "A",
          "type_id": 0
        }
      },
      {
        "SpecialToken": {
          "id": "<EOS>",
          "type_id": 0
        }
      }
    ],
    "pair": [
      {
        "SpecialToken": {
          "id": "<BOS>",
          "type_id": 0
        }
      },
      {
        "Sequence": {
          "id": "A",
          "type_id": 0
        }
      },
      {
        "SpecialToken": {
          "id": "<EOS>",
          "type_id": 0
        }
      },
      {
        "SpecialToken": {
          "id": "<BOS>",
          "type_id": 0
        }
      },
      {
        "Sequence": {
          "id": "B",
          "type_id": 0
        }
      },
      {
        "SpecialToken": {
          "id": "<EOS>",
          "type_id": 0
        }
      }
    ],
    "special_tokens": {
      "<BOS>": {
        "id": "<BOS>",
        "ids": [
          2
        ],
        "tokens": [
          "<BOS>"
        ]
      },
      "<EOS>": {
        "id": "<EOS>",
        "ids": [
          3
        ],
        "tokens": [
          "<EOS>"
        ]
      }
    }
  },
  "decoder": null,
  "model": {
    "type": "BPE",
    "dropout": null,
    "unk_token": "<UNK>",
    "continuing_subword_prefix": null,
    "end_of_word_suffix": null,
    "fuse_unk": false,
    "byte_fallback": false,
    "ignore_merges": false,
    "vocab": {
      "<PAD>": 0,
      "<UNK>": 1,
      "<BOS>": 2,
      "<EOS>": 3,
      "<SEP>": 4,
      "\"": 5,
      "#": 6,
      "&": 7,
      "'": 8,
      "(": 9,
      ")": 10,
      "*": 11,
      "+": 12,
      ",": 13,
      "-": 14,
      ".": 15,
      "/": 16,
      "0": 17,
      "1": 18,
      "2": 19,
      "3": 20,
      "4": 21,
      "5": 22,
      "6": 23,
      "7": 24,
      "8": 25,
      "9": 26,
      ":": 27,
      ";": 28,
      "<": 29,
      "=": 30,
      ">": 31,
      "@": 32,
      "a": 33,
      "b": 34,
      "c": 35,
      "d": 36,
      "e": 37,
      "f": 38,
      "g": 39,
      "h": 40,
      "i": 41,
      "j": 42,
      "k": 43,
      "l": 44,
      "m": 45,
      "n": 46,
      "o": 47,
      "p": 48,
      "q": 49,
      "r": 50,
      "s": 51,
      "t": 52,
      "u": 53,
      "v": 54,
      "w": 55,
      "x": 56,
      "y": 57,
      "z": 58,
      "®": 59,
      "µ": 60,
      "ê": 61,
      "ó": 62,
      "–": 63,
      "’": 64,
      "ti": 65,
      "al": 66,
      "ar": 67,
      "re": 68,
      "th": 69,
      "se": 70,
      "te": 71,
      "ol": 72,
      "ye": 73,
      "an": 74,
      "ro": 75,
      "en": 76,
      "on": 77,
      "in": 78,
      "tin": 79,
      "old": 80,
      "retin": 81,
      "year": 82,
      "ul": 83,
      "ac": 84,
      "is": 85,
      "20": 86,
      "mal": 87,
      "ent": 88,
      "us": 89,
      "op": 90,
      "male": 91,
      "as": 92,
      "er": 93,
      "ho": 94,
      "ith": 95,
      "le": 96,
      "ular": 97,
      "ati": 98,
      "id": 99,
      "ve": 100,
      "to": 101,
      "with": 102,
      "of": 103,
      "sep": 104,
      "hi": 105,
      "me": 106,
      "st": 107,
      "retinal": 108,
      "or": 109,
      "fe": 110,
      "ph": 111,
      "ig": 112,
      "whi": 113,
      "de": 114,
      "ath": 115,
      "oc": 116,
      "white": 117,
      "opath": 118,
      "mac": 119,
      "and": 120,
      "ter": 121,
      "nd": 122,
      "ma": 123,
      "female": 124,
      "os": 125,
      "eye": 126,
      "opathy": 127,
      "ation": 128,
      "la": 129,
      "di": 130,
      "ment": 131,
      "iti": 132,
      "ic": 133,
      "the": 134,
      "roid": 135,
      "nv": 136,
      "cho": 137,
      "su": 138,
      "ra": 139,
      "choroid": 140,
      "ne": 141,
      "pe": 142,
      "itis": 143,
      "gi": 144,
      "at": 145,
      "be": 146,
      "tic": 147,
      "macular": 148,
      "sc": 149,
      "ion": 150,
      "retinopathy": 151,
      "phy": 152,
      "sr": 153,
      "he": 154,
      "vas": 155,
      "und": 156,
      "ch": 157,
      "vasc": 158,
      "ge": 159,
      "rophy": 160,
      "angi": 161,
      "dy": 162,
      "br": 163,
      "ing": 164,
      "cent": 165,
      "ral": 166,
      "pig": 167,
      "gra": 168,
      "vascular": 169,
      "fund": 170,
      "central": 171,
      "fundus": 172,
      "it": 173,
      "ht": 174,
      "il": 175,
      "ted": 176,
      "ft": 177,
      "ight": 178,
      "srnv": 179,
      "per": 180,
      "choroidal": 181,
      "ase": 182,
      "cl": 183,
      "neo": 184,
      "angio": 185,
      "sy": 186,
      "neovascular": 187,
      "dyst": 188,
      "dystrophy": 189,
      "sub": 190,
      "his": 191,
      "sen": 192,
      "left": 193,
      "pigment": 194,
      "pho": 195,
      "pre": 196,
      "right": 197,
      "ad": 198,
      "el": 199,
      "bran": 200,
      "ach": 201,
      "las": 202,
      "dr": 203,
      "ia": 204,
      "md": 205,
      "dia": 206,
      "det": 207,
      "photo": 208,
      "achment": 209,
      "detachment": 210,
      "rome": 211,
      "ndrome": 212,
      "syndrome": 213,
      "lu": 214,
      "po": 215,
      "rous": 216,
      "pati": 217,
      "patient": 218,
      "serous": 219,
      "iz": 220,
      "gen": 221,
      "osis": 222,
      "usion": 223,
      "ed": 224,
      "sease": 225,
      "disease": 226,
      "occl": 227,
      "diabe": 228,
      "vo": 229,
      "ped": 230,
      "ap": 231,
      "ou": 232,
      "cnv": 233,
      "mp": 234,
      "occlusion": 235,
      "ex": 236,
      "200": 237,
      "neovasculariz": 238,
      "subretinal": 239,
      "neovascularization": 240,
      "retinitis": 241,
      "ous": 242,
      "do": 243,
      "diabetic": 244,
      "sho": 245,
      "vis": 246,
      "si": 247,
      "mosis": 248,
      "ep": 249,
      "oplas": 250,
      "oplasmosis": 251,
      "flu": 252,
      "ce": 253,
      "con": 254,
      "ole": 255,
      "cnvm": 256,
      "co": 257,
      "ore": 258,
      "ry": 259,
      "mul": 260,
      "later": 261,
      "no": 262,
      "multi": 263,
      "lo": 264,
      "hem": 265,
      "ks": 266,
      "for": 267,
      "vein": 268,
      "age": 269,
      "dru": 270,
      "25": 271,
      "drusen": 272,
      "show": 273,
      "ly": 274,
      "pr": 275,
      "ithel": 276,
      "epithel": 277,
      "epitheli": 278,
      "30": 279,
      "fer": 280,
      "tern": 281,
      "oresc": 282,
      "lateral": 283,
      "gener": 284,
      "branch": 285,
      "bi": 286,
      "am": 287,
      "degener": 288,
      "degeneration": 289,
      "oli": 290,
      "fluoresc": 291,
      "ocular": 292,
      "photogra": 293,
      "acu": 294,
      "man": 295,
      "macul": 296,
      "col": 297,
      "hole": 298,
      "40": 299,
      "photograph": 300,
      "was": 301,
      "ative": 302,
      "ct": 303,
      "10": 304,
      "res": 305,
      "hist": 306,
      "lar": 307,
      "od": 308,
      "lin": 309,
      "pat": 310,
      "hs": 311,
      "apil": 312,
      "pohs": 313,
      "oma": 314,
      "optic": 315,
      "peri": 316,
      "fo": 317,
      "pattern": 318,
      "my": 319,
      "best": 320,
      "50": 321,
      "histoplasmosis": 322,
      "hy": 323,
      "angiogra": 324,
      "veal": 325,
      "fi": 326,
      "rea": 327,
      "da": 328,
      "tion": 329,
      "csr": 330,
      "vision": 331,
      "we": 332,
      "un": 333,
      "presu": 334,
      "mem": 335,
      "med": 336,
      "tox": 337,
      "ten": 338,
      "dt": 339,
      "presumed": 340,
      "acute": 341,
      "bo": 342,
      "sion": 343,
      "membran": 344,
      "membrane": 345,
      "low": 346,
      "ser": 347,
      "toma": 348,
      "vi": 349,
      "star": 350,
      "olifer": 351,
      "prolifer": 352,
      "bilateral": 353,
      "dis": 354,
      "har": 355,
      "sive": 356,
      ").": 357,
      "ane": 358,
      "myop": 359,
      "ada": 360,
      "shows": 361,
      "harada": 362,
      "proliferative": 363,
      "ima": 364,
      "teri": 365,
      "fluoresce": 366,
      "cu": 367,
      "color": 368,
      "presen": 369,
      "rh": 370,
      "mel": 371,
      "fluorescein": 372,
      "pos": 373,
      "tel": 374,
      "ocal": 375,
      "angioid": 376,
      "papil": 377,
      "dema": 378,
      "scar": 379,
      "red": 380,
      "lesion": 381,
      "ner": 382,
      "70": 383,
      "focal": 384,
      "ple": 385,
      "fa": 386,
      "fla": 387,
      "epithelial": 388,
      "pse": 389,
      "pseu": 390,
      "ri": 391,
      "pseudo": 392,
      "angiogram": 393,
      "hyper": 394,
      "mia": 395,
      "orrh": 396,
      "orrhage": 397,
      "sis": 398,
      "ver": 399,
      "foveal": 400,
      "ack": 401,
      "rpe": 402,
      "multiple": 403,
      "hemorrhage": 404,
      "isis": 405,
      "osch": 406,
      "oschisis": 407,
      "image": 408,
      "aof": 409,
      "aofped": 410,
      "tu": 411,
      "mon": 412,
      "ble": 413,
      "ant": 414,
      "gar": 415,
      "stargar": 416,
      "stargardt": 417,
      "wo": 418,
      "oct": 419,
      "ual": 420,
      "melan": 421,
      "choroiditis": 422,
      "af": 423,
      "multifocal": 424,
      "ect": 425,
      "angiect": 426,
      "telangiect": 427,
      "ta": 428,
      "va": 429,
      "ity": 430,
      "lary": 431,
      "bvo": 432,
      "edema": 433,
      "disc": 434,
      "telangiectas": 435,
      "are": 436,
      "retinoschisis": 437,
      "exu": 438,
      "atrophy": 439,
      "ty": 440,
      "vit": 441,
      "osa": 442,
      "brvo": 443,
      "pigmentosa": 444,
      "reaks": 445,
      "ven": 446,
      "tra": 447,
      "had": 448,
      "alm": 449,
      "vitre": 450,
      "ting": 451,
      "ther": 452,
      "es": 453,
      "rom": 454,
      "uro": 455,
      "streaks": 456,
      "tensive": 457,
      "nerve": 458,
      "ju": 459,
      "ren": 460,
      "one": 461,
      "tr": 462,
      "thalm": 463,
      "ds": 464,
      "anti": 465,
      "ere": 466,
      "sm": 467,
      "um": 468,
      "choroidere": 469,
      "choroideremia": 470,
      "ob": 471,
      "from": 472,
      "oph": 473,
      "idi": 474,
      "opathic": 475,
      "idiopathic": 476,
      "vus": 477,
      "mew": 478,
      "nevus": 479,
      "100": 480,
      "month": 481,
      "inous": 482,
      "toxoplasmosis": 483,
      "melanoma": 484,
      "mewds": 485,
      "terior": 486,
      "visual": 487,
      "ber": 488,
      "tear": 489,
      "15": 490,
      "ophthalm": 491,
      "atus": 492,
      "au": 493,
      "fold": 494,
      "fol": 495,
      "woman": 496,
      "follow": 497,
      "icsc": 498,
      "end": 499,
      "ticular": 500,
      "wee": 501,
      "ste": 502,
      "she": 503,
      "myopic": 504,
      "after": 505,
      "cone": 506,
      "pan": 507,
      "nor": 508,
      "qu": 509,
      "hemangio": 510,
      "normal": 511,
      "li": 512,
      "tory": 513,
      "bl": 514,
      "aneu": 515,
      "cm": 516,
      "rysm": 517,
      "aneurysm": 518,
      "ence": 519,
      "lady": 520,
      "neuro": 521,
      "periph": 522,
      "mo": 523,
      "armd": 524,
      "cy": 525,
      "her": 526,
      "min": 527,
      "vascul": 528,
      "tes": 529,
      "60": 530,
      "oral": 531,
      "arter": 532,
      "years": 533,
      "ges": 534,
      "macula": 535,
      "resol": 536,
      "lastoma": 537,
      "history": 538,
      "dus": 539,
      "dusn": 540,
      "pic": 541,
      "both": 542,
      "ital": 543,
      "so": 544,
      "this": 545,
      "black": 546,
      "peripher": 547,
      "imp": 548,
      "pon": 549,
      "asal": 550,
      "sed": 551,
      "roaneurysm": 552,
      "ab": 553,
      "that": 554,
      "ved": 555,
      "eyes": 556,
      "weeks": 557,
      "dau": 558,
      "flavi": 559,
      "hip": 560,
      "ev": 561,
      "hispan": 562,
      "hispanic": 563,
      "genital": 564,
      "congenital": 565,
      "32": 566,
      "von": 567,
      "pel": 568,
      "cuticular": 569,
      "hippel": 570,
      "six": 571,
      "fam": 572,
      "laser": 573,
      "lindau": 574,
      "famil": 575,
      "mic": 576,
      "ass": 577,
      "maculopathy": 578,
      "telangiectasia": 579,
      "ction": 580,
      "has": 581,
      "ophthalmitis": 582,
      "endophthalmitis": 583,
      "66": 584,
      "maculatus": 585,
      "flavimaculatus": 586,
      "olar": 587,
      "amd": 588,
      "tive": 589,
      "bin": 590,
      "posterior": 591,
      "oid": 592,
      "choroidopathy": 593,
      "exuda": 594,
      "fu": 595,
      "macroaneurysm": 596,
      "pro": 597,
      "par": 598,
      "piginous": 599,
      "serpiginous": 600,
      "ine": 601,
      "cmv": 602,
      "ile": 603,
      "presented": 604,
      "fle": 605,
      "ir": 606,
      "line": 607,
      "ary": 608,
      "months": 609,
      "sta": 610,
      "vitreous": 611,
      "pdr": 612,
      "ron": 613,
      "ked": 614,
      "28": 615,
      "46": 616,
      "temp": 617,
      "myopia": 618,
      "neuroretinitis": 619,
      "temporal": 620,
      "flec": 621,
      "phi": 622,
      "rio": 623,
      "chorio": 624,
      "comp": 625,
      "epithelium": 626,
      "extensive": 627,
      "yan": 628,
      "lesions": 629,
      "folds": 630,
      "following": 631,
      "up": 632,
      "uve": 633,
      "uveitis": 634,
      "retina": 635,
      "fluorescence": 636,
      "ut": 637,
      "ast": 638,
      "present": 639,
      "trac": 640,
      "pl": 641,
      "capil": 642,
      "papillary": 643,
      "mation": 644,
      "post": 645,
      "apy": 646,
      "therapy": 647,
      "og": 648,
      "peripapillary": 649,
      "80": 650,
      "trea": 651,
      "here": 652,
      "dot": 653,
      "treated": 654,
      "cry": 655,
      "radi": 656,
      "artery": 657,
      "lea": 658,
      "capillary": 659,
      "64": 660,
      "ha": 661,
      "vasculitis": 662,
      "uma": 663,
      "reveal": 664,
      "sel": 665,
      "rd": 666,
      "ves": 667,
      "non": 668,
      "dif": 669,
      "cur": 670,
      "dec": 671,
      "lated": 672,
      "sixty": 673,
      "litis": 674,
      "19": 675,
      "large": 676,
      "29": 677,
      "agi": 678,
      "gt": 679,
      "ko": 680,
      "vogt": 681,
      "yanagi": 682,
      "koyanagi": 683,
      "ior": 684,
      "rosis": 685,
      "ocia": 686,
      "ell": 687,
      "respon": 688,
      "angiography": 689,
      "associa": 690,
      "sur": 691,
      "associated": 692,
      "chron": 693,
      "exam": 694,
      "chronic": 695,
      "13": 696,
      "eld": 697,
      "linked": 698,
      "chan": 699,
      "fin": 700,
      "scent": 701,
      "anescent": 702,
      "evanescent": 703,
      "boy": 704,
      "auto": 705,
      "55": 706,
      "ur": 707,
      "outer": 708,
      "mppe": 709,
      "mil": 710,
      "com": 711,
      "jux": 712,
      "plac": 713,
      "juxta": 714,
      "there": 715,
      "hemangioma": 716,
      "placoid": 717,
      "can": 718,
      "tom": 719,
      "ilateral": 720,
      "acuity": 721,
      "unilateral": 722,
      "radiation": 723,
      "vessel": 724,
      "steroid": 725,
      "over": 726,
      "infla": 727,
      "ture": 728,
      "exud": 729,
      "inflam": 730,
      "recur": 731,
      "ign": 732,
      "papillitis": 733,
      "related": 734,
      "hypertensive": 735,
      "bac": 736,
      "ance": 737,
      "cys": 738,
      "steroids": 739,
      "ss": 740,
      "fuse": 741,
      "toid": 742,
      "late": 743,
      "telangiectasis": 744,
      "diffuse": 745,
      "gro": 746,
      "47": 747,
      "tor": 748,
      "peripheral": 749,
      "family": 750,
      "back": 751,
      "ial": 752,
      "vir": 753,
      "icity": 754,
      "toxicity": 755,
      "flecks": 756,
      "llow": 757,
      "venile": 758,
      "juvenile": 759,
      "wor": 760,
      "retinob": 761,
      "juxtafoveal": 762,
      "recurren": 763,
      "cystoid": 764,
      "retinoblastoma": 765,
      "phase": 766,
      "lain": 767,
      "24": 768,
      "met": 769,
      "stal": 770,
      "rao": 771,
      "were": 772,
      "complain": 773,
      "crystal": 774,
      "cr": 775,
      "ts": 776,
      "mptom": 777,
      "fove": 778,
      "exudative": 779,
      "inflammation": 780,
      "ger": 781,
      "ll": 782,
      "wn": 783,
      "seen": 784,
      "intra": 785,
      "active": 786,
      "phic": 787,
      "ovir": 788,
      "pdt": 789,
      "53": 790,
      "ham": 791,
      "artoma": 792,
      "leak": 793,
      "hamartoma": 794,
      "but": 795,
      "nvd": 796,
      "men": 797,
      "ree": 798,
      "rease": 799,
      "12": 800,
      "68": 801,
      "sus": 802,
      "pc": 803,
      "epitheliopathy": 804,
      "ate": 805,
      "ated": 806,
      "je": 807,
      "inje": 808,
      "subacute": 809,
      "ding": 810,
      "ii": 811,
      "olog": 812,
      "inf": 813,
      "pid": 814,
      "injection": 815,
      "blu": 816,
      "ian": 817,
      "uc": 818,
      "tice": 819,
      "trauma": 820,
      "52": 821,
      "impro": 822,
      "who": 823,
      "infer": 824,
      "out": 825,
      "inferior": 826,
      "arteri": 827,
      "decrease": 828,
      "cor": 829,
      "mid": 830,
      "mri": 831,
      "lamin": 832,
      "giant": 833,
      "laminar": 834,
      "basal": 835,
      "well": 836,
      "head": 837,
      "49": 838,
      "enty": 839,
      "ide": 840,
      "cted": 841,
      "horoid": 842,
      "presentation": 843,
      "horoidal": 844,
      "seve": 845,
      "ism": 846,
      "supr": 847,
      "severe": 848,
      "cau": 849,
      "du": 850,
      "positi": 851,
      "go": 852,
      "have": 853,
      "surger": 854,
      "35": 855,
      "cme": 856,
      "domacular": 857,
      "shot": 858,
      "bird": 859,
      "heredomacular": 860,
      "birdshot": 861,
      "72": 862,
      "achoroidal": 863,
      "phos": 864,
      "crvo": 865,
      "suprachoroidal": 866,
      "56": 867,
      "kh": 868,
      "pun": 869,
      "vkh": 870,
      "field": 871,
      "showing": 872,
      "venous": 873,
      "et": 874,
      "our": 875,
      "ternal": 876,
      "exudates": 877,
      "cul": 878,
      "iv": 879,
      "sin": 880,
      "term": 881,
      "oste": 882,
      "showed": 883,
      "revealed": 884,
      "16": 885,
      "ca": 886,
      "chem": 887,
      "hemangiob": 888,
      "changes": 889,
      "recurrent": 890,
      "since": 891,
      "osteoma": 892,
      "albin": 893,
      "coma": 894,
      "mye": 895,
      "pla": 896,
      "ull": 897,
      "pholi": 898,
      "antiphos": 899,
      "plaqu": 900,
      "pholipid": 901,
      "antiphospholipid": 902,
      "65": 903,
      "81": 904,
      "if": 905,
      "mar": 906,
      "ution": 907,
      "atic": 908,
      "nasal": 909,
      "albinism": 910,
      "resolved": 911,
      "ground": 912,
      "background": 913,
      "genous": 914,
      "fluid": 915,
      "kno": 916,
      "pit": 917,
      "not": 918,
      "known": 919,
      "did": 920,
      "leber": 921,
      "due": 922,
      "punct": 923,
      "gf": 924,
      "hd": 925,
      "venty": 926,
      "sebac": 927,
      "seventy": 928,
      "asian": 929,
      "vegf": 930,
      "fty": 931,
      "noted": 932,
      "fifty": 933,
      "hemangioblastoma": 934,
      "sebace": 935,
      "by": 936,
      "gh": 937,
      "enil": 938,
      "ded": 939,
      "atu": 940,
      "plaquenil": 941,
      "csc": 942,
      "ttice": 943,
      "lattice": 944,
      "apmppe": 945,
      "resolution": 946,
      "combin": 947,
      "surgery": 948,
      "hdpe": 949,
      "cscr": 950,
      "67": 951,
      "ving": 952,
      "ferred": 953,
      "exudate": 954,
      "14": 955,
      "ler": 956,
      "inner": 957,
      "under": 958,
      "colob": 959,
      "linear": 960,
      "pcv": 961,
      "sebaceous": 962,
      "coloboma": 963,
      "los": 964,
      "some": 965,
      "loss": 966,
      "22": 967,
      "75": 968,
      "referred": 969,
      "positive": 970,
      "gres": 971,
      "avas": 972,
      "chi": 973,
      "avastin": 974,
      "45": 975,
      "initi": 976,
      "vel": 977,
      "gill": 978,
      "pergill": 979,
      "body": 980,
      "tape": 981,
      "abnormal": 982,
      "pergillus": 983,
      "viti": 984,
      "syste": 985,
      "stable": 986,
      "autofluorescence": 987,
      "59": 988,
      "gment": 989,
      "lig": 990,
      "ache": 991,
      "traction": 992,
      "198": 993,
      "vitilig": 994,
      "systemic": 995,
      "vitiliginous": 996,
      "44": 997,
      "63": 998,
      "mas": 999,
      "graphy": 1000,
      "subfoveal": 1001,
      "oun": 1002,
      "wet": 1003,
      "leakage": 1004,
      "doc": 1005,
      "ear": 1006,
      "tent": 1007,
      "blur": 1008,
      "ama": 1009,
      "four": 1010,
      "im": 1011,
      "lp": 1012,
      "sug": 1013,
      "nec": 1014,
      "tomo": 1015,
      "heren": 1016,
      "coheren": 1017,
      "optical": 1018,
      "day": 1019,
      "vessels": 1020,
      "decreased": 1021,
      "coherence": 1022,
      "em": 1023,
      "oretinal": 1024,
      "ination": 1025,
      "diag": 1026,
      "diabetes": 1027,
      "brao": 1028,
      "ischem": 1029,
      "antibody": 1030,
      "examination": 1031,
      "ox": 1032,
      "ring": 1033,
      "scle": 1034,
      "areolar": 1035,
      "periphery": 1036,
      "other": 1037,
      "spo": 1038,
      "all": 1039,
      "ocar": 1040,
      "sugges": 1041,
      "31": 1042,
      "infe": 1043,
      "without": 1044,
      "fellow": 1045,
      "ocy": 1046,
      "pical": 1047,
      "early": 1048,
      "sclerosis": 1049,
      "foli": 1050,
      "ging": 1051,
      "exfoli": 1052,
      "pseudoexfoli": 1053,
      "pseudoexfoliation": 1054,
      "ton": 1055,
      "ining": 1056,
      "ory": 1057,
      "34": 1058,
      "dro": 1059,
      "tomography": 1060,
      "62": 1061,
      "oil": 1062,
      "ran": 1063,
      "ult": 1064,
      "oped": 1065,
      "asis": 1066,
      "devel": 1067,
      "solar": 1068,
      "clu": 1069,
      "clovir": 1070,
      "fir": 1071,
      "bdr": 1072,
      "gla": 1073,
      "ucoma": 1074,
      "featu": 1075,
      "superi": 1076,
      "glaucoma": 1077,
      "37": 1078,
      "px": 1079,
      "rp": 1080,
      "wide": 1081,
      "laye": 1082,
      "epi": 1083,
      "metast": 1084,
      "ology": 1085,
      "headache": 1086,
      "features": 1087,
      "pxe": 1088,
      "mi": 1089,
      "yclovir": 1090,
      "acyclovir": 1091,
      "sible": 1092,
      "simil": 1093,
      "similar": 1094,
      "pa": 1095,
      "sil": 1096,
      "21": 1097,
      "urosis": 1098,
      "amaurosis": 1099,
      "mor": 1100,
      "scler": 1101,
      "found": 1102,
      "vitreo": 1103,
      "combined": 1104,
      "eight": 1105,
      "aspergillus": 1106,
      "mato": 1107,
      "external": 1108,
      "coat": 1109,
      "silic": 1110,
      "18": 1111,
      "ke": 1112,
      "lr": 1113,
      "xlr": 1114,
      "ared": 1115,
      "off": 1116,
      "area": 1117,
      "typical": 1118,
      "mild": 1119,
      "xlrs": 1120,
      "54": 1121,
      "rl": 1122,
      "adult": 1123,
      "tuber": 1124,
      "response": 1125,
      "developed": 1126,
      "69": 1127,
      "car": 1128,
      "fib": 1129,
      "superior": 1130,
      "hm": 1131,
      "ised": 1132,
      "sign": 1133,
      "ledema": 1134,
      "dry": 1135,
      "papilledema": 1136,
      "familial": 1137,
      "rup": 1138,
      "segment": 1139,
      "toxocar": 1140,
      "crystals": 1141,
      "tapeoretinal": 1142,
      "toxocara": 1143,
      "smal": 1144,
      "asy": 1145,
      "lyme": 1146,
      "small": 1147,
      "-.": 1148,
      "gal": 1149,
      "ogra": 1150,
      "time": 1151,
      "ities": 1152,
      "ill": 1153,
      "chorioretinitis": 1154,
      "massive": 1155,
      "26": 1156,
      "cal": 1157,
      "cer": 1158,
      "otherapy": 1159,
      "two": 1160,
      "girl": 1161,
      "heme": 1162,
      "symptom": 1163,
      "250": 1164,
      "possible": 1165,
      "71": 1166,
      "form": 1167,
      "cause": 1168,
      "ographic": 1169,
      "symptoms": 1170,
      "36": 1171,
      "endo": 1172,
      "icg": 1173,
      "perf": 1174,
      "arteritis": 1175,
      "staining": 1176,
      "endogenous": 1177,
      "cular": 1178,
      "each": 1179,
      "ker": 1180,
      "reat": 1181,
      "new": 1182,
      "scan": 1183,
      "geographic": 1184,
      "clin": 1185,
      "mented": 1186,
      "punctate": 1187,
      "alth": 1188,
      "susac": 1189,
      "78": 1190,
      "affe": 1191,
      "first": 1192,
      "limi": 1193,
      "progres": 1194,
      "mptomatic": 1195,
      "asymptomatic": 1196,
      "dm": 1197,
      "consis": 1198,
      "loma": 1199,
      "micro": 1200,
      "crystalline": 1201,
      "pol": 1202,
      "also": 1203,
      "been": 1204,
      "unknown": 1205,
      "metastasis": 1206,
      "61": 1207,
      "gold": 1208,
      "fect": 1209,
      "finding": 1210,
      "clinic": 1211,
      "goldman": 1212,
      "38": 1213,
      "ag": 1214,
      "ning": 1215,
      "sa": 1216,
      "ulation": 1217,
      "idal": 1218,
      "lamel": 1219,
      "melanocy": 1220,
      "doctor": 1221,
      "days": 1222,
      "poly": 1223,
      "lamellar": 1224,
      "melanocytoma": 1225,
      "av": 1226,
      "lon": 1227,
      "nosis": 1228,
      "rophic": 1229,
      "led": 1230,
      "vement": 1231,
      "pigmentary": 1232,
      "hemorrhages": 1233,
      "canis": 1234,
      "initial": 1235,
      "layer": 1236,
      "coats": 1237,
      "goldmann": 1238,
      "ick": 1239,
      "sco": 1240,
      "health": 1241,
      "obser": 1242,
      "perfusion": 1243,
      "len": 1244,
      "defect": 1245,
      "laterals": 1246,
      "collaterals": 1247,
      "mother": 1248,
      "improved": 1249,
      "ific": 1250,
      "headaches": 1251,
      "cf": 1252,
      "free": 1253,
      "sl": 1254,
      "rotemporal": 1255,
      "photos": 1256,
      "poidal": 1257,
      "biet": 1258,
      "started": 1259,
      "imaging": 1260,
      "polypoidal": 1261,
      "bietti": 1262,
      "85": 1263,
      "inher": 1264,
      "high": 1265,
      "grade": 1266,
      "angioma": 1267,
      "42": 1268,
      "zoc": 1269,
      "vasculopathy": 1270,
      "complaint": 1271,
      "ivig": 1272,
      "myeloma": 1273,
      "diagnosis": 1274,
      "scotoma": 1275,
      "zocchi": 1276,
      "39": 1277,
      "74": 1278,
      "loop": 1279,
      "fiber": 1280,
      "intraocular": 1281,
      ".,": 1282,
      "cin": 1283,
      "ele": 1284,
      "mus": 1285,
      "treat": 1286,
      "vol": 1287,
      "zing": 1288,
      "any": 1289,
      "syphi": 1290,
      "appe": 1291,
      "oles": 1292,
      "scleritis": 1293,
      "treatment": 1294,
      "amppe": 1295,
      "den": 1296,
      "mt": 1297,
      "invol": 1298,
      "cancer": 1299,
      "gent": 1300,
      "trophy": 1301,
      "three": 1302,
      "hypertrophy": 1303,
      "very": 1304,
      "chorioretinopathy": 1305,
      "gentle": 1306,
      "band": 1307,
      "bull": 1308,
      "hce": 1309,
      "arac": 1310,
      "reticular": 1311,
      "status": 1312,
      "behce": 1313,
      "400": 1314,
      "chorioretinal": 1315,
      "suggesting": 1316,
      "epiretinal": 1317,
      "appear": 1318,
      "behcet": 1319,
      "van": 1320,
      "secon": 1321,
      "yellow": 1322,
      "fovea": 1323,
      "corre": 1324,
      "160": 1325,
      "bre": 1326,
      "cir": 1327,
      "sp": 1328,
      "raised": 1329,
      "tical": 1330,
      "part": 1331,
      "iii": 1332,
      "breast": 1333,
      "clinical": 1334,
      "sit": 1335,
      "astic": 1336,
      "tome": 1337,
      "elastic": 1338,
      "photoco": 1339,
      "tension": 1340,
      "hypertension": 1341,
      "renal": 1342,
      "cytome": 1343,
      "ovirus": 1344,
      "ischemic": 1345,
      "silicon": 1346,
      "galovirus": 1347,
      "photocoag": 1348,
      "cytomegalovirus": 1349,
      "43": 1350,
      "fore": 1351,
      "prim": 1352,
      "scarring": 1353,
      "photocoagulation": 1354,
      "primary": 1355,
      "58": 1356,
      "73": 1357,
      "79": 1358,
      "forty": 1359,
      "hyperfluorescence": 1360,
      "week": 1361,
      "somal": 1362,
      "change": 1363,
      "autosomal": 1364,
      "second": 1365,
      "41": 1366,
      "crao": 1367,
      "full": 1368,
      "oton": 1369,
      "rared": 1370,
      "ultra": 1371,
      "ness": 1372,
      "myoton": 1373,
      "five": 1374,
      "infrared": 1375,
      "gentleman": 1376,
      "myotonic": 1377,
      "ced": 1378,
      "fly": 1379,
      "xan": 1380,
      "thoma": 1381,
      "thick": 1382,
      "set": 1383,
      "seven": 1384,
      "deterior": 1385,
      "terfly": 1386,
      "dition": 1387,
      "itance": 1388,
      "pseudoxan": 1389,
      "images": 1390,
      "picture": 1391,
      "butterfly": 1392,
      "rupture": 1393,
      "inheritance": 1394,
      "elasticum": 1395,
      "deterioration": 1396,
      "pseudoxanthoma": 1397,
      "ible": 1398,
      "ssu": 1399,
      "terole": 1400,
      "rate": 1401,
      "choles": 1402,
      "htn": 1403,
      "hisis": 1404,
      "visible": 1405,
      "improvement": 1406,
      "myelin": 1407,
      "terolemia": 1408,
      "cholesterolemia": 1409,
      "path": 1410,
      "advan": 1411,
      "domin": 1412,
      "cons": 1413,
      "perifoveal": 1414,
      "rhab": 1415,
      "oxal": 1416,
      "advanced": 1417,
      "dominant": 1418,
      "rhabdo": 1419,
      "33": 1420,
      "57": 1421,
      "ater": 1422,
      "gl": 1423,
      "hx": 1424,
      "rhe": 1425,
      "sh": 1426,
      "before": 1427,
      "pigmented": 1428,
      "pigmentation": 1429,
      "pred": 1430,
      "hyp": 1431,
      "faf": 1432,
      "necrosis": 1433,
      "morning": 1434,
      "glory": 1435,
      "17": 1436,
      "ball": 1437,
      "tal": 1438,
      "youn": 1439,
      "then": 1440,
      "ang": 1441,
      "str": 1442,
      "while": 1443,
      "sud": 1444,
      "tured": 1445,
      "blem": 1446,
      "ending": 1447,
      "problem": 1448,
      "progressive": 1449,
      "young": 1450,
      "cand": 1451,
      "ew": 1452,
      "went": 1453,
      "roqu": 1454,
      "malign": 1455,
      "ida": 1456,
      "atrophic": 1457,
      "chlo": 1458,
      "culosis": 1459,
      "underwent": 1460,
      "tuberculosis": 1461,
      "fibro": 1462,
      "sudden": 1463,
      "candida": 1464,
      "roquine": 1465,
      "chloroquine": 1466,
      "77": 1467,
      "cell": 1468,
      "tw": 1469,
      "rou": 1470,
      "ules": 1471,
      "ican": 1472,
      "ned": 1473,
      "itus": 1474,
      "like": 1475,
      "came": 1476,
      "spot": 1477,
      "bitis": 1478,
      "coun": 1479,
      "gre": 1480,
      "sle": 1481,
      "tizing": 1482,
      "recent": 1483,
      "rotizing": 1484,
      "inclu": 1485,
      "lebitis": 1486,
      "main": 1487,
      "elder": 1488,
      "necrotizing": 1489,
      "drop": 1490,
      "myelinated": 1491,
      "including": 1492,
      "51": 1493,
      "bone": 1494,
      "cto": 1495,
      "dual": 1496,
      "spic": 1497,
      "tage": 1498,
      "gradual": 1499,
      "pressu": 1500,
      "formation": 1501,
      "uck": 1502,
      "malignant": 1503,
      "pressure": 1504,
      "125": 1505,
      "27": 1506,
      "320": 1507,
      "casian": 1508,
      "mu": 1509,
      "nis": 1510,
      "spe": 1511,
      "reflec": 1512,
      "view": 1513,
      "neuroretinopathy": 1514,
      "impending": 1515,
      "fused": 1516,
      "caucasian": 1517,
      "abnormalities": 1518,
      "vitreoretinopathy": 1519,
      "corrected": 1520,
      "prednis": 1521,
      "prednisone": 1522,
      "ago": 1523,
      "cva": 1524,
      "nine": 1525,
      "stel": 1526,
      "val": 1527,
      "onset": 1528,
      "rain": 1529,
      "montage": 1530,
      "impa": 1531,
      "decal": 1532,
      "work": 1533,
      "tractional": 1534,
      "blurred": 1535,
      "consistent": 1536,
      "findings": 1537,
      "appearance": 1538,
      "situ": 1539,
      "stellate": 1540,
      "76": 1541,
      "ating": 1542,
      "case": 1543,
      "tam": 1544,
      "entral": 1545,
      "schisis": 1546,
      "smo": 1547,
      "reveals": 1548,
      "bacteri": 1549,
      "ifen": 1550,
      "oxifen": 1551,
      "limited": 1552,
      "reflective": 1553,
      "tamoxifen": 1554,
      "ld": 1555,
      "pul": 1556,
      "rt": 1557,
      "vac": 1558,
      "xes": 1559,
      "assis": 1560,
      "bevac": 1561,
      "sening": 1562,
      "izuma": 1563,
      "fixes": 1564,
      "starting": 1565,
      "vated": 1566,
      "areas": 1567,
      "trol": 1568,
      "follows": 1569,
      "mot": 1570,
      "worsening": 1571,
      "inferotemporal": 1572,
      "elevated": 1573,
      "assisted": 1574,
      "bevacizuma": 1575,
      "bevacizumab": 1576,
      "ae": 1577,
      "fra": 1578,
      "oro": 1579,
      "sic": 1580,
      "vr": 1581,
      "rod": 1582,
      "ents": 1583,
      "ental": 1584,
      "hor": 1585,
      "lear": 1586,
      "depigmentation": 1587,
      "perflu": 1588,
      "ized": 1589,
      "cere": 1590,
      "prior": 1591,
      "ophthalmic": 1592,
      "parents": 1593,
      "good": 1594,
      "pain": 1595,
      "healthy": 1596,
      "lens": 1597,
      "ctomy": 1598,
      "decalin": 1599,
      "orodecalin": 1600,
      "perfluorodecalin": 1601,
      "bcva": 1602,
      "ired": 1603,
      "yon": 1604,
      "test": 1605,
      "short": 1606,
      "vitreal": 1607,
      "resolving": 1608,
      "infar": 1609,
      "infection": 1610,
      "observed": 1611,
      "green": 1612,
      "gy": 1613,
      "sequ": 1614,
      "became": 1615,
      "brin": 1616,
      "centre": 1617,
      "poor": 1618,
      "fibrin": 1619,
      "flat": 1620,
      "gyrate": 1621,
      "pole": 1622,
      "anterior": 1623,
      "intrac": 1624,
      "erm": 1625,
      "total": 1626,
      "which": 1627,
      "addition": 1628,
      "lying": 1629,
      "tors": 1630,
      "ischemia": 1631,
      "ranial": 1632,
      "intracranial": 1633,
      "128": 1634,
      "48": 1635,
      "gran": 1636,
      "rant": 1637,
      "sti": 1638,
      "xy": 1639,
      "ace": 1640,
      "chrpe": 1641,
      "adrant": 1642,
      "hydro": 1643,
      "quadrant": 1644,
      "intravitreal": 1645,
      "child": 1646,
      "changed": 1647,
      "xychloroquine": 1648,
      "hydroxychloroquine": 1649,
      "'.": 1650,
      "brain": 1651,
      "tered": 1652,
      "row": 1653,
      "lete": 1654,
      "ortion": 1655,
      "abortion": 1656,
      "complete": 1657,
      "foveoschisis": 1658,
      "vitreomacular": 1659,
      "problems": 1660,
      "recently": 1661,
      "abortions": 1662,
      "able": 1663,
      "bor": 1664,
      "eal": 1665,
      "gmato": 1666,
      "iant": 1667,
      "tary": 1668,
      "var": 1669,
      "fevr": 1670,
      "ditary": 1671,
      "vious": 1672,
      "angiograms": 1673,
      "hereditary": 1674,
      "cryotherapy": 1675,
      "responded": 1676,
      "culture": 1677,
      "pair": 1678,
      "calc": 1679,
      "cinoma": 1680,
      "muscular": 1681,
      "rhegmato": 1682,
      "eales": 1683,
      "variant": 1684,
      "rhegmatogenous": 1685,
      "cep": 1686,
      "ien": 1687,
      "regi": 1688,
      "fluorescent": 1689,
      "disor": 1690,
      "tracks": 1691,
      "same": 1692,
      "consang": 1693,
      "elderly": 1694,
      "impaired": 1695,
      "consangu": 1696,
      "bly": 1697,
      "der": 1698,
      "dur": 1699,
      "land": 1700,
      "inc": 1701,
      "isch": 1702,
      "island": 1703,
      "less": 1704,
      "these": 1705,
      "bed": 1706,
      "bear": 1707,
      "berous": 1708,
      "unding": 1709,
      "eding": 1710,
      "tuberous": 1711,
      "panretinal": 1712,
      "signific": 1713,
      "oxalosis": 1714,
      "ischae": 1715,
      "significant": 1716,
      "11": 1717,
      "bal": 1718,
      "blo": 1719,
      "nitus": 1720,
      "top": 1721,
      "tun": 1722,
      "sever": 1723,
      "oncol": 1724,
      "tinnitus": 1725,
      "uloma": 1726,
      "deli": 1727,
      "scri": 1728,
      "fortun": 1729,
      "rier": 1730,
      "vertical": 1731,
      "surro": 1732,
      "ately": 1733,
      "ologic": 1734,
      "arterio": 1735,
      "spots": 1736,
      "affected": 1737,
      "long": 1738,
      "circu": 1739,
      "much": 1740,
      "granuloma": 1741,
      "several": 1742,
      "oncolog": 1743,
      "delivery": 1744,
      "scribed": 1745,
      "fortunately": 1746,
      "cq": 1747,
      "coc": 1748,
      "hcq": 1749,
      "ies": 1750,
      "iform": 1751,
      "omacular": 1752,
      "semin": 1753,
      "enuc": 1754,
      "uld": 1755,
      "defin": 1756,
      "icentral": 1757,
      "pericentral": 1758,
      "could": 1759,
      "photography": 1760,
      "hype": 1761,
      "vitel": 1762,
      "dissemin": 1763,
      "presenting": 1764,
      "liform": 1765,
      "recurrence": 1766,
      "foveomacular": 1767,
      "suggestive": 1768,
      "carcinoma": 1769,
      "vitelliform": 1770,
      "disseminated": 1771,
      "ey": 1772,
      "gr": 1773,
      "light": 1774,
      "ng": 1775,
      "pus": 1776,
      "ure": 1777,
      "reo": 1778,
      "thir": 1779,
      "interm": 1780,
      "malformation": 1781,
      "neur": 1782,
      "ittent": 1783,
      "class": 1784,
      "lung": 1785,
      "control": 1786,
      "nosed": 1787,
      "hyperreflective": 1788,
      "stereo": 1789,
      "para": 1790,
      "pcp": 1791,
      "initiating": 1792,
      "diagnosed": 1793,
      "shun": 1794,
      "arteriovenous": 1795,
      "grand": 1796,
      "intermittent": 1797,
      "neuritis": 1798,
      "classic": 1799,
      "82": 1800,
      "cen": 1801,
      "gam": 1802,
      "mopathy": 1803,
      "mscribed": 1804,
      "tane": 1805,
      "vation": 1806,
      "xal": 1807,
      "ythe": 1808,
      "regres": 1809,
      "remain": 1810,
      "rop": 1811,
      "roxal": 1812,
      "ins": 1813,
      "inju": 1814,
      "erythe": 1815,
      "hood": 1816,
      "leation": 1817,
      "idental": 1818,
      "orb": 1819,
      "phthalm": 1820,
      "ely": 1821,
      "lupus": 1822,
      "tumor": 1823,
      "vitrectomy": 1824,
      "tran": 1825,
      "uria": 1826,
      "infant": 1827,
      "1985": 1828,
      "1987": 1829,
      "clump": 1830,
      "matosus": 1831,
      "microphthalm": 1832,
      "lonal": 1833,
      "secondary": 1834,
      "struck": 1835,
      "additional": 1836,
      "childhood": 1837,
      "circumscribed": 1838,
      "enucleation": 1839,
      "hyperoxal": 1840,
      "gammopathy": 1841,
      "taneous": 1842,
      "injury": 1843,
      "erythematosus": 1844,
      "microphthalmos": 1845,
      "hyperoxaluria": 1846,
      "az": 1847,
      "cj": 1848,
      "cw": 1849,
      "che": 1850,
      "cel": 1851,
      "fal": 1852,
      "far": 1853,
      "hlear": 1854,
      "llu": 1855,
      "vre": 1856,
      "wf": 1857,
      "tigo": 1858,
      "rece": 1859,
      "repon": 1860,
      "recep": 1861,
      "thing": 1862,
      "sened": 1863,
      "tein": 1864,
      "ule": 1865,
      "issu": 1866,
      "erg": 1867,
      "vep": 1868,
      "orde": 1869,
      "demar": 1870,
      "athi": 1871,
      "pected": 1872,
      "given": 1873,
      "bellu": 1874,
      "confused": 1875,
      "rycel": 1876,
      "hyal": 1877,
      "memory": 1878,
      "favre": 1879,
      "vertigo": 1880,
      "tau": 1881,
      "disciform": 1882,
      "bloc": 1883,
      "cml": 1884,
      "eval": 1885,
      "protein": 1886,
      "parts": 1887,
      "find": 1888,
      "final": 1889,
      "worsened": 1890,
      "mens": 1891,
      "suspected": 1892,
      "signal": 1893,
      "saw": 1894,
      "anything": 1895,
      "mtx": 1896,
      "sprycel": 1897,
      "cerebellu": 1898,
      "iented": 1899,
      "regimens": 1900,
      "disoriented": 1901,
      "balance": 1902,
      "oncology": 1903,
      "cochlear": 1904,
      "eylea": 1905,
      "azathi": 1906,
      "cjd": 1907,
      "cws": 1908,
      "false": 1909,
      "farve": 1910,
      "reponse": 1911,
      "issues": 1912,
      "ordered": 1913,
      "cerebellum": 1914,
      "23": 1915,
      "bic": 1916,
      "cat": 1917,
      "nve": 1918,
      "roth": 1919,
      "oper": 1920,
      "photorecep": 1921,
      "luoresc": 1922,
      "edges": 1923,
      "cess": 1924,
      "complaints": 1925,
      "blurry": 1926,
      "initially": 1927,
      "aract": 1928,
      "biclonal": 1929,
      "cataract": 1930,
      "cac": 1931,
      "mber": 1932,
      "sme": 1933,
      "spon": 1934,
      "uation": 1935,
      "throu": 1936,
      "vember": 1937,
      "ofluoresc": 1938,
      "supe": 1939,
      "previous": 1940,
      "adj": 1941,
      "november": 1942,
      "holes": 1943,
      "type": 1944,
      "slight": 1945,
      "pathology": 1946,
      "remained": 1947,
      "cation": 1948,
      "fl": 1949,
      "fic": 1950,
      "fun": 1951,
      "olor": 1952,
      "doing": 1953,
      "photographs": 1954,
      "tur": 1955,
      "periphlebitis": 1956,
      "arteriolar": 1957,
      "underlying": 1958,
      "tubercular": 1959,
      "hyaloid": 1960,
      "83": 1961,
      "cti": 1962,
      "cre": 1963,
      "arcoma": 1964,
      "using": 1965,
      "idual": 1966,
      "medi": 1967,
      "ather": 1968,
      "osarcoma": 1969,
      "charac": 1970,
      "its": 1971,
      "residual": 1972,
      "myosarcoma": 1973,
      "folded": 1974,
      "nonperfusion": 1975,
      "arterial": 1976,
      "carrier": 1977,
      "fibrosis": 1978,
      "rhabdomyosarcoma": 1979,
      "spicules": 1980,
      "thirty": 1981,
      "parafoveal": 1982,
      "clumping": 1983,
      "photoreceptors": 1984,
      "character": 1985,
      "),": 1986,
      "aine": 1987,
      "kely": 1988,
      "lign": 1989,
      "omal": 1990,
      "sia": 1991,
      "vh": 1992,
      "tial": 1993,
      "argen": 1994,
      "recor": 1995,
      "anomal": 1996,
      "tina": 1997,
      "ocaine": 1998,
      "neg": 1999,
      "else": 2000,
      "shoe": 2001,
      "cot": 2002,
      "drusenoid": 2003,
      "histopath": 2004,
      "likely": 2005,
      "having": 2006,
      "epimacular": 2007,
      "limiting": 2008,
      "syphil": 2009,
      "thickness": 2010,
      "horse": 2011,
      "demarcation": 2012,
      "cacd": 2013,
      "argentina": 2014,
      "ao": 2015,
      "fing": 2016,
      "ken": 2017,
      "ound": 2018,
      "tis": 2019,
      "indoc": 2020,
      "opto": 2021,
      "hiv": 2022,
      "media": 2023,
      "hyperfluorescent": 2024,
      "taken": 2025,
      "rent": 2026,
      "aneurysms": 2027,
      "yanine": 2028,
      "metal": 2029,
      "complaining": 2030,
      "correspon": 2031,
      "silicone": 2032,
      ".,,": 2033,
      "hypofluoresc": 2034,
      "infarction": 2035,
      "still": 2036,
      "blood": 2037,
      "finger": 2038,
      "indocyanine": 2039,
      "optos": 2040,
      "fs": 2041,
      "flo": 2042,
      "gho": 2043,
      "more": 2044,
      "pi": 2045,
      "pur": 2046,
      "rx": 2047,
      "tsc": 2048,
      "water": 2049,
      "yr": 2050,
      "than": 2051,
      "orfs": 2052,
      "depos": 2053,
      "mably": 2054,
      "neph": 2055,
      "bryon": 2056,
      "presumably": 2057,
      "wool": 2058,
      "quet": 2059,
      "embryon": 2060,
      "consisting": 2061,
      "bacterial": 2062,
      "duration": 2063,
      "spontaneous": 2064,
      "lignocaine": 2065,
      "cotton": 2066,
      "horseshoe": 2067,
      "purtsc": 2068,
      "purtscher": 2069,
      "past": 2070,
      "use": 2071,
      "vmt": 2072,
      "around": 2073,
      "seem": 2074,
      "ross": 2075,
      "demon": 2076,
      "maternal": 2077,
      "ations": 2078,
      "atten": 2079,
      "peral": 2080,
      "note": 2081,
      "periperal": 2082,
      "proliferation": 2083,
      "evid": 2084,
      "complained": 2085,
      "grandmother": 2086,
      "seems": 2087,
      "demonst": 2088,
      "father": 2089,
      "loc": 2090,
      "ost": 2091,
      "rican": 2092,
      "ars": 2093,
      "thy": 2094,
      "tend": 2095,
      "rocy": 2096,
      "only": 2097,
      "deep": 2098,
      "extend": 2099,
      "notice": 2100,
      "prine": 2101,
      "hypo": 2102,
      "reak": 2103,
      "african": 2104,
      "almost": 2105,
      "astrocy": 2106,
      "diffic": 2107,
      "combination": 2108,
      "illness": 2109,
      "spec": 2110,
      "ropia": 2111,
      "azathiprine": 2112,
      "negative": 2113,
      "extending": 2114,
      "astrocytic": 2115,
      "hine": 2116,
      "ipcv": 2117,
      "mass": 2118,
      "puc": 2119,
      "albi": 2120,
      "enlar": 2121,
      "int": 2122,
      "2012": 2123,
      "toretinal": 2124,
      "machine": 2125,
      "ice": 2126,
      "amy": 2127,
      "histology": 2128,
      "roaneurysms": 2129,
      "microaneurysms": 2130,
      "marg": 2131,
      "punctatus": 2132,
      "tapetoretinal": 2133,
      "blurring": 2134,
      "eighty": 2135,
      "evaluation": 2136,
      "pucker": 2137,
      "albipunctatus": 2138,
      "enlarging": 2139,
      "bul": 2140,
      "ive": 2141,
      "nt": 2142,
      "tb": 2143,
      "tig": 2144,
      "inter": 2145,
      "lead": 2146,
      "tosis": 2147,
      "physic": 2148,
      "subsequ": 2149,
      "300": 2150,
      "traum": 2151,
      "antitubercular": 2152,
      "cmc": 2153,
      "iris": 2154,
      "worm": 2155,
      "blunt": 2156,
      "midperiphery": 2157,
      "cultured": 2158,
      "colobomata": 2159,
      "involving": 2160,
      "fibrotic": 2161,
      "regressed": 2162,
      "smears": 2163,
      "histopathology": 2164,
      "floater": 2165,
      "embryonal": 2166,
      "evidence": 2167,
      "bulb": 2168,
      "leading": 2169,
      "physician": 2170,
      "subsequent": 2171,
      "traumatic": 2172,
      "88": 2173,
      "90": 2174,
      "bur": 2175,
      "cle": 2176,
      "cting": 2177,
      "fill": 2178,
      "tren": 2179,
      "will": 2180,
      "ollen": 2181,
      "inity": 2182,
      "usive": 2183,
      "iden": 2184,
      "ters": 2185,
      "lay": 2186,
      "their": 2187,
      "chy": 2188,
      "clo": 2189,
      "last": 2190,
      "pounding": 2191,
      "occlusive": 2192,
      "app": 2193,
      "occlusions": 2194,
      "many": 2195,
      "scars": 2196,
      "scarred": 2197,
      "minu": 2198,
      "affecting": 2199,
      "progressed": 2200,
      "pully": 2201,
      "mott": 2202,
      "fragment": 2203,
      "consanguinity": 2204,
      "ischaemia": 2205,
      "block": 2206,
      "superotemporal": 2207,
      "metalic": 2208,
      "pipe": 2209,
      "trench": 2210,
      "eog": 2211,
      "face": 2212,
      "ium": 2213,
      "lit": 2214,
      "nl": 2215,
      "swell": 2216,
      "zone": 2217,
      "ropic": 2218,
      "into": 2219,
      "him": 2220,
      "stack": 2221,
      "deut": 2222,
      "perg": 2223,
      "photop": 2224,
      "diame": 2225,
      "conges": 2226,
      "dable": 2227,
      "presence": 2228,
      "presenile": 2229,
      "micron": 2230,
      "nonrecor": 2231,
      "marked": 2232,
      "ature": 2233,
      "imt": 2234,
      "emmot": 2235,
      "kestack": 2236,
      "ruptured": 2237,
      "fibers": 2238,
      "spect": 2239,
      "smokestack": 2240,
      "painless": 2241,
      "calcium": 2242,
      "defined": 2243,
      "shunt": 2244,
      "centered": 2245,
      "deposits": 2246,
      "swelling": 2247,
      "deutan": 2248,
      "microns": 2249,
      "nonrecordable": 2250,
      "emmotropic": 2251,
      "cop": 2252,
      "ite": 2253,
      "mun": 2254,
      "wth": 2255,
      "arrow": 2256,
      "indi": 2257,
      "atitis": 2258,
      "depositi": 2259,
      "general": 2260,
      "lied": 2261,
      "growth": 2262,
      "arteriole": 2263,
      "midperipheral": 2264,
      "immun": 2265,
      "observation": 2266,
      "counting": 2267,
      "frame": 2268,
      "incidental": 2269,
      "through": 2270,
      "syphilis": 2271,
      "identical": 2272,
      "applied": 2273,
      "deposition": 2274,
      "+.": 2275,
      "apergillus": 2276,
      "flas": 2277,
      "hal": 2278,
      "nous": 2279,
      "otic": 2280,
      "rth": 2281,
      "tri": 2282,
      "reus": 2283,
      "ene": 2284,
      "intr": 2285,
      "tinal": 2286,
      "stasis": 2287,
      "delaye": 2288,
      "terreus": 2289,
      "dilated": 2290,
      "centrally": 2291,
      "subhyaloid": 2292,
      "conj": 2293,
      "lomacular": 2294,
      "birth": 2295,
      "papillomacular": 2296,
      "versic": 2297,
      "vernous": 2298,
      "aretinal": 2299,
      "injections": 2300,
      "cavernous": 2301,
      "balls": 2302,
      "count": 2303,
      "quadrants": 2304,
      "fungal": 2305,
      "medical": 2306,
      "vhl": 2307,
      "difficul": 2308,
      "closed": 2309,
      "spectral": 2310,
      "flash": 2311,
      "intraretinal": 2312,
      "delayed": 2313,
      "versicolor": 2314,
      "gmus": 2315,
      "ny": 2316,
      "pin": 2317,
      "sof": 2318,
      "rotic": 2319,
      "acity": 2320,
      "ist": 2321,
      "opacity": 2322,
      "raquet": 2323,
      "dystrophic": 2324,
      "fluent": 2325,
      "confluent": 2326,
      "bleed": 2327,
      "testing": 2328,
      "prob": 2329,
      "process": 2330,
      "stagmus": 2331,
      "self": 2332,
      "boys": 2333,
      "intravenous": 2334,
      "keratitis": 2335,
      "hypop": 2336,
      "twin": 2337,
      "creamy": 2338,
      "cleared": 2339,
      "diameters": 2340,
      "congestion": 2341,
      "half": 2342,
      "nystagmus": 2343,
      "soft": 2344,
      "raquetball": 2345,
      "breaks": 2346,
      "gn": 2347,
      "glo": 2348,
      "koc": 2349,
      "loph": 2350,
      "omp": 2351,
      "son": 2352,
      "uted": 2353,
      "ukoc": 2354,
      "tid": 2355,
      "rele": 2356,
      "seeding": 2357,
      "tine": 2358,
      "leukoc": 2359,
      "within": 2360,
      "stage": 2361,
      "ort": 2362,
      "oria": 2363,
      "few": 2364,
      "ocomp": 2365,
      "sces": 2366,
      "histo": 2367,
      "senile": 2368,
      "cobacteri": 2369,
      "amor": 2370,
      "mycobacteri": 2371,
      "untreated": 2372,
      "papilloph": 2373,
      "romised": 2374,
      "absces": 2375,
      "parac": 2376,
      "grown": 2377,
      "tortu": 2378,
      "metamor": 2379,
      "syphilitis": 2380,
      "twenty": 2381,
      "spicule": 2382,
      "controlled": 2383,
      "anomaly": 2384,
      "hypofluorescence": 2385,
      "nephrotic": 2386,
      "thyroid": 2387,
      "immunocomp": 2388,
      "leukocoria": 2389,
      "mycobacterium": 2390,
      "papillophlebitis": 2391,
      "abscess": 2392,
      "immunocompromised": 2393,
      "84": 2394,
      "ip": 2395,
      "kable": 2396,
      "local": 2397,
      "sw": 2398,
      "remar": 2399,
      "ening": 2400,
      "inves": 2401,
      "usting": 2402,
      "labe": 2403,
      "lamp": 2404,
      "dimin": 2405,
      "shown": 2406,
      "amn": 2407,
      "amer": 2408,
      "unremar": 2409,
      "hard": 2410,
      "neuropath": 2411,
      "slit": 2412,
      "thickening": 2413,
      "routine": 2414,
      "border": 2415,
      "adjusting": 2416,
      "corresponds": 2417,
      "filling": 2418,
      "swollen": 2419,
      "investig": 2420,
      "labeled": 2421,
      "unremarkable": 2422,
      "neuropathy": 2423,
      "borders": 2424,
      "b2": 2425,
      "bun": 2426,
      "break": 2427,
      "cour": 2428,
      "db2": 2429,
      "glu": 2430,
      "mh": 2431,
      "pp": 2432,
      "pene": 2433,
      "ru": 2434,
      "sf": 2435,
      "ssive": 2436,
      "uated": 2437,
      "oler": 2438,
      "decl": 2439,
      "mag": 2440,
      "ilities": 2441,
      "confir": 2442,
      "cose": 2443,
      "notic": 2444,
      "cts": 2445,
      "uncti": 2446,
      "verted": 2447,
      "melanotic": 2448,
      "ophthalmologic": 2449,
      "most": 2450,
      "responsive": 2451,
      "comorb": 2452,
      "juxtafove": 2453,
      "llis": 2454,
      "surgeries": 2455,
      "cating": 2456,
      "1982": 2457,
      "metastatic": 2458,
      "microvascular": 2459,
      "syphillis": 2460,
      "vals": 2461,
      "smoker": 2462,
      "sequence": 2463,
      "calcific": 2464,
      "recessive": 2465,
      "ghost": 2466,
      "intoler": 2467,
      "blockage": 2468,
      "conjuncti": 2469,
      "globe": 2470,
      "glucose": 2471,
      "rube": 2472,
      "declining": 2473,
      "comorbilities": 2474,
      "juxtafoveolar": 2475,
      "intolerance": 2476,
      "87": 2477,
      "bro": 2478,
      "cross": 2479,
      "dar": 2480,
      "dou": 2481,
      "fac": 2482,
      "nop": 2483,
      "pall": 2484,
      "tle": 2485,
      "uded": 2486,
      "2014": 2487,
      "matory": 2488,
      "oscop": 2489,
      "scat": 2490,
      "extra": 2491,
      "site": 2492,
      "acuities": 2493,
      "toxo": 2494,
      "visually": 2495,
      "tears": 2496,
      "exudation": 2497,
      "inflammatory": 2498,
      "chemotherapy": 2499,
      "times": 2500,
      "afferent": 2501,
      "involuted": 2502,
      "clinically": 2503,
      "oxalate": 2504,
      "born": 2505,
      "operative": 2506,
      "located": 2507,
      "margins": 2508,
      "minutes": 2509,
      "american": 2510,
      "dark": 2511,
      "double": 2512,
      "pallor": 2513,
      "amp": 2514,
      "amelanotic": 2515,
      "cd": 2516,
      "cil": 2517,
      "csf": 2518,
      "eith": 2519,
      "ffa": 2520,
      "ife": 2521,
      "ioretinal": 2522,
      "otid": 2523,
      "ria": 2524,
      "spr": 2525,
      "vf": 2526,
      "where": 2527,
      "xt": 2528,
      "olving": 2529,
      "ana": 2530,
      "ancy": 2531,
      "onh": 2532,
      "hot": 2533,
      "febr": 2534,
      "occur": 2535,
      "thesia": 2536,
      "next": 2537,
      "pregn": 2538,
      "occluded": 2539,
      "patchy": 2540,
      "anemia": 2541,
      "pleocy": 2542,
      "bleeding": 2543,
      "tration": 2544,
      "vasculature": 2545,
      "evolving": 2546,
      "ineous": 2547,
      "plus": 2548,
      "radiotherapy": 2549,
      "ivda": 2550,
      "marria": 2551,
      "34yr": 2552,
      "offspr": 2553,
      "carotid": 2554,
      "infarcts": 2555,
      "consanguineous": 2556,
      "characterized": 2557,
      ".,,-": 2558,
      "floaters": 2559,
      "localized": 2560,
      "penetration": 2561,
      "cd4": 2562,
      "cilioretinal": 2563,
      "either": 2564,
      "febrile": 2565,
      "pleocytosis": 2566,
      "marriage": 2567,
      "offspring": 2568,
      "cas": 2569,
      "ef": 2570,
      "iop": 2571,
      "mmh": 2572,
      "sk": 2573,
      "sing": 2574,
      "ured": 2575,
      "vant": 2576,
      "wh": 2577,
      "rel": 2578,
      "ret": 2579,
      "retur": 2580,
      "ens": 2581,
      "istic": 2582,
      "ishe": 2583,
      "ission": 2584,
      "stand": 2585,
      "srnvm": 2586,
      "perfused": 2587,
      "vomi": 2588,
      "ough": 2589,
      "down": 2590,
      "come": 2591,
      "prp": 2592,
      "distor": 2593,
      "smission": 2594,
      "ophthalmolog": 2595,
      "lipid": 2596,
      "partial": 2597,
      "ached": 2598,
      "amazing": 2599,
      "superiorly": 2600,
      "loops": 2601,
      "cells": 2602,
      "ischaemic": 2603,
      "surrounding": 2604,
      "transmission": 2605,
      "characteristic": 2606,
      "demonstra": 2607,
      "pinhole": 2608,
      "relevant": 2609,
      "investigations": 2610,
      "scattered": 2611,
      "mmhg": 2612,
      "returned": 2613,
      "ished": 2614,
      "standing": 2615,
      "vomiting": 2616,
      "distortion": 2617,
      "ophthalmologist": 2618,
      ");": 2619,
      "bol": 2620,
      "bulation": 2621,
      "buck": 2622,
      "crow": 2623,
      "dle": 2624,
      "ful": 2625,
      "gree": 2626,
      "hand": 2627,
      "ited": 2628,
      "lac": 2629,
      "nuc": 2630,
      "rac": 2631,
      "race": 2632,
      "rfl": 2633,
      "spar": 2634,
      "sha": 2635,
      "sler": 2636,
      "albe": 2637,
      "alva": 2638,
      "antic": 2639,
      "inad": 2640,
      "acent": 2641,
      "level": 2642,
      "meas": 2643,
      "meta": 2644,
      "degree": 2645,
      "occas": 2646,
      "whitening": 2647,
      "need": 2648,
      "nemato": 2649,
      "ata": 2650,
      "scens": 2651,
      "ional": 2652,
      "ilm": 2653,
      "condition": 2654,
      "amsler": 2655,
      "manife": 2656,
      "peribulb": 2657,
      "hypermet": 2658,
      "vertent": 2659,
      "tubulation": 2660,
      "vable": 2661,
      "venules": 2662,
      "esthesia": 2663,
      "tric": 2664,
      "mose": 2665,
      "unilaterally": 2666,
      "improvable": 2667,
      "middle": 2668,
      "punctata": 2669,
      "embol": 2670,
      "sclera": 2671,
      "involvement": 2672,
      "definite": 2673,
      "orbit": 2674,
      "operated": 2675,
      "adjacent": 2676,
      "indicating": 2677,
      "probable": 2678,
      "course": 2679,
      "valsalva": 2680,
      "rubeosis": 2681,
      "anaesthesia": 2682,
      "occurs": 2683,
      "buckle": 2684,
      "crowded": 2685,
      "racemose": 2686,
      "albescens": 2687,
      "inadvertent": 2688,
      "occasional": 2689,
      "needle": 2690,
      "nematode": 2691,
      "peribulbar": 2692,
      "hypermetropia": 2693,
      "embolus": 2694,
      "(>": 2695,
      "cidental": 2696,
      "ccess": 2697,
      "imented": 2698,
      "jus": 2699,
      "lid": 2700,
      "litus": 2701,
      "narrow": 2702,
      "oimented": 2703,
      "upon": 2704,
      "recom": 2705,
      "accidental": 2706,
      "idel": 2707,
      "osure": 2708,
      "suf": 2709,
      "success": 2710,
      "hear": 2711,
      "heidel": 2712,
      "closure": 2713,
      "sence": 2714,
      "preretinal": 2715,
      "colle": 2716,
      "mellitus": 2717,
      "endocar": 2718,
      "mended": 2719,
      "slide": 2720,
      "stitial": 2721,
      "shunts": 2722,
      "interstitial": 2723,
      "burn": 2724,
      "difficulty": 2725,
      "hypopig": 2726,
      "diminished": 2727,
      "noticed": 2728,
      "skin": 2729,
      "fully": 2730,
      "manifest": 2731,
      "just": 2732,
      "oimentedmacular": 2733,
      "recommended": 2734,
      "successfully": 2735,
      "endocardi": 2736,
      "abo": 2737,
      "cn": 2738,
      "fres": 2739,
      "ived": 2740,
      "ling": 2741,
      "ot": 2742,
      "pup": 2743,
      "internal": 2744,
      "howe": 2745,
      "matri": 2746,
      "become": 2747,
      "cham": 2748,
      "subtle": 2749,
      "pread": 2750,
      "detached": 2751,
      "ize": 2752,
      "expos": 2753,
      "sias": 2754,
      "unchanged": 2755,
      "reduc": 2756,
      "sister": 2757,
      "monary": 2758,
      "followed": 2759,
      "absence": 2760,
      "future": 2761,
      "temporally": 2762,
      "tomas": 2763,
      "punche": 2764,
      "spoke": 2765,
      "inherited": 2766,
      "elevation": 2767,
      "mainly": 2768,
      "pulmonary": 2769,
      "increase": 2770,
      "surround": 2771,
      "received": 2772,
      "elsewhere": 2773,
      "attenuated": 2774,
      "demonstrate": 2775,
      "specific": 2776,
      "photopsias": 2777,
      "measured": 2778,
      "hypopigmented": 2779,
      "above": 2780,
      "fresh": 2781,
      "otropia": 2782,
      "pupil": 2783,
      "however": 2784,
      "matrix": 2785,
      "chamber": 2786,
      "reduced": 2787,
      "punched": 2788,
      "base": 2789,
      "everted": 2790,
      "gger": 2791,
      "hat": 2792,
      "ode": 2793,
      "rol": 2794,
      "ude": 2795,
      "vs": 2796,
      "welder": 2797,
      "ypical": 2798,
      "ally": 2799,
      "remo": 2800,
      "tely": 2801,
      "tected": 2802,
      "isode": 2803,
      "opr": 2804,
      "opsia": 2805,
      "phopsia": 2806,
      "detected": 2807,
      "pec": 2808,
      "atypical": 2809,
      "becom": 2810,
      "prema": 2811,
      "detachments": 2812,
      "episode": 2813,
      "cutic": 2814,
      "mewhat": 2815,
      "somewhat": 2816,
      "ably": 2817,
      "daugh": 2818,
      "surface": 2819,
      "overlying": 2820,
      "signs": 2821,
      "bullous": 2822,
      "shut": 2823,
      "mugger": 2824,
      "litude": 2825,
      "metamorphopsia": 2826,
      "confirmed": 2827,
      "amplitude": 2828,
      "pregnancy": 2829,
      "when": 2830,
      "sparing": 2831,
      "shaped": 2832,
      "rolled": 2833,
      "becoming": 2834,
      "daughter": 2835,
      "-,": 2836,
      "164": 2837,
      "ax": 2838,
      "bid": 2839,
      "bia": 2840,
      "bao": 2841,
      "done": 2842,
      "ff": 2843,
      "gon": 2844,
      "grea": 2845,
      "iof": 2846,
      "lic": 2847,
      "lant": 2848,
      "mg": 2849,
      "mod": 2850,
      "py": 2851,
      "plas": 2852,
      "rule": 2853,
      "ue": 2854,
      "wy": 2855,
      "ysis": 2856,
      "alysis": 2857,
      "arca": 2858,
      "redetachment": 2859,
      "retrol": 2860,
      "round": 2861,
      "ontal": 2862,
      "ints": 2863,
      "inactive": 2864,
      "across": 2865,
      "usual": 2866,
      "aside": 2867,
      "hobia": 2868,
      "ides": 2869,
      "tous": 2870,
      "stri": 2871,
      "occu": 2872,
      "ossible": 2873,
      "aton": 2874,
      "gray": 2875,
      "poder": 2876,
      "points": 2877,
      "izontal": 2878,
      "neovascularizaton": 2879,
      "silateral": 2880,
      "sibly": 2881,
      "fied": 2882,
      "unded": 2883,
      "viral": 2884,
      "cuff": 2885,
      "possibly": 2886,
      "lipoder": 2887,
      "moid": 2888,
      "motion": 2889,
      "implant": 2890,
      "impossible": 2891,
      "1971": 2892,
      "55yr": 2893,
      "recurred": 2894,
      "crick": 2895,
      "blue": 2896,
      "arterioles": 2897,
      "1988": 2898,
      "mason": 2899,
      "dense": 2900,
      "involved": 2901,
      "fibrovascular": 2902,
      "fibroplas": 2903,
      "pulsed": 2904,
      "horizontal": 2905,
      "surrounded": 2906,
      "longstanding": 2907,
      "granulomatous": 2908,
      "througho": 2909,
      "anomalies": 2910,
      "corresponding": 2911,
      "mottled": 2912,
      "photophobia": 2913,
      "paracentral": 2914,
      "tortuous": 2915,
      "ipsilateral": 2916,
      "exposure": 2917,
      "greater": 2918,
      "iofb": 2919,
      "pying": 2920,
      "wyburn": 2921,
      "arcade": 2922,
      "retrolental": 2923,
      "usually": 2924,
      "occupying": 2925,
      "lipodermoid": 2926,
      "cricket": 2927,
      "fibroplasia": 2928,
      "throughout": 2929,
      "'/": 2930,
      "ato": 2931,
      "dig": 2932,
      "fran": 2933,
      "gan": 2934,
      "great": 2935,
      "hn": 2936,
      "jad": 2937,
      "king": 2938,
      "mig": 2939,
      "might": 2940,
      "mcin": 2941,
      "na": 2942,
      "nile": 2943,
      "ography": 2944,
      "ris": 2945,
      "ration": 2946,
      "rane": 2947,
      "sol": 2948,
      "soc": 2949,
      "sory": 2950,
      "size": 2951,
      "tre": 2952,
      "vice": 2953,
      "win": 2954,
      "xima": 2955,
      "til": 2956,
      "see": 2957,
      "sess": 2958,
      "olone": 2959,
      "anas": 2960,
      "onide": 2961,
      "inal": 2962,
      "acet": 2963,
      "asso": 2964,
      "assess": 2965,
      "tomosis": 2966,
      "stu": 2967,
      "organ": 2968,
      "made": 2969,
      "ray": 2970,
      "beyon": 2971,
      "gest": 2972,
      "sensory": 2973,
      "predis": 2974,
      "iamcin": 2975,
      "deta": 2976,
      "appro": 2977,
      "extre": 2978,
      "dow": 2979,
      "now": 2980,
      "atively": 2981,
      "west": 2982,
      "service": 2983,
      "cuts": 2984,
      "posing": 2985,
      "flap": 2986,
      "monotherapy": 2987,
      "taper": 2988,
      "espec": 2989,
      "triamcin": 2990,
      "berg": 2991,
      "import": 2992,
      "haem": 2993,
      "responding": 2994,
      "ially": 2995,
      "virus": 2996,
      "worker": 2997,
      "systemically": 2998,
      "examinations": 2999,
      "infecti": 3000,
      "club": 3001,
      "scleral": 3002,
      "defects": 3003,
      "stru": 3004,
      "during": 3005,
      "center": 3006,
      "hypofluorescent": 3007,
      "location": 3008,
      "mottling": 3009,
      "spectralis": 3010,
      "calcification": 3011,
      "factors": 3012,
      "relatively": 3013,
      "endocardiris": 3014,
      "increased": 3015,
      "baseline": 3016,
      "digital": 3017,
      "frank": 3018,
      "jadasso": 3019,
      "migration": 3020,
      "social": 3021,
      "window": 3022,
      "ximately": 3023,
      "anastomosis": 3024,
      "acetonide": 3025,
      "assessment": 3026,
      "beyond": 3027,
      "predisposing": 3028,
      "approximately": 3029,
      "extreme": 3030,
      "especially": 3031,
      "triamcinolone": 3032,
      "important": 3033,
      "infectious": 3034,
      "jadassohn": 3035,
      "08": 3036,
      "150": 3037,
      "86": 3038,
      "cous": 3039,
      "dye": 3040,
      "dent": 3041,
      "fhx": 3042,
      "imal": 3043,
      "ified": 3044,
      "kler": 3045,
      "m1": 3046,
      "mit": 3047,
      "ni": 3048,
      "pv": 3049,
      "rped": 3050,
      "sd": 3051,
      "sar": 3052,
      "stic": 3053,
      "slate": 3054,
      "wa": 3055,
      "xican": 3056,
      "tio": 3057,
      "timal": 3058,
      "alon": 3059,
      "alitis": 3060,
      "art": 3061,
      "throm": 3062,
      "tesis": 3063,
      "entesis": 3064,
      "retinos": 3065,
      "optimal": 3066,
      "eration": 3067,
      "erate": 3068,
      "homa": 3069,
      "mexican": 3070,
      "streak": 3071,
      "ferent": 3072,
      "phalitis": 3073,
      "ock": 3074,
      "terrane": 3075,
      "osity": 3076,
      "dialysis": 3077,
      "icial": 3078,
      "superf": 3079,
      "scall": 3080,
      "srf": 3081,
      "angiopathy": 3082,
      "perfor": 3083,
      "submacular": 3084,
      "suboptimal": 3085,
      "lastomas": 3086,
      "patible": 3087,
      "extent": 3088,
      "viscer": 3089,
      "coid": 3090,
      "nod": 3091,
      "loo": 3092,
      "drug": 3093,
      "lym": 3094,
      "10mmhg": 3095,
      "until": 3096,
      "lower": 3097,
      "tax": 3098,
      "taut": 3099,
      "vitr": 3100,
      "esotropia": 3101,
      "encephalitis": 3102,
      "neurosensory": 3103,
      "motio": 3104,
      "minimal": 3105,
      "irment": 3106,
      "stain": 3107,
      "ronasal": 3108,
      "fleck": 3109,
      "retinae": 3110,
      "tract": 3111,
      "trachoma": 3112,
      "radical": 3113,
      "leaks": 3114,
      "revealing": 3115,
      "19th": 3116,
      "exams": 3117,
      "compatible": 3118,
      "commotio": 3119,
      "intraoperative": 3120,
      "corne": 3121,
      "hemangioblastomas": 3122,
      "abnormality": 3123,
      "1983": 3124,
      "develop": 3125,
      "office": 3126,
      "microinfarcts": 3127,
      "microangiopathy": 3128,
      "rheuma": 3129,
      "impairment": 3130,
      "malformations": 3131,
      "regressing": 3132,
      "transit": 3133,
      "blocked": 3134,
      "superonasal": 3135,
      "turity": 3136,
      "mediterrane": 3137,
      "margin": 3138,
      "burg": 3139,
      "markedly": 3140,
      "paracentesis": 3141,
      "tortuosity": 3142,
      "conjunctival": 3143,
      "brother": 3144,
      "extramacular": 3145,
      "efferent": 3146,
      "demonstrates": 3147,
      "laceration": 3148,
      "nuclear": 3149,
      "suffer": 3150,
      "heidelburg": 3151,
      "college": 3152,
      "cns": 3153,
      "removal": 3154,
      "prematurity": 3155,
      "episodes": 3156,
      "moderate": 3157,
      "striking": 3158,
      "student": 3159,
      "cousins": 3160,
      "pvd": 3161,
      "sarcoid": 3162,
      "stickler": 3163,
      "along": 3164,
      "thromb": 3165,
      "retinoshisis": 3166,
      "superficial": 3167,
      "scalloped": 3168,
      "visceral": 3169,
      "mediterranean": 3170,
      "..": 3171,
      "bar": 3172,
      "bad": 3173,
      "bab": 3174,
      "csme": 3175,
      "gone": 3176,
      "gli": 3177,
      "kod": 3178,
      "nfl": 3179,
      "om": 3180,
      "ois": 3181,
      "pto": 3182,
      "tx": 3183,
      "ties": 3184,
      "though": 3185,
      "section": 3186,
      "ange": 3187,
      "inary": 3188,
      "isc": 3189,
      "aspe": 3190,
      "mesen": 3191,
      "ditory": 3192,
      "itic": 3193,
      "nel": 3194,
      "peel": 3195,
      "beg": 3196,
      "ticolor": 3197,
      "phyloma": 3198,
      "ged": 3199,
      "fundoscop": 3200,
      "persis": 3201,
      "subnormal": 3202,
      "elve": 3203,
      "achrome": 3204,
      "gene": 3205,
      "visit": 3206,
      "sient": 3207,
      "simul": 3208,
      "multicolor": 3209,
      "multispectral": 3210,
      "please": 3211,
      "hyperpigmented": 3212,
      "ophthalmoscop": 3213,
      "auditory": 3214,
      "minton": 3215,
      "irvan": 3216,
      "staphyloma": 3217,
      "compared": 3218,
      "upper": 3219,
      "haz": 3220,
      "urinary": 3221,
      "cystic": 3222,
      "duct": 3223,
      "phosia": 3224,
      "nasally": 3225,
      "timeframe": 3226,
      "appearence": 3227,
      "circular": 3228,
      "partly": 3229,
      "twelve": 3230,
      "inferotemporally": 3231,
      "cerebro": 3232,
      "blot": 3233,
      "lights": 3234,
      "transient": 3235,
      "chest": 3236,
      "azathiopr": 3237,
      "funnel": 3238,
      "syphilitic": 3239,
      "fingers": 3240,
      "spontaneously": 3241,
      "attended": 3242,
      "chymal": 3243,
      "superotemporally": 3244,
      "difficulties": 3245,
      "metamorphosia": 3246,
      "ipated": 3247,
      "racquet": 3248,
      "anticipated": 3249,
      "organized": 3250,
      "struct": 3251,
      "lympho": 3252,
      "suffers": 3253,
      "badminton": 3254,
      "baby": 3255,
      "gliosis": 3256,
      "kodachrome": 3257,
      "mesenchymal": 3258,
      "peeling": 3259,
      "ophthalmoscope": 3260,
      "cerebrovasculitis": 3261,
      "azathioprine": 3262,
      "kodachromes": 3263,
      "120": 3264,
      "230": 3265,
      "89": 3266,
      "aaf": 3267,
      "ator": 3268,
      "awa": 3269,
      "bance": 3270,
      "cap": 3271,
      "dra": 3272,
      "drain": 3273,
      "ece": 3274,
      "eman": 3275,
      "even": 3276,
      "equ": 3277,
      "foc": 3278,
      "fil": 3279,
      "gm": 3280,
      "gas": 3281,
      "gue": 3282,
      "jan": 3283,
      "lprednisone": 3284,
      "mer": 3285,
      "mme": 3286,
      "mou": 3287,
      "n3": 3288,
      "nature": 3289,
      "oth": 3290,
      "pac": 3291,
      "prom": 3292,
      "rther": 3293,
      "spl": 3294,
      "spread": 3295,
      "t3": 3296,
      "vity": 3297,
      "wre": 3298,
      "yne": 3299,
      "allow": 3300,
      "sec": 3301,
      "another": 3302,
      "anae": 3303,
      "enia": 3304,
      "ina": 3305,
      "tiny": 3306,
      "ulin": 3307,
      "isting": 3308,
      "leg": 3309,
      "ider": 3310,
      "methy": 3311,
      "stop": 3312,
      "orid": 3313,
      "depart": 3314,
      "osite": 3315,
      "ical": 3316,
      "icted": 3317,
      "never": 3318,
      "bet": 3319,
      "because": 3320,
      "fundi": 3321,
      "clitis": 3322,
      "symme": 3323,
      "aden": 3324,
      "admit": 3325,
      "point": 3326,
      "ization": 3327,
      "existing": 3328,
      "doyne": 3329,
      "visits": 3330,
      "constr": 3331,
      "aml": 3332,
      "amic": 3333,
      "105": 3334,
      "resul": 3335,
      "larger": 3336,
      "laries": 3337,
      "patch": 3338,
      "tionable": 3339,
      "uncorrected": 3340,
      "distur": 3341,
      "disclosed": 3342,
      "verified": 3343,
      "tain": 3344,
      "estionable": 3345,
      "tras": 3346,
      "aug": 3347,
      "questionable": 3348,
      "further": 3349,
      "irid": 3350,
      "composite": 3351,
      "capillaries": 3352,
      "dots": 3353,
      "leated": 3354,
      "nonsmall": 3355,
      "hemangiomatosis": 3356,
      "inferiorly": 3357,
      "severely": 3358,
      "chemo": 3359,
      "plaque": 3360,
      "ocytop": 3361,
      "asym": 3362,
      "kerato": 3363,
      "although": 3364,
      "cinate": 3365,
      "gentlemen": 3366,
      "correction": 3367,
      "circinate": 3368,
      "consider": 3369,
      "shallow": 3370,
      "angina": 3371,
      "smooth": 3372,
      "pains": 3373,
      "insulin": 3374,
      "previously": 3375,
      "florid": 3376,
      "recorded": 3377,
      "attenuation": 3378,
      "minute": 3379,
      "litax": 3380,
      "flashing": 3381,
      "hypopyon": 3382,
      "ppd": 3383,
      "pping": 3384,
      "conjunctiva": 3385,
      "tricort": 3386,
      "manifestation": 3387,
      "pupillary": 3388,
      "metamorphopsiae": 3389,
      "niece": 3390,
      "looks": 3391,
      "taxol": 3392,
      "thrombocytop": 3393,
      "barrier": 3394,
      "simultaneous": 3395,
      "hazy": 3396,
      "lymphoma": 3397,
      "drainage": 3398,
      "emanating": 3399,
      "equator": 3400,
      "foci": 3401,
      "merged": 3402,
      "paclitax": 3403,
      "promin": 3404,
      "wreath": 3405,
      "anaemia": 3406,
      "methylprednisone": 3407,
      "department": 3408,
      "symmetric": 3409,
      "admitted": 3410,
      "constricted": 3411,
      "disturbance": 3412,
      "keratoscleritis": 3413,
      "thrombocytopenia": 3414,
      "paclitaxel": 3415,
      ",(": 3416,
      "97": 3417,
      "frac": 3418,
      "ga": 3419,
      "hro": 3420,
      "imen": 3421,
      "kore": 3422,
      "lma": 3423,
      "nm": 3424,
      "nlp": 3425,
      "oag": 3426,
      "psc": 3427,
      "uous": 3428,
      "uction": 3429,
      "tire": 3430,
      "tissu": 3431,
      "alone": 3432,
      "arse": 3433,
      "reti": 3434,
      "reen": 3435,
      "thin": 3436,
      "entire": 3437,
      "ulcer": 3438,
      "ultras": 3439,
      "opsy": 3440,
      "stron": 3441,
      "orange": 3442,
      "phs": 3443,
      "dex": 3444,
      "depigmented": 3445,
      "athing": 3446,
      "may": 3447,
      "mage": 3448,
      "mapping": 3449,
      "being": 3450,
      "screen": 3451,
      "lucent": 3452,
      "oplasma": 3453,
      "contig": 3454,
      "cover": 3455,
      "coarse": 3456,
      "biopsy": 3457,
      "damage": 3458,
      "toxoplasma": 3459,
      "disk": 3460,
      "reduction": 3461,
      "hyperpigmentation": 3462,
      "obvious": 3463,
      "sheathing": 3464,
      "lier": 3465,
      "about": 3466,
      "1997": 3467,
      "respond": 3468,
      "cord": 3469,
      "culation": 3470,
      "undergo": 3471,
      "undergone": 3472,
      "masked": 3473,
      "earlier": 3474,
      "cali": 3475,
      "mushro": 3476,
      "bands": 3477,
      "circulation": 3478,
      "spinal": 3479,
      "ches": 3480,
      "mediate": 3481,
      "specimen": 3482,
      "intermediate": 3483,
      "probably": 3484,
      "demonstrated": 3485,
      "anticoag": 3486,
      "manifestations": 3487,
      "nail": 3488,
      "solid": 3489,
      "haemorrhage": 3490,
      "nodules": 3491,
      "cornea": 3492,
      "aspect": 3493,
      "begin": 3494,
      "persist": 3495,
      "genetic": 3496,
      "mouth": 3497,
      "korean": 3498,
      "tissue": 3499,
      "ulcers": 3500,
      "screened": 3501,
      "contiguous": 3502,
      "covering": 3503,
      "mushroom": 3504,
      ",-": 3505,
      "avascular": 3506,
      "bs": 3507,
      "bwe": 3508,
      "bare": 3509,
      "ci": 3510,
      "dor": 3511,
      "damy": 3512,
      "eved": 3513,
      "eger": 3514,
      "fati": 3515,
      "fig": 3516,
      "gular": 3517,
      "hch": 3518,
      "hone": 3519,
      "hollen": 3520,
      "ise": 3521,
      "ias": 3522,
      "irosis": 3523,
      "mpo": 3524,
      "num": 3525,
      "oval": 3526,
      "pvr": 3527,
      "slow": 3528,
      "ttom": 3529,
      "tology": 3530,
      "ued": 3531,
      "vid": 3532,
      "wk": 3533,
      "wan": 3534,
      "whe": 3535,
      "weld": 3536,
      "wides": 3537,
      "wise": 3538,
      "ycom": 3539,
      "tium": 3540,
      "alter": 3541,
      "arc": 3542,
      "argon": 3543,
      "retreated": 3544,
      "repa": 3545,
      "rectomy": 3546,
      "regular": 3547,
      "sero": 3548,
      "secre": 3549,
      "teres": 3550,
      "anci": 3551,
      "inion": 3552,
      "interes": 3553,
      "retinoc": 3554,
      "actic": 3555,
      "accu": 3556,
      "accoun": 3557,
      "accounting": 3558,
      "iscop": 3559,
      "2015": 3560,
      "opthalm": 3561,
      "opinion": 3562,
      "les": 3563,
      "lepto": 3564,
      "ided": 3565,
      "tour": 3566,
      "debr": 3567,
      "defic": 3568,
      "dii": 3569,
      "icular": 3570,
      "rad": 3571,
      "rapid": 3572,
      "att": 3573,
      "beli": 3574,
      "brid": 3575,
      "fundiscop": 3576,
      "percep": 3577,
      "clock": 3578,
      "neovascul": 3579,
      "edge": 3580,
      "appoint": 3581,
      "contour": 3582,
      "cobwe": 3583,
      "mulation": 3584,
      "agement": 3585,
      "30cm": 3586,
      "feri": 3587,
      "management": 3588,
      "ctance": 3589,
      "lines": 3590,
      "ween": 3591,
      "uncontrolled": 3592,
      "bottom": 3593,
      "serologic": 3594,
      "vivid": 3595,
      "dish": 3596,
      "disrup": 3597,
      "fluoresces": 3598,
      "tell": 3599,
      "scaring": 3600,
      "reddish": 3601,
      "plex": 3602,
      "fag": 3603,
      "faz": 3604,
      "rieger": 3605,
      "telangiectactic": 3606,
      "telangiectasias": 3607,
      "follic": 3608,
      "endopthalm": 3609,
      "cyst": 3610,
      "probe": 3611,
      "product": 3612,
      "irregular": 3613,
      "trace": 3614,
      "136": 3615,
      "bactri": 3616,
      "metry": 3617,
      "menisc": 3618,
      "arteries": 3619,
      "idered": 3620,
      "duplex": 3621,
      "etc": 3622,
      "cavity": 3623,
      "tomoga": 3624,
      "otherwise": 3625,
      "superimpo": 3626,
      "rlf": 3627,
      "clindamy": 3628,
      "avm": 3629,
      "observe": 3630,
      "slides": 3631,
      "correlate": 3632,
      "space": 3633,
      "spirosis": 3634,
      "foreign": 3635,
      "considered": 3636,
      "progressively": 3637,
      "gradually": 3638,
      "horst": 3639,
      "borrel": 3640,
      "iency": 3641,
      "region": 3642,
      "disorder": 3643,
      "third": 3644,
      "evaluated": 3645,
      "),,-": 3646,
      "deposit": 3647,
      "nephrectomy": 3648,
      "hypothyroid": 3649,
      "difficult": 3650,
      "bulbs": 3651,
      "arrows": 3652,
      "indian": 3653,
      "pink": 3654,
      "diminution": 3655,
      "nucleated": 3656,
      "narrowing": 3657,
      "heard": 3658,
      "hearing": 3659,
      "spokewhe": 3660,
      "gondii": 3661,
      "gestation": 3662,
      "detahch": 3663,
      "bergdor": 3664,
      "performed": 3665,
      "drugs": 3666,
      "vitricular": 3667,
      "development": 3668,
      "rheumatology": 3669,
      "sarcoidosis": 3670,
      "structu": 3671,
      "away": 3672,
      "between": 3673,
      "asymmetry": 3674,
      "considerably": 3675,
      "strontium": 3676,
      "undergoing": 3677,
      "fatigue": 3678,
      "figure": 3679,
      "honeycom": 3680,
      "hollenhorst": 3681,
      "number": 3682,
      "wanted": 3683,
      "welding": 3684,
      "widespread": 3685,
      "alterations": 3686,
      "repaired": 3687,
      "secretion": 3688,
      "ancient": 3689,
      "interesting": 3690,
      "accumulation": 3691,
      "accounts": 3692,
      "leptospirosis": 3693,
      "debris": 3694,
      "deficiency": 3695,
      "believed": 3696,
      "fundiscopic": 3697,
      "perception": 3698,
      "neovasculization": 3699,
      "appointment": 3700,
      "cobwebs": 3701,
      "vividly": 3702,
      "follicles": 3703,
      "endopthalmitis": 3704,
      "bactrim": 3705,
      "meniscus": 3706,
      "tomogaphs": 3707,
      "superimposed": 3708,
      "clindamycin": 3709,
      "borrelia": 3710,
      "hypothyroidism": 3711,
      "spokewheel": 3712,
      "detahchment": 3713,
      "bergdorferi": 3714,
      "honeycomb": 3715,
      "-;": 3716,
      "ck": 3717,
      "cp": 3718,
      "dd": 3719,
      "dal": 3720,
      "ectomy": 3721,
      "fusion": 3722,
      "gnosis": 3723,
      "gical": 3724,
      "itor": 3725,
      "jul": 3726,
      "kled": 3727,
      "lation": 3728,
      "mis": 3729,
      "nic": 3730,
      "night": 3731,
      "namic": 3732,
      "pd": 3733,
      "por": 3734,
      "pending": 3735,
      "rf": 3736,
      "rather": 3737,
      "sick": 3738,
      "repair": 3739,
      "secto": 3740,
      "roset": 3741,
      "inten": 3742,
      "inverted": 3743,
      "aces": 3744,
      "hour": 3745,
      "fered": 3746,
      "degre": 3747,
      "dilation": 3748,
      "sutured": 3749,
      "rapd": 3750,
      "chs": 3751,
      "ching": 3752,
      "dynamic": 3753,
      "graph": 3754,
      "itching": 3755,
      "perform": 3756,
      "photodynamic": 3757,
      "pout": 3758,
      "outs": 3759,
      "door": 3760,
      "102": 3761,
      "perivascular": 3762,
      "myope": 3763,
      "pseudoc": 3764,
      "monitor": 3765,
      "women": 3766,
      "vention": 3767,
      "hemangiomas": 3768,
      "fuchs": 3769,
      "profound": 3770,
      "prognosis": 3771,
      "pars": 3772,
      "complic": 3773,
      "plan": 3774,
      "surgical": 3775,
      "peripherally": 3776,
      "crack": 3777,
      "injected": 3778,
      "caused": 3779,
      "iving": 3780,
      "march": 3781,
      "suggest": 3782,
      "dropout": 3783,
      "element": 3784,
      "seconds": 3785,
      "spaces": 3786,
      "pathologic": 3787,
      "angle": 3788,
      "twice": 3789,
      "montaged": 3790,
      "lightly": 3791,
      "clumps": 3792,
      "receiving": 3793,
      "histopathologic": 3794,
      "watering": 3795,
      "speckled": 3796,
      "little": 3797,
      "notices": 3798,
      "extrafoveal": 3799,
      "pregnant": 3800,
      "suffered": 3801,
      "heidelberg": 3802,
      "collection": 3803,
      "fundoscopy": 3804,
      "resulting": 3805,
      "ultrason": 3806,
      "retinochoroidal": 3807,
      "dalen": 3808,
      "nicely": 3809,
      "sickle": 3810,
      "sectoral": 3811,
      "rosettes": 3812,
      "intense": 3813,
      "hours": 3814,
      "degrees": 3815,
      "outside": 3816,
      "\".": 3817,
      "';": 3818,
      "00": 3819,
      "afib": 3820,
      "bp": 3821,
      "bil": 3822,
      "bism": 3823,
      "bene": 3824,
      "cia": 3825,
      "cence": 3826,
      "cdot": 3827,
      "dl": 3828,
      "ero": 3829,
      "eded": 3830,
      "fas": 3831,
      "fcn": 3832,
      "gly": 3833,
      "ky": 3834,
      "lf": 3835,
      "ming": 3836,
      "mbal": 3837,
      "mcp": 3838,
      "nu": 3839,
      "npdr": 3840,
      "ncia": 3841,
      "oz": 3842,
      "oactive": 3843,
      "odialysis": 3844,
      "pt": 3845,
      "pof": 3846,
      "prophy": 3847,
      "ping": 3848,
      "poli": 3849,
      "pock": 3850,
      "ritis": 3851,
      "rch": 3852,
      "sule": 3853,
      "tachment": 3854,
      "ub": 3855,
      "uw": 3856,
      "uch": 3857,
      "wing": 3858,
      "xer": 3859,
      "µm": 3860,
      "ência": 3861,
      "ale": 3862,
      "altered": 3863,
      "alky": 3864,
      "arti": 3865,
      "arth": 3866,
      "reas": 3867,
      "refle": 3868,
      "tepor": 3869,
      "encir": 3870,
      "information": 3871,
      "tinued": 3872,
      "older": 3873,
      "retinography": 3874,
      "ulsion": 3875,
      "ish": 3876,
      "usop": 3877,
      "uscin": 3878,
      "aste": 3879,
      "asit": 3880,
      "ley": 3881,
      "least": 3882,
      "ularity": 3883,
      "mean": 3884,
      "merous": 3885,
      "stra": 3886,
      "feed": 3887,
      "feeding": 3888,
      "depic": 3889,
      "macro": 3890,
      "map": 3891,
      "materi": 3892,
      "mabil": 3893,
      "sun": 3894,
      "rama": 3895,
      "below": 3896,
      "sche": 3897,
      "physi": 3898,
      "hesion": 3899,
      "heli": 3900,
      "vaso": 3901,
      "vasation": 3902,
      "vasopr": 3903,
      "chalky": 3904,
      "bruch": 3905,
      "itting": 3906,
      "ils": 3907,
      "permabil": 3908,
      "cling": 3909,
      "closis": 3910,
      "clou": 3911,
      "subtotal": 3912,
      "subconj": 3913,
      "subreti": 3914,
      "prefor": 3915,
      "added": 3916,
      "adhesion": 3917,
      "exotropia": 3918,
      "neovascularizations": 3919,
      "dose": 3920,
      "domain": 3921,
      "cemic": 3922,
      "ceeded": 3923,
      "conju": 3924,
      "convention": 3925,
      "continued": 3926,
      "ored": 3927,
      "loidal": 3928,
      "aged": 3929,
      "orescent": 3930,
      "amoun": 3931,
      "amish": 3932,
      "colored": 3933,
      "colloidal": 3934,
      "ctro": 3935,
      "ress": 3936,
      "perip": 3937,
      "50cm": 3938,
      "unfortunately": 3939,
      "boxer": 3940,
      "oliferative": 3941,
      "anes": 3942,
      "anecdot": 3943,
      "papilla": 3944,
      "hyperpermabil": 3945,
      "versus": 3946,
      "vertepor": 3947,
      "discus": 3948,
      "trait": 3949,
      "vitreoretinal": 3950,
      "true": 3951,
      "trusop": 3952,
      "antivegf": 3953,
      "monthly": 3954,
      "ticularly": 3955,
      "limbal": 3956,
      "lipof": 3957,
      "cycle": 3958,
      "cyclitis": 3959,
      "hipofluoresc": 3960,
      "proceeded": 3961,
      "parasit": 3962,
      "particularly": 3963,
      "presents": 3964,
      "cryother": 3965,
      "radioactive": 3966,
      "current": 3967,
      "decided": 3968,
      "iorly": 3969,
      "urdex": 3970,
      "gross": 3971,
      "complains": 3972,
      "leaky": 3973,
      "outdoor": 3974,
      "supriorly": 3975,
      "sebaceum": 3976,
      "ocarcinoma": 3977,
      "ocyclitis": 3978,
      "rpd": 3979,
      "tuberclosis": 3980,
      "hm10": 3981,
      "reattachment": 3982,
      "microfil": 3983,
      "agree": 3984,
      "polyp": 3985,
      "scotomas": 3986,
      "electro": 3987,
      "treatments": 3988,
      "mtm": 3989,
      "ultrawide": 3990,
      "setting": 3991,
      "predye": 3992,
      "fibros": 3993,
      "viewed": 3994,
      "cerebr": 3995,
      "tests": 3996,
      "poorly": 3997,
      "granularity": 3998,
      "completely": 3999,
      "increas": 4000,
      "topography": 4001,
      "oncologist": 4002,
      "grandson": 4003,
      "granddaughter": 4004,
      "orbital": 4005,
      "transpl": 4006,
      "check": 4007,
      "demarcating": 4008,
      "sponge": 4009,
      "ctival": 4010,
      "cream": 4011,
      "floor": 4012,
      "nephew": 4013,
      "wools": 4014,
      "embryonic": 4015,
      "intervals": 4016,
      "subsequently": 4017,
      "mottley": 4018,
      "blocking": 4019,
      "trib": 4020,
      "country": 4021,
      "investigation": 4022,
      "coursing": 4023,
      "rubeotic": 4024,
      "fact": 4025,
      "facial": 4026,
      "extravasation": 4027,
      "effect": 4028,
      "retro": 4029,
      "lactic": 4030,
      "endocarditis": 4031,
      "haemangioma": 4032,
      "perforation": 4033,
      "vitritis": 4034,
      "minimally": 4035,
      "developing": 4036,
      "rheumatoid": 4037,
      "fundoscopic": 4038,
      "capsule": 4039,
      "drag": 4040,
      "drawing": 4041,
      "filled": 4042,
      "splitting": 4043,
      "stopped": 4044,
      "stopping": 4045,
      "adenoma": 4046,
      "adenocarcinoma": 4047,
      "tained": 4048,
      "iridodialysis": 4049,
      "iridocyclitis": 4050,
      "prominent": 4051,
      "prominence": 4052,
      "fracture": 4053,
      "caliber": 4054,
      "haemorrhages": 4055,
      "bridge": 4056,
      "disruption": 4057,
      "structures": 4058,
      "appointments": 4059,
      "missed": 4060,
      "suggests": 4061,
      "fcnf": 4062,
      "glycemic": 4063,
      "numerous": 4064,
      "ozurdex": 4065,
      "prophylactic": 4066,
      "poliosis": 4067,
      "pocket": 4068,
      "arthritis": 4069,
      "reflectance": 4070,
      "encircling": 4071,
      "strabism": 4072,
      "feeder": 4073,
      "depicts": 4074,
      "material": 4075,
      "physiologic": 4076,
      "helium": 4077,
      "vasoproliferative": 4078,
      "cloud": 4079,
      "subretiinal": 4080,
      "preformed": 4081,
      "adhesions": 4082,
      "conjuctival": 4083,
      "conventional": 4084,
      "anecdotal": 4085,
      "hyperpermability": 4086,
      "verteporfin": 4087,
      "trusopt": 4088,
      "lipofuscin": 4089,
      "cycles": 4090,
      "parasitology": 4091,
      "cryothermy": 4092,
      "microfilial": 4093,
      "increasing": 4094,
      "++": 4095,
      "+;": 4096,
      "/.": 4097,
      "350": 4098,
      "92": 4099,
      "ak": 4100,
      "ain": 4101,
      "aid": 4102,
      "ame": 4103,
      "bub": 4104,
      "cra": 4105,
      "crea": 4106,
      "cific": 4107,
      "clear": 4108,
      "dx": 4109,
      "dner": 4110,
      "ein": 4111,
      "gang": 4112,
      "iet": 4113,
      "jun": 4114,
      "lorescent": 4115,
      "ms": 4116,
      "nia": 4117,
      "nir": 4118,
      "page": 4119,
      "pisc": 4120,
      "pale": 4121,
      "rul": 4122,
      "rrd": 4123,
      "rism": 4124,
      "sac": 4125,
      "shy": 4126,
      "ssion": 4127,
      "tress": 4128,
      "vent": 4129,
      "wer": 4130,
      "wks": 4131,
      "wron": 4132,
      "yo": 4133,
      "you": 4134,
      "ytherapy": 4135,
      "ópic": 4136,
      "tia": 4137,
      "aled": 4138,
      "arri": 4139,
      "ref": 4140,
      "retic": 4141,
      "reco": 4142,
      "refrac": 4143,
      "thas": 4144,
      "sered": 4145,
      "ense": 4146,
      "enlarge": 4147,
      "enclosed": 4148,
      "inat": 4149,
      "retinectomy": 4150,
      "ulant": 4151,
      "acti": 4152,
      "isation": 4153,
      "open": 4154,
      "asphy": 4155,
      "ithin": 4156,
      "toon": 4157,
      "oflorescent": 4158,
      "stab": 4159,
      "oramic": 4160,
      "phone": 4161,
      "dehis": 4162,
      "deferred": 4163,
      "teric": 4164,
      "terpart": 4165,
      "osus": 4166,
      "osup": 4167,
      "lasered": 4168,
      "chorf": 4169,
      "such": 4170,
      "ratory": 4171,
      "near": 4172,
      "pedi": 4173,
      "scured": 4174,
      "healed": 4175,
      "brach": 4176,
      "ingitis": 4177,
      "funduc": 4178,
      "illo": 4179,
      "ilure": 4180,
      "ftmh": 4181,
      "person": 4182,
      "perinat": 4183,
      "ased": 4184,
      "neovascularisation": 4185,
      "sent": 4186,
      "photeric": 4187,
      "prepapillary": 4188,
      "pression": 4189,
      "prevent": 4190,
      "lasato": 4191,
      "patientr": 4192,
      "mpapil": 4193,
      "dom": 4194,
      "cont": 4195,
      "fornia": 4196,
      "30degrees": 4197,
      "amphoteric": 4198,
      "fluorescense": 4199,
      "collar": 4200,
      "respi": 4201,
      "patches": 4202,
      "period": 4203,
      "angiographic": 4204,
      "dated": 4205,
      "unaffected": 4206,
      "staring": 4207,
      "starry": 4208,
      "distress": 4209,
      "failure": 4210,
      "ried": 4211,
      "pseudohypopyon": 4212,
      "gardner": 4213,
      "smart": 4214,
      "obtained": 4215,
      "obscured": 4216,
      "ophthalmology": 4217,
      "panoramic": 4218,
      "quiet": 4219,
      "aneurism": 4220,
      "movement": 4221,
      "cyclovir": 4222,
      "iled": 4223,
      "fleshy": 4224,
      "46yo": 4225,
      "flecked": 4226,
      "crypto": 4227,
      "autofluorescent": 4228,
      "wnl": 4229,
      "intravascular": 4230,
      "button": 4231,
      "meningitis": 4232,
      "12mmhg": 4233,
      "arteriosus": 4234,
      "cortical": 4235,
      "cules": 4236,
      "ivfa": 4237,
      "albino": 4238,
      "590": 4239,
      "tomograph": 4240,
      "superitemporally": 4241,
      "silent": 4242,
      "cartoon": 4243,
      "hm1": 4244,
      "hm2": 4245,
      "segments": 4246,
      "microaneurism": 4247,
      "again": 4248,
      ".,(": 4249,
      "appeared": 4250,
      "appears": 4251,
      "spillo": 4252,
      "consult": 4253,
      "rhema": 4254,
      "rheum": 4255,
      "hypoper": 4256,
      "hypoflorescent": 4257,
      "malignancy": 4258,
      "counterpart": 4259,
      "decalcific": 4260,
      "circumpapil": 4261,
      "coccal": 4262,
      "remains": 4263,
      "chemosis": 4264,
      "hyalosis": 4265,
      "photoreceptor": 4266,
      "caca": 4267,
      "function": 4268,
      "evident": 4269,
      "hypoaf": 4270,
      "close": 4271,
      "diameter": 4272,
      "congestive": 4273,
      "generalised": 4274,
      "immunosup": 4275,
      "released": 4276,
      "confirmation": 4277,
      "single": 4278,
      "whithin": 4279,
      "comes": 4280,
      "spared": 4281,
      "shape": 4282,
      "heart": 4283,
      "burns": 4284,
      "premature": 4285,
      "arcades": 4286,
      "detailed": 4287,
      "corneal": 4288,
      "ductus": 4289,
      "structure": 4290,
      "resulted": 4291,
      "thinning": 4292,
      "dexame": 4293,
      "california": 4294,
      "anticoagulant": 4295,
      "beginning": 4296,
      "attached": 4297,
      "pseudocolor": 4298,
      "monitoring": 4299,
      "complication": 4300,
      "planitis": 4301,
      "ultrasonography": 4302,
      "beneath": 4303,
      "eroding": 4304,
      "artifact": 4305,
      "asteroid": 4306,
      "++,": 4307,
      "aids": 4308,
      "bubble": 4309,
      "crak": 4310,
      "creating": 4311,
      "gangcyclovir": 4312,
      "junction": 4313,
      "pisciform": 4314,
      "saccules": 4315,
      "wrong": 4316,
      "ópicas": 4317,
      "arrival": 4318,
      "thasone": 4319,
      "enlargement": 4320,
      "asphysia": 4321,
      "stabil": 4322,
      "dehiscence": 4323,
      "chorfld": 4324,
      "brachytherapy": 4325,
      "funducópicas": 4326,
      "personal": 4327,
      "perinatal": 4328,
      "amphotericin": 4329,
      "respiratory": 4330,
      "smartphone": 4331,
      "cryptococcal": 4332,
      "microaneurisms": 4333,
      "spillover": 4334,
      "hypoperfusion": 4335,
      "decalcification": 4336,
      "circumpapillary": 4337,
      "immunosuppression": 4338,
      "dexamethasone": 4339,
      "(-": 4340,
      "/..": 4341,
      "1wk": 4342,
      "2a": 4343,
      "2l": 4344,
      "2m": 4345,
      "2ph": 4346,
      "225": 4347,
      "330": 4348,
      "460": 4349,
      "660": 4350,
      "760": 4351,
      "91": 4352,
      "96": 4353,
      "=-": 4354,
      "ade": 4355,
      "aqu": 4356,
      "abl": 4357,
      "aocaine": 4358,
      "averted": 4359,
      "baqu": 4360,
      "cc": 4361,
      "care": 4362,
      "chip": 4363,
      "camer": 4364,
      "d3": 4365,
      "dol": 4366,
      "don": 4367,
      "doph": 4368,
      "dna": 4369,
      "ese": 4370,
      "ema": 4371,
      "eper": 4372,
      "ecl": 4373,
      "emo": 4374,
      "fc": 4375,
      "fr": 4376,
      "ffe": 4377,
      "fine": 4378,
      "film": 4379,
      "gth": 4380,
      "gis": 4381,
      "grt": 4382,
      "hued": 4383,
      "ied": 4384,
      "ipse": 4385,
      "iver": 4386,
      "j2": 4387,
      "j7": 4388,
      "kn": 4389,
      "ls": 4390,
      "mm": 4391,
      "mbe": 4392,
      "mut": 4393,
      "mhx": 4394,
      "nsc": 4395,
      "nad": 4396,
      "nual": 4397,
      "ok": 4398,
      "ow": 4399,
      "obe": 4400,
      "ohs": 4401,
      "pne": 4402,
      "ptom": 4403,
      "qual": 4404,
      "ric": 4405,
      "rum": 4406,
      "rna": 4407,
      "sal": 4408,
      "sph": 4409,
      "shad": 4410,
      "sided": 4411,
      "tti": 4412,
      "uveal": 4413,
      "umon": 4414,
      "vall": 4415,
      "vvitreoretinopathy": 4416,
      "vulsion": 4417,
      "wder": 4418,
      "yal": 4419,
      "yst": 4420,
      "tified": 4421,
      "alle": 4422,
      "arran": 4423,
      "re20": 4424,
      "rend": 4425,
      "revi": 4426,
      "review": 4427,
      "retaken": 4428,
      "recrack": 4429,
      "represents": 4430,
      "seg": 4431,
      "oling": 4432,
      "yea": 4433,
      "analysis": 4434,
      "annual": 4435,
      "ror": 4436,
      "roph": 4437,
      "ential": 4438,
      "once": 4439,
      "onade": 4440,
      "invas": 4441,
      "interi": 4442,
      "inating": 4443,
      "incomplete": 4444,
      "indol": 4445,
      "retinop": 4446,
      "ulsed": 4447,
      "act": 4448,
      "acks": 4449,
      "actu": 4450,
      "2013": 4451,
      "2017": 4452,
      "opter": 4453,
      "erma": 4454,
      "ergen": 4455,
      "error": 4456,
      "host": 4457,
      "hosp": 4458,
      "veils": 4459,
      "tograph": 4460,
      "withe": 4461,
      "hiper": 4462,
      "stanti": 4463,
      "orig": 4464,
      "orts": 4465,
      "order": 4466,
      "fever": 4467,
      "ph8": 4468,
      "phema": 4469,
      "phtograph": 4470,
      "dehem": 4471,
      "deline": 4472,
      "described": 4473,
      "deling": 4474,
      "destru": 4475,
      "oclonal": 4476,
      "opathologic": 4477,
      "magi": 4478,
      "magn": 4479,
      "osion": 4480,
      "osler": 4481,
      "lates": 4482,
      "lators": 4483,
      "dilater": 4484,
      "diopter": 4485,
      "dilators": 4486,
      "thetic": 4487,
      "chor": 4488,
      "radia": 4489,
      "pes": 4490,
      "attrib": 4491,
      "atric": 4492,
      "atroph": 4493,
      "beam": 4494,
      "becul": 4495,
      "sca": 4496,
      "scl": 4497,
      "height": 4498,
      "hesit": 4499,
      "hemagi": 4500,
      "undant": 4501,
      "get": 4502,
      "ralater": 4503,
      "gram": 4504,
      "grapes": 4505,
      "illu": 4506,
      "illary": 4507,
      "iltra": 4508,
      "pervious": 4509,
      "angiomas": 4510,
      "syptom": 4511,
      "subconjuncti": 4512,
      "subsided": 4513,
      "subyal": 4514,
      "substanti": 4515,
      "hisopathologic": 4516,
      "pigments": 4517,
      "preser": 4518,
      "branches": 4519,
      "driver": 4520,
      "iae": 4521,
      "diagram": 4522,
      "lucen": 4523,
      "podr": 4524,
      "powder": 4525,
      "pooling": 4526,
      "usions": 4527,
      "diseases": 4528,
      "apr": 4529,
      "mponade": 4530,
      "exy": 4531,
      "expl": 4532,
      "examp": 4533,
      "fluore": 4534,
      "convulsion": 4535,
      "log": 4536,
      "lobe": 4537,
      "lobin": 4538,
      "lots": 4539,
      "hemorrh": 4540,
      "veins": 4541,
      "2532": 4542,
      "30s": 4543,
      "fluorescência": 4544,
      "maculo": 4545,
      "col2a": 4546,
      "ctatic": 4547,
      "respec": 4548,
      "periocular": 4549,
      "perifovea": 4550,
      "hyphema": 4551,
      "firecrack": 4552,
      "weber": 4553,
      "wears": 4554,
      "ungal": 4555,
      "unresponsive": 4556,
      "tening": 4557,
      "tence": 4558,
      "boat": 4559,
      "bombe": 4560,
      "membranous": 4561,
      "dislocation": 4562,
      "distrib": 4563,
      "telange": 4564,
      "700": 4565,
      "pseudoph": 4566,
      "rip": 4567,
      "pseudotumor": 4568,
      "angiogramir": 4569,
      "sisters": 4570,
      "tures": 4571,
      "monoclonal": 4572,
      "woke": 4573,
      "tamponade": 4574,
      "vague": 4575,
      "vitation": 4576,
      "trating": 4577,
      "trabecul": 4578,
      "trd": 4579,
      "track": 4580,
      "trusions": 4581,
      "dsph": 4582,
      "visualized": 4583,
      "pancre": 4584,
      "quer": 4585,
      "mination": 4586,
      "pictures": 4587,
      "italized": 4588,
      "peripherical": 4589,
      "abundant": 4590,
      "hipple": 4591,
      "tively": 4592,
      "binised": 4593,
      "proton": 4594,
      "protrusions": 4595,
      "paralle": 4596,
      "irmas": 4597,
      "irradia": 4598,
      "staph": 4599,
      "plana": 4600,
      "postdye": 4601,
      "oglobin": 4602,
      "haemo": 4603,
      "curtain": 4604,
      "1972": 4605,
      "134": 4606,
      "138": 4607,
      "139": 4608,
      "finished": 4609,
      "autofluoresce": 4610,
      "ancesche": 4611,
      "ialist": 4612,
      "cracks": 4613,
      "leaking": 4614,
      "infra": 4615,
      "infancy": 4616,
      "infiltra": 4617,
      "inferiortemporal": 4618,
      "mids": 4619,
      "356": 4620,
      "ivdu": 4621,
      "sinus": 4622,
      "osteom": 4623,
      "16mmhg": 4624,
      "causing": 4625,
      "cavitation": 4626,
      "141": 4627,
      "143": 4628,
      "avastins": 4629,
      "initiated": 4630,
      "1986": 4631,
      "immedia": 4632,
      "emergen": 4633,
      "sclerod": 4634,
      "1890": 4635,
      "1896": 4636,
      "certain": 4637,
      "newly": 4638,
      "scans": 4639,
      "polo": 4640,
      "avulsion": 4641,
      "avulsed": 4642,
      "length": 4643,
      "cf1": 4644,
      "cf2": 4645,
      "cf4": 4646,
      "cf16": 4647,
      "highly": 4648,
      "highlight": 4649,
      ".,-": 4650,
      "denied": 4651,
      "statusidentical": 4652,
      "correct": 4653,
      "spill": 4654,
      "sitting": 4655,
      "584": 4656,
      "73year": 4657,
      "weekly": 4658,
      "striae": 4659,
      "fibroma": 4660,
      "suddenly": 4661,
      "grey": 4662,
      "dropped": 4663,
      "formations": 4664,
      "reflectence": 4665,
      "valve": 4666,
      "sequential": 4667,
      "flattening": 4668,
      "granulomatosis": 4669,
      "enucleated": 4670,
      "hypereflective": 4671,
      "paramacular": 4672,
      "grandfather": 4673,
      "cheese": 4674,
      "blocks": 4675,
      "23g": 4676,
      "roths": 4677,
      "lignaocaine": 4678,
      "cottage": 4679,
      "pih": 4680,
      "hyporeflective": 4681,
      "hypomelanotic": 4682,
      "species": 4683,
      "specialist": 4684,
      "burried": 4685,
      "identified": 4686,
      "appillary": 4687,
      "spectrum": 4688,
      "indication": 4689,
      "incidentally": 4690,
      "globinised": 4691,
      "relectance": 4692,
      "bunches": 4693,
      "ppv": 4694,
      "penetrating": 4695,
      "sf6": 4696,
      "confirming": 4697,
      "confirms": 4698,
      "scatter": 4699,
      "ampple": 4700,
      "occurred": 4701,
      "effusion": 4702,
      "skull": 4703,
      "lacquer": 4704,
      "ilmx": 4705,
      "exposing": 4706,
      "remodeling": 4707,
      "axis": 4708,
      "modular": 4709,
      "lipodermoids": 4710,
      "organism": 4711,
      "details": 4712,
      "tapering": 4713,
      "mitral": 4714,
      "wait": 4715,
      "nodular": 4716,
      "taxi": 4717,
      "thrombosis": 4718,
      "sectioned": 4719,
      "aspects": 4720,
      "begins": 4721,
      "persists": 4722,
      "awaited": 4723,
      "capture": 4724,
      "captured": 4725,
      "secunder": 4726,
      "better": 4727,
      "lymphomatoid": 4728,
      "retioschisis": 4729,
      "ultrasound": 4730,
      "attach": 4731,
      "bridging": 4732,
      "disrupted": 4733,
      "cysts": 4734,
      "structural": 4735,
      "july": 4736,
      "pseudocyst": 4737,
      "complicated": 4738,
      "planned": 4739,
      "ultrasonographic": 4740,
      "scheffe": 4741,
      "vasodilators": 4742,
      "amount": 4743,
      "amounts": 4744,
      "peripap": 4745,
      "peripappillary": 4746,
      "anesthesia": 4747,
      "anesthetic": 4748,
      "papillaedema": 4749,
      "discuss": 4750,
      "discussed": 4751,
      "hipofluorescence": 4752,
      "hipofluorescência": 4753,
      "currently": 4754,
      "grossly": 4755,
      "cerebri": 4756,
      "cerebral": 4757,
      "strabismus": 4758,
      "akic": 4759,
      "clearly": 4760,
      "paget": 4761,
      "ruled": 4762,
      "reticul": 4763,
      "recovery": 4764,
      "refractory": 4765,
      "activity": 4766,
      "pediatric": 4767,
      "contralater": 4768,
      "590nm": 4769,
      "functional": 4770,
      "stabilize": 4771,
      "/...": 4772,
      "330µm": 4773,
      "ablation": 4774,
      "baquis": 4775,
      "cc20": 4776,
      "camera": 4777,
      "eclipse": 4778,
      "francesche": 4779,
      "gistory": 4780,
      "knife": 4781,
      "mutation": 4782,
      "obese": 4783,
      "pneumon": 4784,
      "quality": 4785,
      "salt": 4786,
      "shadow": 4787,
      "rendu": 4788,
      "revised": 4789,
      "invasion": 4790,
      "interim": 4791,
      "indolent": 4792,
      "retinopexy": 4793,
      "actually": 4794,
      "hospitalized": 4795,
      "hiperfluorescência": 4796,
      "originating": 4797,
      "phtographed": 4798,
      "dehemoglobin": 4799,
      "delineated": 4800,
      "destruction": 4801,
      "magnified": 4802,
      "dilaters": 4803,
      "attributed": 4804,
      "atrophey": 4805,
      "hesitant": 4806,
      "hemagioma": 4807,
      "illumination": 4808,
      "perviously": 4809,
      "syptoms": 4810,
      "subconjunctivall": 4811,
      "subyaloid": 4812,
      "substantial": 4813,
      "preserved": 4814,
      "lucentis": 4815,
      "powdery": 4816,
      "explosion": 4817,
      "example": 4818,
      "2532µm": 4819,
      "col2a1": 4820,
      "respectively": 4821,
      "firecracker": 4822,
      "distribution": 4823,
      "telangectatic": 4824,
      "pseudophakic": 4825,
      "angiogramirly": 4826,
      "trabeculectomy": 4827,
      "pancreatitis": 4828,
      "parallel": 4829,
      "irradiated": 4830,
      "haemoglobinised": 4831,
      "immediately": 4832,
      "emergency": 4833,
      "scleroderma": 4834,
      "certainly": 4835,
      "sequentially": 4836,
      "scheffels": 4837,
      "contralateral": 4838,
      "franceschetti": 4839,
      "pneumonia": 4840,
      "dehemoglobinized": 4841,
      ",.": 4842,
      ".\"": 4843,
      ".)": 4844,
      "//": 4845,
      "0old": 4846,
      "1ph": 4847,
      "1200": 4848,
      "132": 4849,
      "1400": 4850,
      "2nd": 4851,
      "2mo": 4852,
      "370": 4853,
      "364": 4854,
      "6mm": 4855,
      "94": 4856,
      "aging": 4857,
      "bla": 4858,
      "bit": 4859,
      "blin": 4860,
      "blow": 4861,
      "cs": 4862,
      "cam": 4863,
      "cticular": 4864,
      "ctive": 4865,
      "ctor": 4866,
      "cated": 4867,
      "crad": 4868,
      "dness": 4869,
      "dder": 4870,
      "doscop": 4871,
      "eg": 4872,
      "echo": 4873,
      "ead": 4874,
      "fte": 4875,
      "fit": 4876,
      "ght": 4877,
      "gap": 4878,
      "gun": 4879,
      "gination": 4880,
      "hol": 4881,
      "han": 4882,
      "hing": 4883,
      "iogra": 4884,
      "lis": 4885,
      "lleft": 4886,
      "lacu": 4887,
      "mc": 4888,
      "mile": 4889,
      "nar": 4890,
      "oy": 4891,
      "ovo": 4892,
      "omor": 4893,
      "oite": 4894,
      "ohypopyon": 4895,
      "pth": 4896,
      "pen": 4897,
      "pop": 4898,
      "ppe": 4899,
      "pper": 4900,
      "ply": 4901,
      "pir": 4902,
      "plain": 4903,
      "pull": 4904,
      "qpdr": 4905,
      "rb": 4906,
      "rv": 4907,
      "rid": 4908,
      "rmc": 4909,
      "ster": 4910,
      "sne": 4911,
      "shar": 4912,
      "sting": 4913,
      "snail": 4914,
      "tap": 4915,
      "ttes": 4916,
      "tgraphy": 4917,
      "ural": 4918,
      "ures": 4919,
      "uri": 4920,
      "uary": 4921,
      "vn": 4922,
      "via": 4923,
      "vrp": 4924,
      "wp": 4925,
      "war": 4926,
      "wwith": 4927,
      "wil": 4928,
      "wall": 4929,
      "wedge": 4930,
      "x3": 4931,
      "xi": 4932,
      "yol": 4933,
      "yob": 4934,
      "zoph": 4935,
      "zoite": 4936,
      "tifocal": 4937,
      "timing": 4938,
      "alco": 4939,
      "altern": 4940,
      "arn": 4941,
      "arch": 4942,
      "resu": 4943,
      "resc": 4944,
      "repor": 4945,
      "retained": 4946,
      "reacti": 4947,
      "rearran": 4948,
      "recticular": 4949,
      "thou": 4950,
      "ses": 4951,
      "tened": 4952,
      "teens": 4953,
      "olw": 4954,
      "olid": 4955,
      "olfer": 4956,
      "yer": 4957,
      "aniogra": 4958,
      "roi": 4959,
      "roce": 4960,
      "enface": 4961,
      "enhan": 4962,
      "incl": 4963,
      "inva": 4964,
      "inden": 4965,
      "tinct": 4966,
      "retinits": 4967,
      "year0old": 4968,
      "ultifocal": 4969,
      "isn": 4970,
      "ision": 4971,
      "ising": 4972,
      "202": 4973,
      "20s": 4974,
      "20t": 4975,
      "2011": 4976,
      "usters": 4977,
      "males": 4978,
      "aspir": 4979,
      "eral": 4980,
      "horio": 4981,
      "le20": 4982,
      "ularion": 4983,
      "veft": 4984,
      "toge": 4985,
      "tomy": 4986,
      "hion": 4987,
      "hizoph": 4988,
      "stone": 4989,
      "stress": 4990,
      "ora": 4991,
      "fema": 4992,
      "fective": 4993,
      "phologic": 4994,
      "igge": 4995,
      "deachment": 4996,
      "deeper": 4997,
      "depth": 4998,
      "defective": 4999
    },
    "merges": [
      "t i",
      "a l",
      "a r",
      "r e",
      "t h",
      "s e",
      "t e",
      "o l",
      "y e",
      "a n",
      "r o",
      "e n",
      "o n",
      "i n",
      "ti n",
      "ol d",
      "re tin",
      "ye ar",
      "u l",
      "a c",
      "i s",
      "2 0",
      "m al",
      "en t",
      "u s",
      "o p",
      "mal e",
      "a s",
      "e r",
      "h o",
      "i th",
      "l e",
      "ul ar",
      "a ti",
      "i d",
      "v e",
      "t o",
      "w ith",
      "o f",
      "se p",
      "h i",
      "m e",
      "s t",
      "retin al",
      "o r",
      "f e",
      "p h",
      "i g",
      "w hi",
      "d e",
      "a th",
      "o c",
      "whi te",
      "op ath",
      "m ac",
      "an d",
      "te r",
      "n d",
      "m a",
      "fe male",
      "o s",
      "e ye",
      "opath y",
      "ati on",
      "l a",
      "d i",
      "m ent",
      "i ti",
      "i c",
      "th e",
      "ro id",
      "n v",
      "c ho",
      "s u",
      "r a",
      "cho roid",
      "n e",
      "p e",
      "iti s",
      "g i",
      "a t",
      "b e",
      "ti c",
      "mac ular",
      "s c",
      "i on",
      "retin opathy",
      "ph y",
      "s r",
      "h e",
      "v as",
      "u nd",
      "c h",
      "vas c",
      "g e",
      "ro phy",
      "an gi",
      "d y",
      "b r",
      "in g",
      "c ent",
      "r al",
      "p ig",
      "g ra",
      "vasc ular",
      "f und",
      "cent ral",
      "fund us",
      "i t",
      "h t",
      "i l",
      "te d",
      "f t",
      "ig ht",
      "sr nv",
      "p er",
      "choroid al",
      "a se",
      "c l",
      "ne o",
      "angi o",
      "s y",
      "neo vascular",
      "dy st",
      "dyst rophy",
      "su b",
      "h is",
      "se n",
      "le ft",
      "pig ment",
      "p ho",
      "p re",
      "r ight",
      "a d",
      "e l",
      "br an",
      "ac h",
      "l as",
      "d r",
      "i a",
      "m d",
      "di a",
      "de t",
      "pho to",
      "ach ment",
      "det achment",
      "ro me",
      "nd rome",
      "sy ndrome",
      "l u",
      "p o",
      "ro us",
      "p ati",
      "pati ent",
      "se rous",
      "i z",
      "g en",
      "os is",
      "us ion",
      "e d",
      "se ase",
      "di sease",
      "oc cl",
      "dia be",
      "v o",
      "pe d",
      "a p",
      "o u",
      "c nv",
      "m p",
      "occl usion",
      "e x",
      "20 0",
      "neovascular iz",
      "sub retinal",
      "neovasculariz ation",
      "retin itis",
      "o us",
      "d o",
      "diabe tic",
      "s ho",
      "v is",
      "s i",
      "m osis",
      "e p",
      "op las",
      "oplas mosis",
      "f lu",
      "c e",
      "c on",
      "ol e",
      "cnv m",
      "c o",
      "o re",
      "r y",
      "m ul",
      "la ter",
      "n o",
      "mul ti",
      "l o",
      "he m",
      "k s",
      "f or",
      "ve in",
      "a ge",
      "dr u",
      "2 5",
      "dru sen",
      "sho w",
      "l y",
      "p r",
      "ith el",
      "ep ithel",
      "epithel i",
      "3 0",
      "f er",
      "ter n",
      "ore sc",
      "later al",
      "gen er",
      "bran ch",
      "b i",
      "a m",
      "de gener",
      "degener ation",
      "ol i",
      "flu oresc",
      "oc ular",
      "photo gra",
      "ac u",
      "m an",
      "mac ul",
      "c ol",
      "h ole",
      "4 0",
      "photogra ph",
      "w as",
      "ati ve",
      "c t",
      "1 0",
      "re s",
      "his t",
      "l ar",
      "o d",
      "l in",
      "p at",
      "h s",
      "ap il",
      "po hs",
      "o ma",
      "op tic",
      "per i",
      "f o",
      "pat tern",
      "m y",
      "be st",
      "5 0",
      "hist oplasmosis",
      "h y",
      "angio gra",
      "ve al",
      "f i",
      "re a",
      "d a",
      "ti on",
      "c sr",
      "vis ion",
      "w e",
      "u n",
      "pre su",
      "me m",
      "me d",
      "to x",
      "te n",
      "d t",
      "presu med",
      "acu te",
      "b o",
      "s ion",
      "mem bran",
      "membran e",
      "lo w",
      "se r",
      "to ma",
      "v i",
      "st ar",
      "oli fer",
      "pr olifer",
      "bi lateral",
      "d is",
      "h ar",
      "si ve",
      ") .",
      "an e",
      "my op",
      "ad a",
      "show s",
      "har ada",
      "prolifer ative",
      "i ma",
      "ter i",
      "fluoresc e",
      "c u",
      "col or",
      "pre sen",
      "r h",
      "me l",
      "fluoresce in",
      "p os",
      "te l",
      "oc al",
      "angio id",
      "p apil",
      "de ma",
      "sc ar",
      "re d",
      "le sion",
      "n er",
      "7 0",
      "f ocal",
      "p le",
      "f a",
      "f la",
      "epitheli al",
      "p se",
      "pse u",
      "r i",
      "pseu do",
      "angiogra m",
      "hy per",
      "m ia",
      "or rh",
      "orrh age",
      "s is",
      "v er",
      "fo veal",
      "ac k",
      "r pe",
      "multi ple",
      "hem orrhage",
      "is is",
      "os ch",
      "osch isis",
      "ima ge",
      "a of",
      "aof ped",
      "t u",
      "m on",
      "b le",
      "an t",
      "g ar",
      "star gar",
      "stargar dt",
      "w o",
      "oc t",
      "u al",
      "mel an",
      "choroid itis",
      "a f",
      "multi focal",
      "e ct",
      "angi ect",
      "tel angiect",
      "t a",
      "v a",
      "it y",
      "lar y",
      "b vo",
      "e dema",
      "dis c",
      "telangiect as",
      "ar e",
      "retin oschisis",
      "ex u",
      "at rophy",
      "t y",
      "v it",
      "os a",
      "br vo",
      "pigment osa",
      "rea ks",
      "v en",
      "t ra",
      "h ad",
      "al m",
      "vit re",
      "tin g",
      "th er",
      "e s",
      "ro m",
      "u ro",
      "st reaks",
      "ten sive",
      "ner ve",
      "j u",
      "re n",
      "on e",
      "t r",
      "th alm",
      "d s",
      "an ti",
      "e re",
      "s m",
      "u m",
      "choroid ere",
      "choroidere mia",
      "o b",
      "f rom",
      "op h",
      "id i",
      "opath ic",
      "idi opathic",
      "v us",
      "me w",
      "ne vus",
      "10 0",
      "mon th",
      "in ous",
      "tox oplasmosis",
      "melan oma",
      "mew ds",
      "teri or",
      "vis ual",
      "b er",
      "te ar",
      "1 5",
      "oph thalm",
      "at us",
      "a u",
      "f old",
      "f ol",
      "wo man",
      "fol low",
      "ic sc",
      "en d",
      "tic ular",
      "we e",
      "s te",
      "s he",
      "myop ic",
      "af ter",
      "con e",
      "p an",
      "n or",
      "q u",
      "hem angio",
      "nor mal",
      "l i",
      "to ry",
      "b l",
      "ane u",
      "c m",
      "ry sm",
      "aneu rysm",
      "en ce",
      "la dy",
      "ne uro",
      "peri ph",
      "m o",
      "ar md",
      "c y",
      "h er",
      "m in",
      "vasc ul",
      "te s",
      "6 0",
      "or al",
      "ar ter",
      "year s",
      "ge s",
      "macul a",
      "res ol",
      "las toma",
      "his tory",
      "d us",
      "dus n",
      "p ic",
      "bo th",
      "it al",
      "s o",
      "th is",
      "bl ack",
      "periph er",
      "i mp",
      "p on",
      "as al",
      "se d",
      "ro aneurysm",
      "a b",
      "th at",
      "ve d",
      "eye s",
      "wee ks",
      "da u",
      "fla vi",
      "hi p",
      "e v",
      "his pan",
      "hispan ic",
      "gen ital",
      "con genital",
      "3 2",
      "v on",
      "pe l",
      "cu ticular",
      "hip pel",
      "si x",
      "f am",
      "la ser",
      "lin dau",
      "fam il",
      "m ic",
      "as s",
      "macul opathy",
      "telangiectas ia",
      "c tion",
      "h as",
      "ophthalm itis",
      "end ophthalmitis",
      "6 6",
      "macul atus",
      "flavi maculatus",
      "ol ar",
      "a md",
      "ti ve",
      "b in",
      "pos terior",
      "o id",
      "choroid opathy",
      "exu da",
      "f u",
      "mac roaneurysm",
      "p ro",
      "p ar",
      "pig inous",
      "ser piginous",
      "in e",
      "cm v",
      "i le",
      "presen ted",
      "f le",
      "i r",
      "lin e",
      "ar y",
      "month s",
      "st a",
      "vitre ous",
      "p dr",
      "ro n",
      "k ed",
      "2 8",
      "4 6",
      "te mp",
      "myop ia",
      "neuro retinitis",
      "temp oral",
      "fle c",
      "p hi",
      "ri o",
      "cho rio",
      "co mp",
      "epitheli um",
      "ex tensive",
      "y an",
      "lesion s",
      "fold s",
      "follow ing",
      "u p",
      "u ve",
      "uve itis",
      "retin a",
      "fluoresc ence",
      "u t",
      "as t",
      "presen t",
      "tr ac",
      "p l",
      "c apil",
      "papil lary",
      "m ation",
      "po st",
      "ap y",
      "ther apy",
      "o g",
      "peri papillary",
      "8 0",
      "t rea",
      "he re",
      "do t",
      "trea ted",
      "c ry",
      "ra di",
      "arter y",
      "le a",
      "capil lary",
      "6 4",
      "h a",
      "vascul itis",
      "u ma",
      "re veal",
      "se l",
      "r d",
      "ve s",
      "n on",
      "di f",
      "cu r",
      "de c",
      "la ted",
      "six ty",
      "l itis",
      "1 9",
      "lar ge",
      "2 9",
      "a gi",
      "g t",
      "k o",
      "vo gt",
      "yan agi",
      "ko yanagi",
      "i or",
      "ro sis",
      "oc ia",
      "el l",
      "res pon",
      "angiogra phy",
      "ass ocia",
      "su r",
      "associa ted",
      "ch ron",
      "ex am",
      "chron ic",
      "1 3",
      "el d",
      "lin ked",
      "ch an",
      "f in",
      "sc ent",
      "ane scent",
      "ev anescent",
      "bo y",
      "au to",
      "5 5",
      "u r",
      "ou ter",
      "mp pe",
      "m il",
      "co m",
      "ju x",
      "pl ac",
      "jux ta",
      "the re",
      "hemangio ma",
      "plac oid",
      "c an",
      "to m",
      "i lateral",
      "acu ity",
      "un ilateral",
      "radi ation",
      "ves sel",
      "ste roid",
      "o ver",
      "in fla",
      "tu re",
      "exu d",
      "infla m",
      "re cur",
      "ig n",
      "papil litis",
      "re lated",
      "hyper tensive",
      "b ac",
      "an ce",
      "cy s",
      "steroid s",
      "s s",
      "fu se",
      "to id",
      "la te",
      "telangiectas is",
      "dif fuse",
      "g ro",
      "4 7",
      "to r",
      "peripher al",
      "famil y",
      "b ack",
      "i al",
      "vi r",
      "ic ity",
      "tox icity",
      "flec ks",
      "l low",
      "ven ile",
      "ju venile",
      "w or",
      "retin ob",
      "juxta foveal",
      "recur ren",
      "cys toid",
      "retinob lastoma",
      "ph ase",
      "la in",
      "2 4",
      "me t",
      "st al",
      "ra o",
      "we re",
      "comp lain",
      "cry stal",
      "c r",
      "t s",
      "mp tom",
      "fo ve",
      "exud ative",
      "inflam mation",
      "g er",
      "l l",
      "w n",
      "se en",
      "in tra",
      "ac tive",
      "phi c",
      "o vir",
      "p dt",
      "5 3",
      "h am",
      "ar toma",
      "lea k",
      "ham artoma",
      "b ut",
      "nv d",
      "m en",
      "re e",
      "re ase",
      "1 2",
      "6 8",
      "s us",
      "p c",
      "epitheli opathy",
      "a te",
      "a ted",
      "j e",
      "in je",
      "sub acute",
      "d ing",
      "i i",
      "ol og",
      "in f",
      "p id",
      "inje ction",
      "b lu",
      "i an",
      "u c",
      "tic e",
      "tra uma",
      "5 2",
      "imp ro",
      "w ho",
      "in fer",
      "ou t",
      "infer ior",
      "ar teri",
      "dec rease",
      "c or",
      "m id",
      "m ri",
      "la min",
      "gi ant",
      "lamin ar",
      "b asal",
      "w ell",
      "he ad",
      "4 9",
      "ent y",
      "id e",
      "c ted",
      "ho roid",
      "present ation",
      "horoid al",
      "se ve",
      "is m",
      "su pr",
      "seve re",
      "c au",
      "d u",
      "pos iti",
      "g o",
      "ha ve",
      "sur ger",
      "3 5",
      "c me",
      "do macular",
      "sho t",
      "bi rd",
      "here domacular",
      "bird shot",
      "7 2",
      "ac horoidal",
      "pho s",
      "cr vo",
      "supr achoroidal",
      "5 6",
      "k h",
      "p un",
      "v kh",
      "fi eld",
      "show ing",
      "ven ous",
      "e t",
      "ou r",
      "tern al",
      "exuda tes",
      "c ul",
      "i v",
      "s in",
      "ter m",
      "os te",
      "show ed",
      "reveal ed",
      "1 6",
      "c a",
      "c hem",
      "hemangio b",
      "chan ges",
      "recurren t",
      "sin ce",
      "oste oma",
      "al bin",
      "co ma",
      "m ye",
      "p la",
      "ul l",
      "ph oli",
      "anti phos",
      "pla qu",
      "pholi pid",
      "antiphos pholipid",
      "6 5",
      "8 1",
      "i f",
      "m ar",
      "u tion",
      "ati c",
      "n asal",
      "albin ism",
      "resol ved",
      "gro und",
      "back ground",
      "gen ous",
      "flu id",
      "k no",
      "p it",
      "no t",
      "kno wn",
      "d id",
      "le ber",
      "du e",
      "pun ct",
      "g f",
      "h d",
      "v enty",
      "se bac",
      "se venty",
      "as ian",
      "ve gf",
      "ft y",
      "no ted",
      "fi fty",
      "hemangiob lastoma",
      "sebac e",
      "b y",
      "g h",
      "en il",
      "de d",
      "at u",
      "plaqu enil",
      "c sc",
      "t tice",
      "la ttice",
      "ap mppe",
      "resol ution",
      "com bin",
      "surger y",
      "hd pe",
      "csc r",
      "6 7",
      "v ing",
      "fer red",
      "exuda te",
      "1 4",
      "l er",
      "in ner",
      "und er",
      "col ob",
      "line ar",
      "pc v",
      "sebace ous",
      "colob oma",
      "l os",
      "so me",
      "los s",
      "2 2",
      "7 5",
      "re ferred",
      "positi ve",
      "g res",
      "a vas",
      "c hi",
      "avas tin",
      "4 5",
      "in iti",
      "ve l",
      "gi ll",
      "per gill",
      "bo dy",
      "ta pe",
      "ab normal",
      "pergill us",
      "v iti",
      "sy ste",
      "sta ble",
      "auto fluorescence",
      "5 9",
      "g ment",
      "l ig",
      "ac he",
      "trac tion",
      "19 8",
      "viti lig",
      "syste mic",
      "vitilig inous",
      "4 4",
      "6 3",
      "m as",
      "gra phy",
      "sub foveal",
      "ou n",
      "we t",
      "leak age",
      "d oc",
      "e ar",
      "ten t",
      "blu r",
      "a ma",
      "f our",
      "i m",
      "l p",
      "su g",
      "ne c",
      "to mo",
      "he ren",
      "co heren",
      "optic al",
      "da y",
      "vessel s",
      "decrease d",
      "coheren ce",
      "e m",
      "o retinal",
      "in ation",
      "dia g",
      "diabe tes",
      "b rao",
      "is chem",
      "anti body",
      "exam ination",
      "o x",
      "r ing",
      "sc le",
      "are olar",
      "peripher y",
      "o ther",
      "s po",
      "al l",
      "oc ar",
      "sug ges",
      "3 1",
      "in fe",
      "with out",
      "fe llow",
      "oc y",
      "pic al",
      "ear ly",
      "scle rosis",
      "f oli",
      "g ing",
      "ex foli",
      "pseudo exfoli",
      "pseudoexfoli ation",
      "t on",
      "in ing",
      "or y",
      "3 4",
      "d ro",
      "tomo graphy",
      "6 2",
      "o il",
      "r an",
      "ul t",
      "op ed",
      "as is",
      "de vel",
      "s olar",
      "cl u",
      "cl ovir",
      "fi r",
      "b dr",
      "g la",
      "u coma",
      "fe atu",
      "su peri",
      "gla ucoma",
      "3 7",
      "p x",
      "r p",
      "w ide",
      "la ye",
      "ep i",
      "met ast",
      "olog y",
      "head ache",
      "featu res",
      "px e",
      "m i",
      "y clovir",
      "ac yclovir",
      "si ble",
      "si mil",
      "simil ar",
      "p a",
      "s il",
      "2 1",
      "uro sis",
      "ama urosis",
      "m or",
      "sc ler",
      "fo und",
      "vitre o",
      "combin ed",
      "e ight",
      "as pergillus",
      "ma to",
      "ex ternal",
      "co at",
      "sil ic",
      "1 8",
      "k e",
      "l r",
      "x lr",
      "ar ed",
      "of f",
      "are a",
      "ty pical",
      "mil d",
      "xlr s",
      "5 4",
      "r l",
      "ad ult",
      "tu ber",
      "respon se",
      "devel oped",
      "6 9",
      "c ar",
      "fi b",
      "superi or",
      "h m",
      "i sed",
      "s ign",
      "le dema",
      "dr y",
      "papil ledema",
      "famil ial",
      "r up",
      "se gment",
      "tox ocar",
      "crystal s",
      "tape oretinal",
      "toxocar a",
      "s mal",
      "as y",
      "ly me",
      "smal l",
      "- .",
      "g al",
      "o gra",
      "ti me",
      "iti es",
      "il l",
      "chorio retinitis",
      "mas sive",
      "2 6",
      "c al",
      "c er",
      "o therapy",
      "t wo",
      "gi rl",
      "he me",
      "sy mptom",
      "25 0",
      "pos sible",
      "7 1",
      "for m",
      "cau se",
      "ogra phic",
      "symptom s",
      "3 6",
      "en do",
      "ic g",
      "per f",
      "arter itis",
      "sta ining",
      "endo genous",
      "c ular",
      "e ach",
      "k er",
      "re at",
      "ne w",
      "sc an",
      "ge ographic",
      "cl in",
      "men ted",
      "punct ate",
      "al th",
      "sus ac",
      "7 8",
      "af fe",
      "fir st",
      "li mi",
      "pro gres",
      "mptom atic",
      "asy mptomatic",
      "d m",
      "con sis",
      "lo ma",
      "mic ro",
      "crystal line",
      "p ol",
      "al so",
      "be en",
      "un known",
      "metast asis",
      "6 1",
      "g old",
      "fe ct",
      "fin ding",
      "clin ic",
      "gold man",
      "3 8",
      "a g",
      "n ing",
      "s a",
      "ul ation",
      "id al",
      "la mel",
      "melan ocy",
      "doc tor",
      "day s",
      "pol y",
      "lamel lar",
      "melanocy toma",
      "a v",
      "l on",
      "n osis",
      "ro phic",
      "le d",
      "ve ment",
      "pigment ary",
      "hemorrhage s",
      "can is",
      "initi al",
      "laye r",
      "coat s",
      "goldman n",
      "ic k",
      "sc o",
      "he alth",
      "ob ser",
      "perf usion",
      "l en",
      "de fect",
      "lateral s",
      "col laterals",
      "mo ther",
      "impro ved",
      "if ic",
      "headache s",
      "c f",
      "f ree",
      "s l",
      "ro temporal",
      "photo s",
      "po idal",
      "bi et",
      "star ted",
      "ima ging",
      "poly poidal",
      "biet ti",
      "8 5",
      "in her",
      "hi gh",
      "gra de",
      "angio ma",
      "4 2",
      "z oc",
      "vascul opathy",
      "complain t",
      "iv ig",
      "mye loma",
      "diag nosis",
      "sco toma",
      "zoc chi",
      "3 9",
      "7 4",
      "lo op",
      "fi ber",
      "intra ocular",
      ". ,",
      "c in",
      "e le",
      "m us",
      "t reat",
      "v ol",
      "z ing",
      "an y",
      "sy phi",
      "ap pe",
      "ole s",
      "scler itis",
      "treat ment",
      "a mppe",
      "d en",
      "m t",
      "in vol",
      "can cer",
      "g ent",
      "t rophy",
      "th ree",
      "hyper trophy",
      "ver y",
      "chorio retinopathy",
      "gent le",
      "b and",
      "b ull",
      "h ce",
      "ar ac",
      "re ticular",
      "st atus",
      "be hce",
      "40 0",
      "chorio retinal",
      "sugges ting",
      "epi retinal",
      "appe ar",
      "behce t",
      "v an",
      "se con",
      "ye llow",
      "fove a",
      "cor re",
      "1 60",
      "b re",
      "c ir",
      "s p",
      "ra ised",
      "tic al",
      "par t",
      "ii i",
      "bre ast",
      "clinic al",
      "s it",
      "as tic",
      "to me",
      "el astic",
      "photo co",
      "ten sion",
      "hyper tension",
      "ren al",
      "cy tome",
      "ovir us",
      "ischem ic",
      "silic on",
      "gal ovirus",
      "photoco ag",
      "cytome galovirus",
      "4 3",
      "f ore",
      "pr im",
      "scar ring",
      "photocoag ulation",
      "prim ary",
      "5 8",
      "7 3",
      "7 9",
      "for ty",
      "hyper fluorescence",
      "wee k",
      "so mal",
      "chan ge",
      "auto somal",
      "secon d",
      "4 1",
      "c rao",
      "f ull",
      "o ton",
      "r ared",
      "ul tra",
      "ne ss",
      "my oton",
      "fi ve",
      "inf rared",
      "gentle man",
      "myoton ic",
      "c ed",
      "f ly",
      "x an",
      "th oma",
      "th ick",
      "se t",
      "se ven",
      "de terior",
      "ter fly",
      "di tion",
      "it ance",
      "pseudo xan",
      "image s",
      "pic ture",
      "but terfly",
      "rup ture",
      "inher itance",
      "elastic um",
      "deterior ation",
      "pseudoxan thoma",
      "i ble",
      "s su",
      "ter ole",
      "ra te",
      "ch oles",
      "ht n",
      "his is",
      "vis ible",
      "impro vement",
      "mye lin",
      "terole mia",
      "choles terolemia",
      "p ath",
      "ad van",
      "do min",
      "con s",
      "peri foveal",
      "rh ab",
      "ox al",
      "advan ced",
      "domin ant",
      "rhab do",
      "3 3",
      "5 7",
      "a ter",
      "g l",
      "h x",
      "r he",
      "s h",
      "be fore",
      "pig mented",
      "pigment ation",
      "pre d",
      "hy p",
      "fa f",
      "nec rosis",
      "mor ning",
      "gl ory",
      "1 7",
      "b all",
      "t al",
      "y oun",
      "th en",
      "an g",
      "st r",
      "whi le",
      "su d",
      "tu red",
      "ble m",
      "end ing",
      "pro blem",
      "progres sive",
      "youn g",
      "c and",
      "e w",
      "w ent",
      "ro qu",
      "mal ign",
      "id a",
      "at rophic",
      "ch lo",
      "cul osis",
      "under went",
      "tuber culosis",
      "fib ro",
      "sud den",
      "cand ida",
      "roqu ine",
      "chlo roquine",
      "7 7",
      "c ell",
      "t w",
      "ro u",
      "ul es",
      "ic an",
      "ne d",
      "it us",
      "li ke",
      "ca me",
      "spo t",
      "b itis",
      "c oun",
      "g re",
      "s le",
      "ti zing",
      "re cent",
      "ro tizing",
      "in clu",
      "le bitis",
      "ma in",
      "eld er",
      "nec rotizing",
      "dro p",
      "myelin ated",
      "inclu ding",
      "5 1",
      "b one",
      "c to",
      "d ual",
      "s pic",
      "t age",
      "gra dual",
      "pre ssu",
      "for mation",
      "uc k",
      "malign ant",
      "pressu re",
      "1 25",
      "2 7",
      "3 20",
      "c asian",
      "m u",
      "n is",
      "s pe",
      "re flec",
      "vi ew",
      "neuro retinopathy",
      "imp ending",
      "fu sed",
      "cau casian",
      "abnormal ities",
      "vitreo retinopathy",
      "corre cted",
      "pred nis",
      "prednis one",
      "a go",
      "c va",
      "n ine",
      "s tel",
      "v al",
      "on set",
      "ra in",
      "mon tage",
      "imp a",
      "dec al",
      "wor k",
      "traction al",
      "blur red",
      "consis tent",
      "finding s",
      "appear ance",
      "sit u",
      "stel late",
      "7 6",
      "a ting",
      "c ase",
      "t am",
      "ent ral",
      "sc hisis",
      "sm o",
      "reveal s",
      "bac teri",
      "if en",
      "ox ifen",
      "limi ted",
      "reflec tive",
      "tam oxifen",
      "l d",
      "p ul",
      "r t",
      "v ac",
      "x es",
      "as sis",
      "be vac",
      "sen ing",
      "iz uma",
      "fi xes",
      "star ting",
      "va ted",
      "are as",
      "tr ol",
      "follow s",
      "mo t",
      "wor sening",
      "infe rotemporal",
      "ele vated",
      "assis ted",
      "bevac izuma",
      "bevacizuma b",
      "a e",
      "f ra",
      "o ro",
      "s ic",
      "v r",
      "ro d",
      "ent s",
      "ent al",
      "ho r",
      "le ar",
      "de pigmentation",
      "per flu",
      "iz ed",
      "ce re",
      "pr ior",
      "ophthalm ic",
      "par ents",
      "go od",
      "pa in",
      "health y",
      "len s",
      "cto my",
      "decal in",
      "oro decalin",
      "perflu orodecalin",
      "b cva",
      "i red",
      "y on",
      "te st",
      "sho rt",
      "vitre al",
      "resol ving",
      "inf ar",
      "infe ction",
      "obser ved",
      "gre en",
      "g y",
      "se qu",
      "be came",
      "br in",
      "cent re",
      "po or",
      "fi brin",
      "fla t",
      "gy rate",
      "p ole",
      "an terior",
      "in trac",
      "er m",
      "to tal",
      "whi ch",
      "ad dition",
      "ly ing",
      "tor s",
      "ischem ia",
      "ran ial",
      "intrac ranial",
      "1 28",
      "4 8",
      "g ran",
      "r ant",
      "s ti",
      "x y",
      "ac e",
      "ch rpe",
      "ad rant",
      "hy dro",
      "qu adrant",
      "intra vitreal",
      "chi ld",
      "change d",
      "xy chloroquine",
      "hydro xychloroquine",
      "' .",
      "b rain",
      "te red",
      "ro w",
      "le te",
      "or tion",
      "ab ortion",
      "comp lete",
      "fove oschisis",
      "vitreo macular",
      "problem s",
      "recent ly",
      "abortion s",
      "a ble",
      "b or",
      "e al",
      "g mato",
      "i ant",
      "t ary",
      "v ar",
      "fe vr",
      "di tary",
      "vi ous",
      "angiogram s",
      "here ditary",
      "cry otherapy",
      "respon ded",
      "cul ture",
      "pa ir",
      "cal c",
      "cin oma",
      "mus cular",
      "rhe gmato",
      "eal es",
      "var iant",
      "rhegmato genous",
      "c ep",
      "i en",
      "re gi",
      "fluoresc ent",
      "dis or",
      "trac ks",
      "sa me",
      "cons ang",
      "elder ly",
      "impa ired",
      "consang u",
      "b ly",
      "d er",
      "d ur",
      "l and",
      "in c",
      "is ch",
      "is land",
      "le ss",
      "the se",
      "be d",
      "be ar",
      "be rous",
      "und ing",
      "ed ing",
      "tu berous",
      "pan retinal",
      "sign ific",
      "oxal osis",
      "isch ae",
      "signific ant",
      "1 1",
      "b al",
      "b lo",
      "n itus",
      "t op",
      "t un",
      "se ver",
      "on col",
      "tin nitus",
      "ul oma",
      "de li",
      "sc ri",
      "for tun",
      "ri er",
      "ver tical",
      "sur ro",
      "ate ly",
      "olog ic",
      "arteri o",
      "spo ts",
      "affe cted",
      "lon g",
      "cir cu",
      "mu ch",
      "gran uloma",
      "sever al",
      "oncol og",
      "deli very",
      "scri bed",
      "fortun ately",
      "c q",
      "c oc",
      "h cq",
      "i es",
      "i form",
      "o macular",
      "se min",
      "en uc",
      "ul d",
      "de fin",
      "ic entral",
      "per icentral",
      "co uld",
      "photogra phy",
      "hy pe",
      "vi tel",
      "dis semin",
      "presen ting",
      "li form",
      "recurren ce",
      "fove omacular",
      "sugges tive",
      "car cinoma",
      "vitel liform",
      "dissemin ated",
      "e y",
      "g r",
      "l ight",
      "n g",
      "p us",
      "u re",
      "re o",
      "th ir",
      "in term",
      "mal formation",
      "ne ur",
      "it tent",
      "cl ass",
      "lu ng",
      "con trol",
      "no sed",
      "hyper reflective",
      "ste reo",
      "par a",
      "pc p",
      "initi ating",
      "diag nosed",
      "sh un",
      "arterio venous",
      "gr and",
      "interm ittent",
      "neur itis",
      "class ic",
      "8 2",
      "c en",
      "g am",
      "m opathy",
      "m scribed",
      "t ane",
      "v ation",
      "x al",
      "y the",
      "re gres",
      "re main",
      "ro p",
      "ro xal",
      "in s",
      "in ju",
      "er ythe",
      "ho od",
      "le ation",
      "id ental",
      "or b",
      "ph thalm",
      "el y",
      "lu pus",
      "tu mor",
      "vitre ctomy",
      "tr an",
      "ur ia",
      "inf ant",
      "198 5",
      "198 7",
      "clu mp",
      "mato sus",
      "micro phthalm",
      "lon al",
      "second ary",
      "str uck",
      "addition al",
      "child hood",
      "circu mscribed",
      "enuc leation",
      "hype roxal",
      "gam mopathy",
      "tane ous",
      "inju ry",
      "erythe matosus",
      "microphthalm os",
      "hyperoxal uria",
      "a z",
      "c j",
      "c w",
      "c he",
      "c el",
      "f al",
      "f ar",
      "h lear",
      "l lu",
      "v re",
      "w f",
      "ti go",
      "re ce",
      "re pon",
      "re cep",
      "th ing",
      "se ned",
      "te in",
      "ul e",
      "is su",
      "er g",
      "ve p",
      "or de",
      "de mar",
      "ath i",
      "pe cted",
      "gi ven",
      "be llu",
      "con fused",
      "ry cel",
      "hy al",
      "mem ory",
      "fa vre",
      "ver tigo",
      "ta u",
      "disc iform",
      "bl oc",
      "cm l",
      "ev al",
      "pro tein",
      "par ts",
      "fin d",
      "fin al",
      "wor sened",
      "men s",
      "sus pected",
      "sign al",
      "sa w",
      "any thing",
      "mt x",
      "sp rycel",
      "cere bellu",
      "ien ted",
      "regi mens",
      "disor iented",
      "bal ance",
      "oncolog y",
      "coc hlear",
      "ey lea",
      "az athi",
      "cj d",
      "cw s",
      "fal se",
      "far ve",
      "repon se",
      "issu es",
      "orde red",
      "cerebellu m",
      "2 3",
      "b ic",
      "c at",
      "n ve",
      "ro th",
      "op er",
      "photo recep",
      "lu oresc",
      "ed ges",
      "ce ss",
      "complain ts",
      "blur ry",
      "initial ly",
      "arac t",
      "bic lonal",
      "cat aract",
      "c ac",
      "m ber",
      "s me",
      "s pon",
      "u ation",
      "th rou",
      "ve mber",
      "of luoresc",
      "su pe",
      "pre vious",
      "ad j",
      "no vember",
      "hole s",
      "ty pe",
      "sl ight",
      "path ology",
      "remain ed",
      "c ation",
      "f l",
      "f ic",
      "f un",
      "ol or",
      "do ing",
      "photograph s",
      "tu r",
      "periph lebitis",
      "arteri olar",
      "under lying",
      "tuber cular",
      "hyal oid",
      "8 3",
      "c ti",
      "c re",
      "ar coma",
      "us ing",
      "id ual",
      "me di",
      "ath er",
      "os arcoma",
      "ch arac",
      "it s",
      "res idual",
      "my osarcoma",
      "fold ed",
      "non perfusion",
      "arteri al",
      "car rier",
      "fib rosis",
      "rhabdo myosarcoma",
      "spic ules",
      "thir ty",
      "para foveal",
      "clump ing",
      "photorecep tors",
      "charac ter",
      ") ,",
      "a ine",
      "k ely",
      "l ign",
      "o mal",
      "s ia",
      "v h",
      "ti al",
      "ar gen",
      "re cor",
      "an omal",
      "tin a",
      "oc aine",
      "ne g",
      "el se",
      "sho e",
      "co t",
      "drusen oid",
      "hist opath",
      "li kely",
      "ha ving",
      "epi macular",
      "limi ting",
      "syphi l",
      "thick ness",
      "hor se",
      "demar cation",
      "cac d",
      "argen tina",
      "a o",
      "f ing",
      "k en",
      "o und",
      "ti s",
      "in doc",
      "op to",
      "hi v",
      "me dia",
      "hyper fluorescent",
      "ta ken",
      "ren t",
      "aneurysm s",
      "yan ine",
      "met al",
      "complain ing",
      "cor respon",
      "silic one",
      "., ,",
      "hyp ofluoresc",
      "infar ction",
      "sti ll",
      "blo od",
      "fing er",
      "indoc yanine",
      "opto s",
      "f s",
      "f lo",
      "g ho",
      "m ore",
      "p i",
      "p ur",
      "r x",
      "t sc",
      "w ater",
      "y r",
      "th an",
      "or fs",
      "de pos",
      "ma bly",
      "ne ph",
      "br yon",
      "presu mably",
      "wo ol",
      "qu et",
      "em bryon",
      "consis ting",
      "bacteri al",
      "dur ation",
      "spon taneous",
      "lign ocaine",
      "cot ton",
      "horse shoe",
      "pur tsc",
      "purtsc her",
      "p ast",
      "u se",
      "v mt",
      "ar ound",
      "se em",
      "ro ss",
      "de mon",
      "ma ternal",
      "ation s",
      "at ten",
      "per al",
      "no te",
      "peri peral",
      "prolifer ation",
      "ev id",
      "complain ed",
      "grand mother",
      "seem s",
      "demon st",
      "f ather",
      "l oc",
      "o st",
      "r ican",
      "ar s",
      "th y",
      "te nd",
      "ro cy",
      "on ly",
      "de ep",
      "ex tend",
      "no tice",
      "pr ine",
      "hy po",
      "rea k",
      "af rican",
      "alm ost",
      "ast rocy",
      "dif fic",
      "combin ation",
      "ill ness",
      "spe c",
      "rop ia",
      "azathi prine",
      "neg ative",
      "extend ing",
      "astrocy tic",
      "h ine",
      "i pcv",
      "m ass",
      "p uc",
      "al bi",
      "en lar",
      "in t",
      "20 12",
      "to retinal",
      "mac hine",
      "ic e",
      "am y",
      "hist ology",
      "roaneurysm s",
      "mic roaneurysms",
      "mar g",
      "punct atus",
      "tape toretinal",
      "blur ring",
      "eight y",
      "eval uation",
      "puc ker",
      "albi punctatus",
      "enlar ging",
      "b ul",
      "i ve",
      "n t",
      "t b",
      "ti g",
      "in ter",
      "le ad",
      "to sis",
      "phy sic",
      "sub sequ",
      "30 0",
      "tra um",
      "anti tubercular",
      "cm c",
      "ir is",
      "wor m",
      "blu nt",
      "mid periphery",
      "cul tured",
      "coloboma ta",
      "invol ving",
      "fibro tic",
      "regres sed",
      "sme ars",
      "histopath ology",
      "flo ater",
      "embryon al",
      "evid ence",
      "bul b",
      "lead ing",
      "physic ian",
      "subsequ ent",
      "traum atic",
      "8 8",
      "9 0",
      "b ur",
      "c le",
      "c ting",
      "f ill",
      "t ren",
      "w ill",
      "ol len",
      "in ity",
      "us ive",
      "id en",
      "ter s",
      "la y",
      "the ir",
      "ch y",
      "cl o",
      "las t",
      "po unding",
      "occl usive",
      "ap p",
      "occlusion s",
      "man y",
      "scar s",
      "scar red",
      "min u",
      "affe cting",
      "progres sed",
      "pul ly",
      "mot t",
      "fra gment",
      "consangu inity",
      "ischae mia",
      "bloc k",
      "supe rotemporal",
      "metal ic",
      "pi pe",
      "tren ch",
      "e og",
      "f ace",
      "i um",
      "l it",
      "n l",
      "s well",
      "z one",
      "ro pic",
      "in to",
      "hi m",
      "st ack",
      "de ut",
      "per g",
      "pho top",
      "dia me",
      "con ges",
      "da ble",
      "presen ce",
      "presen ile",
      "mic ron",
      "non recor",
      "mar ked",
      "atu re",
      "im t",
      "em mot",
      "ke stack",
      "rup tured",
      "fiber s",
      "spe ct",
      "smo kestack",
      "pain less",
      "calc ium",
      "defin ed",
      "shun t",
      "cen tered",
      "depos its",
      "swell ing",
      "deut an",
      "micron s",
      "nonrecor dable",
      "emmot ropic",
      "c op",
      "i te",
      "m un",
      "w th",
      "ar row",
      "in di",
      "ati tis",
      "de positi",
      "gener al",
      "li ed",
      "gro wth",
      "arteri ole",
      "mid peripheral",
      "im mun",
      "obser vation",
      "coun ting",
      "fra me",
      "inc idental",
      "throu gh",
      "syphil is",
      "iden tical",
      "app lied",
      "depositi on",
      "+ .",
      "a pergillus",
      "f las",
      "h al",
      "n ous",
      "o tic",
      "r th",
      "t ri",
      "re us",
      "en e",
      "in tr",
      "tin al",
      "st asis",
      "de laye",
      "ter reus",
      "di lated",
      "central ly",
      "sub hyaloid",
      "con j",
      "lo macular",
      "bi rth",
      "papil lomacular",
      "ver sic",
      "ver nous",
      "are tinal",
      "injection s",
      "ca vernous",
      "ball s",
      "coun t",
      "quadrant s",
      "fun gal",
      "medi cal",
      "vh l",
      "diffic ul",
      "clo sed",
      "spect ral",
      "flas h",
      "intr aretinal",
      "delaye d",
      "versic olor",
      "g mus",
      "n y",
      "p in",
      "s of",
      "ro tic",
      "ac ity",
      "is t",
      "op acity",
      "ra quet",
      "dyst rophic",
      "flu ent",
      "con fluent",
      "ble ed",
      "tes ting",
      "pro b",
      "pro cess",
      "sta gmus",
      "sel f",
      "boy s",
      "intra venous",
      "ker atitis",
      "hyp op",
      "tw in",
      "cre amy",
      "cle ared",
      "diame ters",
      "conges tion",
      "hal f",
      "ny stagmus",
      "sof t",
      "raquet ball",
      "b reaks",
      "g n",
      "g lo",
      "k oc",
      "l oph",
      "o mp",
      "s on",
      "u ted",
      "u koc",
      "ti d",
      "re le",
      "se eding",
      "tin e",
      "le ukoc",
      "with in",
      "st age",
      "or t",
      "or ia",
      "fe w",
      "oc omp",
      "sc es",
      "his to",
      "sen ile",
      "co bacteri",
      "am or",
      "my cobacteri",
      "un treated",
      "papil loph",
      "rom ised",
      "ab sces",
      "par ac",
      "gro wn",
      "tor tu",
      "met amor",
      "syphi litis",
      "tw enty",
      "spic ule",
      "control led",
      "anomal y",
      "hypofluoresc ence",
      "neph rotic",
      "thy roid",
      "immun ocomp",
      "leukoc oria",
      "mycobacteri um",
      "papilloph lebitis",
      "absces s",
      "immunocomp romised",
      "8 4",
      "i p",
      "k able",
      "l ocal",
      "s w",
      "re mar",
      "en ing",
      "in ves",
      "us ting",
      "la be",
      "la mp",
      "di min",
      "show n",
      "am n",
      "am er",
      "un remar",
      "har d",
      "neuro path",
      "sl it",
      "thick ening",
      "rou tine",
      "bor der",
      "adj usting",
      "correspon ds",
      "fill ing",
      "sw ollen",
      "inves tig",
      "labe led",
      "unremar kable",
      "neuropath y",
      "border s",
      "b 2",
      "b un",
      "b reak",
      "c our",
      "d b2",
      "g lu",
      "m h",
      "p p",
      "p ene",
      "r u",
      "s f",
      "s sive",
      "u ated",
      "ol er",
      "de cl",
      "ma g",
      "il ities",
      "con fir",
      "co se",
      "no tic",
      "ct s",
      "un cti",
      "ver ted",
      "melan otic",
      "ophthalm ologic",
      "mo st",
      "respon sive",
      "com orb",
      "juxta fove",
      "ll is",
      "surger ies",
      "ca ting",
      "198 2",
      "metast atic",
      "micro vascular",
      "syphi llis",
      "val s",
      "smo ker",
      "sequ ence",
      "calc ific",
      "rece ssive",
      "gho st",
      "int oler",
      "block age",
      "conj uncti",
      "glo be",
      "glu cose",
      "ru be",
      "decl ining",
      "comorb ilities",
      "juxtafove olar",
      "intoler ance",
      "8 7",
      "b ro",
      "c ross",
      "d ar",
      "d ou",
      "f ac",
      "n op",
      "p all",
      "t le",
      "u ded",
      "20 14",
      "ma tory",
      "os cop",
      "sc at",
      "ex tra",
      "si te",
      "acu ities",
      "tox o",
      "visual ly",
      "tear s",
      "exud ation",
      "inflam matory",
      "chem otherapy",
      "time s",
      "affe rent",
      "invol uted",
      "clinical ly",
      "oxal ate",
      "bor n",
      "oper ative",
      "loc ated",
      "marg ins",
      "minu tes",
      "amer ican",
      "dar k",
      "dou ble",
      "pall or",
      "a mp",
      "a melanotic",
      "c d",
      "c il",
      "c sf",
      "e ith",
      "f fa",
      "i fe",
      "i oretinal",
      "o tid",
      "r ia",
      "s pr",
      "v f",
      "w here",
      "x t",
      "ol ving",
      "an a",
      "an cy",
      "on h",
      "ho t",
      "fe br",
      "oc cur",
      "the sia",
      "ne xt",
      "pre gn",
      "occl uded",
      "pat chy",
      "ane mia",
      "ple ocy",
      "ble eding",
      "tr ation",
      "vascul ature",
      "ev olving",
      "ine ous",
      "pl us",
      "radi otherapy",
      "iv da",
      "mar ria",
      "34 yr",
      "off spr",
      "car otid",
      "infar cts",
      "consangu ineous",
      "character ized",
      ".,, -",
      "floater s",
      "local ized",
      "pene tration",
      "cd 4",
      "cil ioretinal",
      "eith er",
      "febr ile",
      "pleocy tosis",
      "marria ge",
      "offspr ing",
      "c as",
      "e f",
      "i op",
      "m mh",
      "s k",
      "s ing",
      "u red",
      "v ant",
      "w h",
      "re l",
      "re t",
      "re tur",
      "en s",
      "is tic",
      "is he",
      "is sion",
      "st and",
      "srnv m",
      "per fused",
      "vo mi",
      "ou gh",
      "do wn",
      "co me",
      "pr p",
      "dis tor",
      "sm ission",
      "ophthalm olog",
      "li pid",
      "par tial",
      "ache d",
      "ama zing",
      "superior ly",
      "loop s",
      "cell s",
      "ischae mic",
      "surro unding",
      "tran smission",
      "character istic",
      "demonst ra",
      "pin hole",
      "rele vant",
      "investig ations",
      "scat tered",
      "mmh g",
      "retur ned",
      "ishe d",
      "stand ing",
      "vomi ting",
      "distor tion",
      "ophthalmolog ist",
      ") ;",
      "b ol",
      "b ulation",
      "b uck",
      "c row",
      "d le",
      "f ul",
      "g ree",
      "h and",
      "i ted",
      "l ac",
      "n uc",
      "r ac",
      "r ace",
      "r fl",
      "s par",
      "s ha",
      "s ler",
      "al be",
      "al va",
      "an tic",
      "in ad",
      "ac ent",
      "le vel",
      "me as",
      "me ta",
      "de gree",
      "oc cas",
      "white ning",
      "ne ed",
      "ne mato",
      "at a",
      "sc ens",
      "ion al",
      "il m",
      "con dition",
      "am sler",
      "man ife",
      "peri bulb",
      "hyper met",
      "ver tent",
      "tu bulation",
      "va ble",
      "ven ules",
      "es thesia",
      "tr ic",
      "mo se",
      "unilateral ly",
      "impro vable",
      "mid dle",
      "punct ata",
      "em bol",
      "scler a",
      "invol vement",
      "defin ite",
      "orb it",
      "oper ated",
      "adj acent",
      "indi cating",
      "prob able",
      "cour se",
      "vals alva",
      "rube osis",
      "ana esthesia",
      "occur s",
      "buck le",
      "crow ded",
      "race mose",
      "albe scens",
      "inad vertent",
      "occas ional",
      "need le",
      "nemato de",
      "peribulb ar",
      "hypermet ropia",
      "embol us",
      "( >",
      "c idental",
      "c cess",
      "i mented",
      "j us",
      "l id",
      "l itus",
      "n arrow",
      "o imented",
      "u pon",
      "re com",
      "ac cidental",
      "id el",
      "os ure",
      "su f",
      "su ccess",
      "he ar",
      "he idel",
      "cl osure",
      "sen ce",
      "pre retinal",
      "col le",
      "mel litus",
      "end ocar",
      "men ded",
      "sl ide",
      "sti tial",
      "shun ts",
      "inter stitial",
      "bur n",
      "difficul ty",
      "hypop ig",
      "dimin ished",
      "notic ed",
      "sk in",
      "ful ly",
      "manife st",
      "jus t",
      "oimented macular",
      "recom mended",
      "success fully",
      "endocar di",
      "a bo",
      "c n",
      "f res",
      "i ved",
      "l ing",
      "o t",
      "p up",
      "in ternal",
      "ho we",
      "ma tri",
      "be come",
      "ch am",
      "sub tle",
      "pre ad",
      "det ached",
      "iz e",
      "ex pos",
      "si as",
      "un changed",
      "red uc",
      "sis ter",
      "mon ary",
      "follow ed",
      "ab sence",
      "fu ture",
      "temporal ly",
      "tom as",
      "pun che",
      "spo ke",
      "inher ited",
      "ele vation",
      "main ly",
      "pul monary",
      "inc rease",
      "surro und",
      "rece ived",
      "else where",
      "atten uated",
      "demonst rate",
      "spec ific",
      "photop sias",
      "meas ured",
      "hypopig mented",
      "abo ve",
      "fres h",
      "ot ropia",
      "pup il",
      "howe ver",
      "matri x",
      "cham ber",
      "reduc ed",
      "punche d",
      "b ase",
      "e verted",
      "g ger",
      "h at",
      "o de",
      "r ol",
      "u de",
      "v s",
      "w elder",
      "y pical",
      "al ly",
      "re mo",
      "te ly",
      "te cted",
      "is ode",
      "op r",
      "op sia",
      "ph opsia",
      "de tected",
      "pe c",
      "at ypical",
      "be com",
      "pre ma",
      "detachment s",
      "ep isode",
      "cu tic",
      "mew hat",
      "so mewhat",
      "ab ly",
      "dau gh",
      "sur face",
      "over lying",
      "sign s",
      "bull ous",
      "sh ut",
      "mu gger",
      "lit ude",
      "metamor phopsia",
      "confir med",
      "amp litude",
      "pregn ancy",
      "wh en",
      "spar ing",
      "sha ped",
      "rol led",
      "becom ing",
      "daugh ter",
      "- ,",
      "1 64",
      "a x",
      "b id",
      "b ia",
      "b ao",
      "d one",
      "f f",
      "g on",
      "g rea",
      "i of",
      "l ic",
      "l ant",
      "m g",
      "m od",
      "p y",
      "p las",
      "r ule",
      "u e",
      "w y",
      "y sis",
      "al ysis",
      "ar ca",
      "re detachment",
      "re trol",
      "ro und",
      "on tal",
      "in ts",
      "in active",
      "ac ross",
      "us ual",
      "as ide",
      "ho bia",
      "id es",
      "to us",
      "st ri",
      "oc cu",
      "os sible",
      "at on",
      "gra y",
      "po der",
      "po ints",
      "iz ontal",
      "neovasculariz aton",
      "si lateral",
      "si bly",
      "fi ed",
      "un ded",
      "vi ral",
      "cu ff",
      "pos sibly",
      "li poder",
      "mo id",
      "mo tion",
      "imp lant",
      "imp ossible",
      "19 71",
      "55 yr",
      "recur red",
      "cr ick",
      "blu e",
      "arteri oles",
      "198 8",
      "mas on",
      "den se",
      "invol ved",
      "fibro vascular",
      "fibro plas",
      "pul sed",
      "hor izontal",
      "surro unded",
      "long standing",
      "granuloma tous",
      "throu gho",
      "anomal ies",
      "correspon ding",
      "mott led",
      "photop hobia",
      "parac entral",
      "tortu ous",
      "ip silateral",
      "expos ure",
      "grea ter",
      "iof b",
      "py ing",
      "wy burn",
      "arca de",
      "retrol ental",
      "usual ly",
      "occu pying",
      "lipoder moid",
      "crick et",
      "fibroplas ia",
      "througho ut",
      "' /",
      "a to",
      "d ig",
      "f ran",
      "g an",
      "g reat",
      "h n",
      "j ad",
      "k ing",
      "m ig",
      "m ight",
      "m cin",
      "n a",
      "n ile",
      "o graphy",
      "r is",
      "r ation",
      "r ane",
      "s ol",
      "s oc",
      "s ory",
      "s ize",
      "t re",
      "v ice",
      "w in",
      "x ima",
      "ti l",
      "se e",
      "se ss",
      "ol one",
      "an as",
      "on ide",
      "in al",
      "ac et",
      "as so",
      "as sess",
      "to mosis",
      "st u",
      "or gan",
      "ma de",
      "ra y",
      "be yon",
      "ge st",
      "sen sory",
      "pre dis",
      "ia mcin",
      "det a",
      "ap pro",
      "ex tre",
      "do w",
      "no w",
      "ative ly",
      "we st",
      "ser vice",
      "cu ts",
      "pos ing",
      "fla p",
      "mon otherapy",
      "ta per",
      "es pec",
      "tr iamcin",
      "ber g",
      "imp ort",
      "ha em",
      "respon ding",
      "ial ly",
      "vir us",
      "wor ker",
      "systemic ally",
      "examination s",
      "infe cti",
      "clu b",
      "scler al",
      "defect s",
      "str u",
      "dur ing",
      "cen ter",
      "hypofluoresc ent",
      "loc ation",
      "mott ling",
      "spectral is",
      "calcific ation",
      "fac tors",
      "rel atively",
      "endocardi ris",
      "increase d",
      "base line",
      "dig ital",
      "fran k",
      "jad asso",
      "mig ration",
      "soc ial",
      "win dow",
      "xima tely",
      "anas tomosis",
      "acet onide",
      "assess ment",
      "beyon d",
      "predis posing",
      "appro ximately",
      "extre me",
      "espec ially",
      "triamcin olone",
      "import ant",
      "infecti ous",
      "jadasso hn",
      "0 8",
      "1 50",
      "8 6",
      "c ous",
      "d ye",
      "d ent",
      "f hx",
      "i mal",
      "i fied",
      "k ler",
      "m 1",
      "m it",
      "n i",
      "p v",
      "r ped",
      "s d",
      "s ar",
      "s tic",
      "s late",
      "w a",
      "x ican",
      "ti o",
      "ti mal",
      "al on",
      "al itis",
      "ar t",
      "th rom",
      "te sis",
      "en tesis",
      "retin os",
      "op timal",
      "er ation",
      "er ate",
      "ho ma",
      "me xican",
      "st reak",
      "fe rent",
      "ph alitis",
      "oc k",
      "ter rane",
      "os ity",
      "di alysis",
      "ic ial",
      "su perf",
      "sc all",
      "sr f",
      "angi opathy",
      "per for",
      "sub macular",
      "sub optimal",
      "las tomas",
      "pati ble",
      "ex tent",
      "vis cer",
      "co id",
      "no d",
      "lo o",
      "dru g",
      "ly m",
      "10 mmhg",
      "un til",
      "low er",
      "ta x",
      "ta ut",
      "vit r",
      "es otropia",
      "ence phalitis",
      "neuro sensory",
      "mo tio",
      "min imal",
      "ir ment",
      "sta in",
      "ron asal",
      "flec k",
      "retina e",
      "trac t",
      "trac homa",
      "radi cal",
      "lea ks",
      "reveal ing",
      "19 th",
      "exam s",
      "com patible",
      "com motio",
      "intra operative",
      "cor ne",
      "hemangiob lastomas",
      "abnormal ity",
      "198 3",
      "devel op",
      "off ice",
      "micro infarcts",
      "micro angiopathy",
      "rhe uma",
      "impa irment",
      "malformation s",
      "regres sing",
      "tran sit",
      "bloc ked",
      "supe ronasal",
      "tur ity",
      "medi terrane",
      "marg in",
      "bur g",
      "marked ly",
      "parac entesis",
      "tortu osity",
      "conjuncti val",
      "bro ther",
      "extra macular",
      "ef ferent",
      "demonstra tes",
      "lac eration",
      "nuc lear",
      "suf fer",
      "heidel burg",
      "colle ge",
      "cn s",
      "remo val",
      "prema turity",
      "episode s",
      "mod erate",
      "stri king",
      "stu dent",
      "cous ins",
      "pv d",
      "sar coid",
      "stic kler",
      "alon g",
      "throm b",
      "retinos hisis",
      "superf icial",
      "scall oped",
      "viscer al",
      "mediterrane an",
      ". .",
      "b ar",
      "b ad",
      "b ab",
      "c sme",
      "g one",
      "g li",
      "k od",
      "n fl",
      "o m",
      "o is",
      "p to",
      "t x",
      "ti es",
      "th ough",
      "se ction",
      "an ge",
      "in ary",
      "is c",
      "as pe",
      "me sen",
      "di tory",
      "iti c",
      "ne l",
      "pe el",
      "be g",
      "tic olor",
      "phy loma",
      "ge d",
      "fund oscop",
      "per sis",
      "sub normal",
      "el ve",
      "ach rome",
      "gen e",
      "vis it",
      "si ent",
      "si mul",
      "mul ticolor",
      "multi spectral",
      "ple ase",
      "hyper pigmented",
      "ophthalm oscop",
      "au ditory",
      "min ton",
      "ir van",
      "sta phyloma",
      "comp ared",
      "up per",
      "ha z",
      "ur inary",
      "cys tic",
      "du ct",
      "phos ia",
      "nasal ly",
      "time frame",
      "appear ence",
      "cir cular",
      "part ly",
      "tw elve",
      "inferotemporal ly",
      "cere bro",
      "blo t",
      "light s",
      "tran sient",
      "che st",
      "azathi opr",
      "fun nel",
      "syphil itic",
      "finger s",
      "spontaneous ly",
      "atten ded",
      "chy mal",
      "superotemporal ly",
      "difficul ties",
      "metamor phosia",
      "ip ated",
      "rac quet",
      "antic ipated",
      "organ ized",
      "stru ct",
      "lym pho",
      "suffer s",
      "bad minton",
      "bab y",
      "gli osis",
      "kod achrome",
      "mesen chymal",
      "peel ing",
      "ophthalmoscop e",
      "cerebro vasculitis",
      "azathiopr ine",
      "kodachrome s",
      "1 20",
      "2 30",
      "8 9",
      "a af",
      "a tor",
      "a wa",
      "b ance",
      "c ap",
      "d ra",
      "d rain",
      "e ce",
      "e man",
      "e ven",
      "e qu",
      "f oc",
      "f il",
      "g m",
      "g as",
      "g ue",
      "j an",
      "l prednisone",
      "m er",
      "m me",
      "m ou",
      "n 3",
      "n ature",
      "o th",
      "p ac",
      "p rom",
      "r ther",
      "s pl",
      "s pread",
      "t 3",
      "v ity",
      "w re",
      "y ne",
      "al low",
      "se c",
      "an other",
      "an ae",
      "en ia",
      "in a",
      "tin y",
      "ul in",
      "is ting",
      "le g",
      "id er",
      "me thy",
      "st op",
      "or id",
      "de part",
      "os ite",
      "ic al",
      "ic ted",
      "ne ver",
      "be t",
      "be cause",
      "fund i",
      "cl itis",
      "sy mme",
      "ad en",
      "ad mit",
      "po int",
      "iz ation",
      "ex isting",
      "do yne",
      "vis its",
      "con str",
      "am l",
      "am ic",
      "10 5",
      "res ul",
      "lar ger",
      "lar ies",
      "pat ch",
      "tion able",
      "un corrected",
      "dis tur",
      "dis closed",
      "ver ified",
      "ta in",
      "es tionable",
      "tr as",
      "au g",
      "qu estionable",
      "fu rther",
      "ir id",
      "comp osite",
      "capil laries",
      "dot s",
      "lea ted",
      "non small",
      "hemangioma tosis",
      "inferior ly",
      "severe ly",
      "chem o",
      "plaqu e",
      "ocy top",
      "asy m",
      "ker ato",
      "alth ough",
      "cin ate",
      "gentle men",
      "corre ction",
      "cir cinate",
      "cons ider",
      "sh allow",
      "ang ina",
      "smo oth",
      "pain s",
      "ins ulin",
      "previous ly",
      "fl orid",
      "recor ded",
      "atten uation",
      "minu te",
      "lit ax",
      "flash ing",
      "hypop yon",
      "pp d",
      "pp ing",
      "conjuncti va",
      "tric ort",
      "manifest ation",
      "pupil lary",
      "metamorphopsia e",
      "ni ece",
      "loo ks",
      "tax ol",
      "thromb ocytop",
      "bar rier",
      "simul taneous",
      "haz y",
      "lympho ma",
      "drain age",
      "eman ating",
      "equ ator",
      "foc i",
      "mer ged",
      "pac litax",
      "prom in",
      "wre ath",
      "anae mia",
      "methy lprednisone",
      "depart ment",
      "symme tric",
      "admit ted",
      "constr icted",
      "distur bance",
      "kerato scleritis",
      "thrombocytop enia",
      "paclitax el",
      ", (",
      "9 7",
      "f rac",
      "g a",
      "h ro",
      "i men",
      "k ore",
      "l ma",
      "n m",
      "n lp",
      "o ag",
      "p sc",
      "u ous",
      "u ction",
      "ti re",
      "ti ssu",
      "al one",
      "ar se",
      "re ti",
      "re en",
      "th in",
      "en tire",
      "ul cer",
      "ul tras",
      "op sy",
      "st ron",
      "or ange",
      "ph s",
      "de x",
      "de pigmented",
      "ath ing",
      "ma y",
      "ma ge",
      "ma pping",
      "be ing",
      "sc reen",
      "lu cent",
      "oplas ma",
      "con tig",
      "co ver",
      "co arse",
      "bi opsy",
      "da mage",
      "tox oplasma",
      "dis k",
      "red uction",
      "hyper pigmentation",
      "ob vious",
      "she athing",
      "li er",
      "ab out",
      "19 97",
      "respon d",
      "cor d",
      "cul ation",
      "under go",
      "under gone",
      "mas ked",
      "ear lier",
      "cal i",
      "mus hro",
      "band s",
      "cir culation",
      "sp inal",
      "che s",
      "media te",
      "spec imen",
      "inter mediate",
      "prob ably",
      "demonstra ted",
      "antic oag",
      "manifest ations",
      "na il",
      "sol id",
      "haem orrhage",
      "nod ules",
      "corne a",
      "aspe ct",
      "beg in",
      "persis t",
      "gene tic",
      "mou th",
      "kore an",
      "tissu e",
      "ulcer s",
      "screen ed",
      "contig uous",
      "cover ing",
      "mushro om",
      ", -",
      "a vascular",
      "b s",
      "b we",
      "b are",
      "c i",
      "d or",
      "d amy",
      "e ved",
      "e ger",
      "f ati",
      "f ig",
      "g ular",
      "h ch",
      "h one",
      "h ollen",
      "i se",
      "i as",
      "i rosis",
      "m po",
      "n um",
      "o val",
      "p vr",
      "s low",
      "t tom",
      "t ology",
      "u ed",
      "v id",
      "w k",
      "w an",
      "w he",
      "w eld",
      "w ides",
      "w ise",
      "y com",
      "ti um",
      "al ter",
      "ar c",
      "ar gon",
      "re treated",
      "re pa",
      "re ctomy",
      "re gular",
      "se ro",
      "se cre",
      "te res",
      "an ci",
      "in ion",
      "in teres",
      "retin oc",
      "ac tic",
      "ac cu",
      "ac coun",
      "ac counting",
      "is cop",
      "20 15",
      "op thalm",
      "op inion",
      "le s",
      "le pto",
      "id ed",
      "to ur",
      "de br",
      "de fic",
      "di i",
      "ic ular",
      "ra d",
      "ra pid",
      "at t",
      "be li",
      "br id",
      "fund iscop",
      "per cep",
      "cl ock",
      "neo vascul",
      "ed ge",
      "ap point",
      "con tour",
      "co bwe",
      "mul ation",
      "age ment",
      "30 cm",
      "fer i",
      "man agement",
      "ct ance",
      "lin es",
      "we en",
      "un controlled",
      "bo ttom",
      "ser ologic",
      "vi vid",
      "dis h",
      "dis rup",
      "fluoresce s",
      "tel l",
      "scar ing",
      "red dish",
      "ple x",
      "fa g",
      "fa z",
      "ri eger",
      "telangiect actic",
      "telangiectas ias",
      "fol lic",
      "end opthalm",
      "cy st",
      "pro be",
      "pro duct",
      "ir regular",
      "trac e",
      "13 6",
      "bac tri",
      "met ry",
      "men isc",
      "arteri es",
      "ide red",
      "du plex",
      "et c",
      "ca vity",
      "tomo ga",
      "other wise",
      "superi mpo",
      "rl f",
      "clin damy",
      "av m",
      "obser ve",
      "sl ides",
      "corre late",
      "sp ace",
      "sp irosis",
      "fore ign",
      "cons idered",
      "progressive ly",
      "gradual ly",
      "hor st",
      "bor rel",
      "ien cy",
      "regi on",
      "disor der",
      "thir d",
      "eval uated",
      "), ,-",
      "depos it",
      "neph rectomy",
      "hypo thyroid",
      "diffic ult",
      "bulb s",
      "arrow s",
      "indi an",
      "pin k",
      "dimin ution",
      "nuc leated",
      "narrow ing",
      "hear d",
      "hear ing",
      "spoke whe",
      "gon dii",
      "gest ation",
      "deta hch",
      "berg dor",
      "perfor med",
      "drug s",
      "vitr icular",
      "develop ment",
      "rheuma tology",
      "sarcoid osis",
      "struct u",
      "awa y",
      "bet ween",
      "asym metry",
      "consider ably",
      "stron tium",
      "undergo ing",
      "fati gue",
      "fig ure",
      "hone ycom",
      "hollen horst",
      "num ber",
      "wan ted",
      "weld ing",
      "wides pread",
      "alter ations",
      "repa ired",
      "secre tion",
      "anci ent",
      "interes ting",
      "accu mulation",
      "accoun ts",
      "lepto spirosis",
      "debr is",
      "defic iency",
      "beli eved",
      "fundiscop ic",
      "percep tion",
      "neovascul ization",
      "appoint ment",
      "cobwe bs",
      "vivid ly",
      "follic les",
      "endopthalm itis",
      "bactri m",
      "menisc us",
      "tomoga phs",
      "superimpo sed",
      "clindamy cin",
      "borrel ia",
      "hypothyroid ism",
      "spokewhe el",
      "detahch ment",
      "bergdor feri",
      "honeycom b",
      "- ;",
      "c k",
      "c p",
      "d d",
      "d al",
      "e ctomy",
      "f usion",
      "g nosis",
      "g ical",
      "i tor",
      "j ul",
      "k led",
      "l ation",
      "m is",
      "n ic",
      "n ight",
      "n amic",
      "p d",
      "p or",
      "p ending",
      "r f",
      "r ather",
      "s ick",
      "re pair",
      "se cto",
      "ro set",
      "in ten",
      "in verted",
      "ac es",
      "ho ur",
      "fe red",
      "de gre",
      "di lation",
      "su tured",
      "ra pd",
      "ch s",
      "ch ing",
      "dy namic",
      "gra ph",
      "it ching",
      "per form",
      "photo dynamic",
      "po ut",
      "ou ts",
      "do or",
      "10 2",
      "peri vascular",
      "myop e",
      "pseu doc",
      "mon itor",
      "wo men",
      "ven tion",
      "hemangio mas",
      "fu chs",
      "pro found",
      "pro gnosis",
      "par s",
      "comp lic",
      "pl an",
      "sur gical",
      "peripheral ly",
      "cr ack",
      "inje cted",
      "cau sed",
      "iv ing",
      "mar ch",
      "sug gest",
      "dro pout",
      "ele ment",
      "secon ds",
      "sp aces",
      "path ologic",
      "ang le",
      "tw ice",
      "montage d",
      "light ly",
      "clump s",
      "rece iving",
      "histopath ologic",
      "water ing",
      "spec kled",
      "lit tle",
      "notic es",
      "extra foveal",
      "pregn ant",
      "suf fered",
      "heidel berg",
      "colle ction",
      "fundoscop y",
      "resul ting",
      "ultras on",
      "retinoc horoidal",
      "dal en",
      "nic ely",
      "sick le",
      "secto ral",
      "roset tes",
      "inten se",
      "hour s",
      "degre es",
      "outs ide",
      "\" .",
      "' ;",
      "0 0",
      "a fib",
      "b p",
      "b il",
      "b ism",
      "b ene",
      "c ia",
      "c ence",
      "c dot",
      "d l",
      "e ro",
      "e ded",
      "f as",
      "f cn",
      "g ly",
      "k y",
      "l f",
      "m ing",
      "m bal",
      "m cp",
      "n u",
      "n pdr",
      "n cia",
      "o z",
      "o active",
      "o dialysis",
      "p t",
      "p of",
      "p rophy",
      "p ing",
      "p oli",
      "p ock",
      "r itis",
      "r ch",
      "s ule",
      "t achment",
      "u b",
      "u w",
      "u ch",
      "w ing",
      "x er",
      "µ m",
      "ê ncia",
      "al e",
      "al tered",
      "al ky",
      "ar ti",
      "ar th",
      "re as",
      "re fle",
      "te por",
      "en cir",
      "in formation",
      "tin ued",
      "old er",
      "retin ography",
      "ul sion",
      "is h",
      "us op",
      "us cin",
      "as te",
      "as it",
      "le y",
      "le ast",
      "ular ity",
      "me an",
      "me rous",
      "st ra",
      "fe ed",
      "fe eding",
      "de pic",
      "mac ro",
      "ma p",
      "ma teri",
      "ma bil",
      "su n",
      "ra ma",
      "be low",
      "sc he",
      "phy si",
      "he sion",
      "he li",
      "vas o",
      "vas ation",
      "vas opr",
      "ch alky",
      "br uch",
      "it ting",
      "il s",
      "per mabil",
      "cl ing",
      "cl osis",
      "cl ou",
      "sub total",
      "sub conj",
      "sub reti",
      "pre for",
      "ad ded",
      "ad hesion",
      "ex otropia",
      "neovascularization s",
      "do se",
      "do main",
      "ce mic",
      "ce eded",
      "con ju",
      "con vention",
      "con tinued",
      "ore d",
      "lo idal",
      "age d",
      "oresc ent",
      "am oun",
      "am ish",
      "col ored",
      "col loidal",
      "ct ro",
      "res s",
      "peri p",
      "50 cm",
      "un fortunately",
      "bo xer",
      "olifer ative",
      "ane s",
      "ane cdot",
      "papil la",
      "hyper permabil",
      "ver sus",
      "ver tepor",
      "disc us",
      "tra it",
      "vitre oretinal",
      "tr ue",
      "tr usop",
      "anti vegf",
      "month ly",
      "ticular ly",
      "li mbal",
      "li pof",
      "cy cle",
      "cy clitis",
      "hip ofluoresc",
      "pro ceeded",
      "par asit",
      "par ticularly",
      "present s",
      "cry other",
      "radi oactive",
      "cur rent",
      "dec ided",
      "ior ly",
      "ur dex",
      "gro ss",
      "complain s",
      "leak y",
      "out door",
      "supr iorly",
      "sebace um",
      "ocar cinoma",
      "ocy clitis",
      "rp d",
      "tuber closis",
      "hm 10",
      "reat tachment",
      "micro fil",
      "ag ree",
      "poly p",
      "sco tomas",
      "ele ctro",
      "treatment s",
      "mt m",
      "ultra wide",
      "set ting",
      "pred ye",
      "fibro s",
      "view ed",
      "cere br",
      "test s",
      "poor ly",
      "gran ularity",
      "complete ly",
      "inc reas",
      "top ography",
      "oncolog ist",
      "grand son",
      "grand daughter",
      "orb ital",
      "tran spl",
      "che ck",
      "demar cating",
      "spon ge",
      "cti val",
      "cre am",
      "flo or",
      "neph ew",
      "wool s",
      "embryon ic",
      "inter vals",
      "subsequent ly",
      "mott ley",
      "block ing",
      "tri b",
      "count ry",
      "investig ation",
      "cour sing",
      "rube otic",
      "fac t",
      "fac ial",
      "extra vasation",
      "ef fect",
      "ret ro",
      "lac tic",
      "endocardi tis",
      "haem angioma",
      "perfor ation",
      "vitr itis",
      "minimal ly",
      "develop ing",
      "rheuma toid",
      "fundoscop ic",
      "cap sule",
      "dra g",
      "dra wing",
      "fil led",
      "spl itting",
      "stop ped",
      "stop ping",
      "aden oma",
      "aden ocarcinoma",
      "tain ed",
      "irid odialysis",
      "irid ocyclitis",
      "promin ent",
      "promin ence",
      "frac ture",
      "cali ber",
      "haemorrhage s",
      "brid ge",
      "disrup tion",
      "structu res",
      "appointment s",
      "mis sed",
      "suggest s",
      "fcn f",
      "gly cemic",
      "nu merous",
      "oz urdex",
      "prophy lactic",
      "poli osis",
      "pock et",
      "arth ritis",
      "refle ctance",
      "encir cling",
      "stra bism",
      "feed er",
      "depic ts",
      "materi al",
      "physi ologic",
      "heli um",
      "vasopr oliferative",
      "clou d",
      "subreti inal",
      "prefor med",
      "adhesion s",
      "conju ctival",
      "convention al",
      "anecdot al",
      "hyperpermabil ity",
      "vertepor fin",
      "trusop t",
      "lipof uscin",
      "cycle s",
      "parasit ology",
      "cryother my",
      "microfil ial",
      "increas ing",
      "+ +",
      "+ ;",
      "/ .",
      "3 50",
      "9 2",
      "a k",
      "a in",
      "a id",
      "a me",
      "b ub",
      "c ra",
      "c rea",
      "c ific",
      "c lear",
      "d x",
      "d ner",
      "e in",
      "g ang",
      "i et",
      "j un",
      "l orescent",
      "m s",
      "n ia",
      "n ir",
      "p age",
      "p isc",
      "p ale",
      "r ul",
      "r rd",
      "r ism",
      "s ac",
      "s hy",
      "s sion",
      "t ress",
      "v ent",
      "w er",
      "w ks",
      "w ron",
      "y o",
      "y ou",
      "y therapy",
      "ó pic",
      "ti a",
      "al ed",
      "ar ri",
      "re f",
      "re tic",
      "re co",
      "re frac",
      "th as",
      "se red",
      "en se",
      "en large",
      "en closed",
      "in at",
      "retin ectomy",
      "ul ant",
      "ac ti",
      "is ation",
      "op en",
      "as phy",
      "ith in",
      "to on",
      "of lorescent",
      "st ab",
      "or amic",
      "ph one",
      "de his",
      "de ferred",
      "ter ic",
      "ter part",
      "os us",
      "os up",
      "la sered",
      "cho rf",
      "su ch",
      "ra tory",
      "ne ar",
      "pe di",
      "sc ured",
      "he aled",
      "br ach",
      "ing itis",
      "fund uc",
      "il lo",
      "il ure",
      "ft mh",
      "per son",
      "per inat",
      "ase d",
      "neovascular isation",
      "sen t",
      "pho teric",
      "pre papillary",
      "pre ssion",
      "pre vent",
      "las ato",
      "patient r",
      "mp apil",
      "do m",
      "con t",
      "for nia",
      "30 degrees",
      "am photeric",
      "fluoresc ense",
      "col lar",
      "res pi",
      "pat ches",
      "peri od",
      "angiogra phic",
      "da ted",
      "un affected",
      "star ing",
      "star ry",
      "dis tress",
      "fa ilure",
      "ri ed",
      "pseudo hypopyon",
      "gar dner",
      "sm art",
      "ob tained",
      "ob scured",
      "ophthalm ology",
      "pan oramic",
      "qu iet",
      "aneu rism",
      "mo vement",
      "cy clovir",
      "ile d",
      "fle shy",
      "46 yo",
      "flec ked",
      "cry pto",
      "auto fluorescent",
      "wn l",
      "intra vascular",
      "but ton",
      "men ingitis",
      "12 mmhg",
      "arteri osus",
      "cor tical",
      "cul es",
      "iv fa",
      "albin o",
      "59 0",
      "tomo graph",
      "superi temporally",
      "sil ent",
      "car toon",
      "hm 1",
      "hm 2",
      "segment s",
      "micro aneurism",
      "ag ain",
      "., (",
      "appe ared",
      "appear s",
      "sp illo",
      "cons ult",
      "rhe ma",
      "rhe um",
      "hyp oper",
      "hyp oflorescent",
      "malign ancy",
      "coun terpart",
      "decal cific",
      "circu mpapil",
      "coc cal",
      "remain s",
      "che mosis",
      "hyal osis",
      "photorecep tor",
      "cac a",
      "fun ction",
      "evid ent",
      "hypo af",
      "clo se",
      "diame ter",
      "conges tive",
      "general ised",
      "immun osup",
      "rele ased",
      "confir mation",
      "sing le",
      "wh ithin",
      "come s",
      "spar ed",
      "sha pe",
      "hear t",
      "burn s",
      "prema ture",
      "arcade s",
      "deta iled",
      "corne al",
      "duct us",
      "struct ure",
      "resul ted",
      "thin ning",
      "dex ame",
      "cali fornia",
      "anticoag ulant",
      "begin ning",
      "att ached",
      "pseudoc olor",
      "monitor ing",
      "complic ation",
      "plan itis",
      "ultrason ography",
      "bene ath",
      "ero ding",
      "arti fact",
      "aste roid",
      "++ ,",
      "aid s",
      "bub ble",
      "cra k",
      "crea ting",
      "gang cyclovir",
      "jun ction",
      "pisc iform",
      "sac cules",
      "wron g",
      "ópic as",
      "arri val",
      "thas one",
      "enlarge ment",
      "asphy sia",
      "stab il",
      "dehis cence",
      "chorf ld",
      "brach ytherapy",
      "funduc ópicas",
      "person al",
      "perinat al",
      "amphoteric in",
      "respi ratory",
      "smart phone",
      "crypto coccal",
      "microaneurism s",
      "spillo ver",
      "hypoper fusion",
      "decalcific ation",
      "circumpapil lary",
      "immunosup pression",
      "dexame thasone",
      "( -",
      "/ ..",
      "1 wk",
      "2 a",
      "2 l",
      "2 m",
      "2 ph",
      "2 25",
      "3 30",
      "4 60",
      "6 60",
      "7 60",
      "9 1",
      "9 6",
      "= -",
      "a de",
      "a qu",
      "a bl",
      "a ocaine",
      "a verted",
      "b aqu",
      "c c",
      "c are",
      "c hip",
      "c amer",
      "d 3",
      "d ol",
      "d on",
      "d oph",
      "d na",
      "e se",
      "e ma",
      "e per",
      "e cl",
      "e mo",
      "f c",
      "f r",
      "f fe",
      "f ine",
      "f ilm",
      "g th",
      "g is",
      "g rt",
      "h ued",
      "i ed",
      "i pse",
      "i ver",
      "j 2",
      "j 7",
      "k n",
      "l s",
      "m m",
      "m be",
      "m ut",
      "m hx",
      "n sc",
      "n ad",
      "n ual",
      "o k",
      "o w",
      "o be",
      "o hs",
      "p ne",
      "p tom",
      "q ual",
      "r ic",
      "r um",
      "r na",
      "s al",
      "s ph",
      "s had",
      "s ided",
      "t ti",
      "u veal",
      "u mon",
      "v all",
      "v vitreoretinopathy",
      "v ulsion",
      "w der",
      "y al",
      "y st",
      "ti fied",
      "al le",
      "ar ran",
      "re 20",
      "re nd",
      "re vi",
      "re view",
      "re taken",
      "re crack",
      "re presents",
      "se g",
      "ol ing",
      "ye a",
      "an alysis",
      "an nual",
      "ro r",
      "ro ph",
      "en tial",
      "on ce",
      "on ade",
      "in vas",
      "in teri",
      "in ating",
      "in complete",
      "in dol",
      "retin op",
      "ul sed",
      "ac t",
      "ac ks",
      "ac tu",
      "20 13",
      "20 17",
      "op ter",
      "er ma",
      "er gen",
      "er ror",
      "ho st",
      "ho sp",
      "ve ils",
      "to graph",
      "with e",
      "hi per",
      "st anti",
      "or ig",
      "or ts",
      "or der",
      "fe ver",
      "ph 8",
      "ph ema",
      "ph tograph",
      "de hem",
      "de line",
      "de scribed",
      "de ling",
      "de stru",
      "oc lonal",
      "opath ologic",
      "ma gi",
      "ma gn",
      "os ion",
      "os ler",
      "la tes",
      "la tors",
      "di later",
      "di opter",
      "di lators",
      "the tic",
      "cho r",
      "ra dia",
      "pe s",
      "at trib",
      "at ric",
      "at roph",
      "be am",
      "be cul",
      "sc a",
      "sc l",
      "he ight",
      "he sit",
      "he magi",
      "und ant",
      "ge t",
      "ral ater",
      "gra m",
      "gra pes",
      "il lu",
      "il lary",
      "il tra",
      "per vious",
      "angio mas",
      "sy ptom",
      "sub conjuncti",
      "sub sided",
      "sub yal",
      "sub stanti",
      "his opathologic",
      "pigment s",
      "pre ser",
      "bran ches",
      "dr iver",
      "ia e",
      "dia gram",
      "lu cen",
      "po dr",
      "po wder",
      "po oling",
      "usion s",
      "disease s",
      "ap r",
      "mp onade",
      "ex y",
      "ex pl",
      "ex amp",
      "flu ore",
      "con vulsion",
      "lo g",
      "lo be",
      "lo bin",
      "lo ts",
      "hem orrh",
      "vein s",
      "25 32",
      "30 s",
      "fluoresc ência",
      "macul o",
      "col 2a",
      "ct atic",
      "res pec",
      "peri ocular",
      "peri fovea",
      "hy phema",
      "fi recrack",
      "we ber",
      "we ars",
      "un gal",
      "un responsive",
      "ten ing",
      "ten ce",
      "bo at",
      "bo mbe",
      "membran ous",
      "dis location",
      "dis trib",
      "tel ange",
      "70 0",
      "pseu doph",
      "ri p",
      "pseudo tumor",
      "angiogram ir",
      "sis ters",
      "tu res",
      "mon oclonal",
      "wo ke",
      "ta mponade",
      "va gue",
      "vit ation",
      "tra ting",
      "tra becul",
      "tr d",
      "tr ack",
      "tr usions",
      "ds ph",
      "visual ized",
      "pan cre",
      "qu er",
      "min ation",
      "pic tures",
      "ital ized",
      "peripher ical",
      "ab undant",
      "hip ple",
      "tive ly",
      "bin ised",
      "pro ton",
      "pro trusions",
      "par alle",
      "ir mas",
      "ir radia",
      "sta ph",
      "pl ana",
      "post dye",
      "og lobin",
      "ha emo",
      "cur tain",
      "19 72",
      "13 4",
      "13 8",
      "13 9",
      "fin ished",
      "auto fluoresce",
      "ance sche",
      "ial ist",
      "cr acks",
      "leak ing",
      "inf ra",
      "inf ancy",
      "inf iltra",
      "inferior temporal",
      "mid s",
      "35 6",
      "iv du",
      "sin us",
      "oste om",
      "16 mmhg",
      "ca using",
      "ca vitation",
      "14 1",
      "14 3",
      "avastin s",
      "initi ated",
      "198 6",
      "im media",
      "em ergen",
      "scle rod",
      "18 90",
      "18 96",
      "cer tain",
      "new ly",
      "scan s",
      "pol o",
      "av ulsion",
      "av ulsed",
      "len gth",
      "cf 1",
      "cf 2",
      "cf 4",
      "cf 16",
      "high ly",
      "high light",
      "., -",
      "den ied",
      "status identical",
      "corre ct",
      "sp ill",
      "sit ting",
      "58 4",
      "73 year",
      "week ly",
      "str iae",
      "fibro ma",
      "sudden ly",
      "gre y",
      "drop ped",
      "formation s",
      "reflec tence",
      "val ve",
      "sequ ential",
      "flat tening",
      "granuloma tosis",
      "enuc leated",
      "hype reflective",
      "para macular",
      "grand father",
      "che ese",
      "bloc ks",
      "23 g",
      "roth s",
      "lign aocaine",
      "cot tage",
      "pi h",
      "hypo reflective",
      "hypo melanotic",
      "spec ies",
      "spec ialist",
      "bur ried",
      "iden tified",
      "app illary",
      "spect rum",
      "indi cation",
      "incidental ly",
      "glo binised",
      "rele ctance",
      "bun ches",
      "pp v",
      "pene trating",
      "sf 6",
      "confir ming",
      "confir ms",
      "scat ter",
      "amp ple",
      "occur red",
      "ef fusion",
      "sk ull",
      "lac quer",
      "ilm x",
      "expos ing",
      "remo deling",
      "ax is",
      "mod ular",
      "lipodermoid s",
      "organ ism",
      "deta ils",
      "taper ing",
      "mit ral",
      "wa it",
      "nod ular",
      "tax i",
      "thromb osis",
      "section ed",
      "aspe cts",
      "beg ins",
      "persis ts",
      "awa ited",
      "cap ture",
      "cap tured",
      "sec under",
      "bet ter",
      "lymphoma toid",
      "reti oschisis",
      "ultras ound",
      "att ach",
      "brid ging",
      "disrup ted",
      "cyst s",
      "structu ral",
      "jul y",
      "pseudoc yst",
      "complic ated",
      "plan ned",
      "ultrason ographic",
      "sche ffe",
      "vaso dilators",
      "amoun t",
      "amoun ts",
      "perip ap",
      "perip appillary",
      "anes thesia",
      "anes thetic",
      "papilla edema",
      "discus s",
      "discus sed",
      "hipofluoresc ence",
      "hipofluoresc ência",
      "current ly",
      "gross ly",
      "cerebr i",
      "cerebr al",
      "strabism us",
      "ak ic",
      "clear ly",
      "page t",
      "rul ed",
      "retic ul",
      "reco very",
      "refrac tory",
      "acti vity",
      "pedi atric",
      "cont ralater",
      "590 nm",
      "function al",
      "stabil ize",
      "/.. .",
      "330 µm",
      "abl ation",
      "baqu is",
      "cc 20",
      "camer a",
      "ecl ipse",
      "fr ancesche",
      "gis tory",
      "kn ife",
      "mut ation",
      "obe se",
      "pne umon",
      "qual ity",
      "sal t",
      "shad ow",
      "rend u",
      "revi sed",
      "invas ion",
      "interi m",
      "indol ent",
      "retinop exy",
      "actu ally",
      "hosp italized",
      "hiper fluorescência",
      "orig inating",
      "phtograph ed",
      "dehem oglobin",
      "deline ated",
      "destru ction",
      "magn ified",
      "dilater s",
      "attrib uted",
      "atroph ey",
      "hesit ant",
      "hemagi oma",
      "illu mination",
      "pervious ly",
      "syptom s",
      "subconjuncti vall",
      "subyal oid",
      "substanti al",
      "preser ved",
      "lucen tis",
      "powder y",
      "expl osion",
      "examp le",
      "2532 µm",
      "col2a 1",
      "respec tively",
      "firecrack er",
      "distrib ution",
      "telange ctatic",
      "pseudoph akic",
      "angiogramir ly",
      "trabecul ectomy",
      "pancre atitis",
      "paralle l",
      "irradia ted",
      "haemo globinised",
      "immedia tely",
      "emergen cy",
      "sclerod erma",
      "certain ly",
      "sequential ly",
      "scheffe ls",
      "contralater al",
      "francesche tti",
      "pneumon ia",
      "dehemoglobin ized",
      ", .",
      ". \"",
      ". )",
      "/ /",
      "0 old",
      "1 ph",
      "1 200",
      "1 32",
      "1 400",
      "2 nd",
      "2 mo",
      "3 70",
      "3 64",
      "6 mm",
      "9 4",
      "a ging",
      "b la",
      "b it",
      "b lin",
      "b low",
      "c s",
      "c am",
      "c ticular",
      "c tive",
      "c tor",
      "c ated",
      "c rad",
      "d ness",
      "d der",
      "d oscop",
      "e g",
      "e cho",
      "e ad",
      "f te",
      "f it",
      "g ht",
      "g ap",
      "g un",
      "g ination",
      "h ol",
      "h an",
      "h ing",
      "i ogra",
      "l is",
      "l left",
      "l acu",
      "m c",
      "m ile",
      "n ar",
      "o y",
      "o vo",
      "o mor",
      "o ite",
      "o hypopyon",
      "p th",
      "p en",
      "p op",
      "p pe",
      "p per",
      "p ly",
      "p ir",
      "p lain",
      "p ull",
      "q pdr",
      "r b",
      "r v",
      "r id",
      "r mc",
      "s ter",
      "s ne",
      "s har",
      "s ting",
      "s nail",
      "t ap",
      "t tes",
      "t graphy",
      "u ral",
      "u res",
      "u ri",
      "u ary",
      "v n",
      "v ia",
      "v rp",
      "w p",
      "w ar",
      "w with",
      "w il",
      "w all",
      "w edge",
      "x 3",
      "x i",
      "y ol",
      "y ob",
      "z oph",
      "z oite",
      "ti focal",
      "ti ming",
      "al co",
      "al tern",
      "ar n",
      "ar ch",
      "re su",
      "re sc",
      "re por",
      "re tained",
      "re acti",
      "re arran",
      "re cticular",
      "th ou",
      "se s",
      "te ned",
      "te ens",
      "ol w",
      "ol id",
      "ol fer",
      "ye r",
      "an iogra",
      "ro i",
      "ro ce",
      "en face",
      "en han",
      "in cl",
      "in va",
      "in den",
      "tin ct",
      "retin its",
      "year 0old",
      "ul tifocal",
      "is n",
      "is ion",
      "is ing",
      "20 2",
      "20 s",
      "20 t",
      "20 11",
      "us ters",
      "male s",
      "as pir",
      "er al",
      "ho rio",
      "le 20",
      "ular ion",
      "ve ft",
      "to ge",
      "to my",
      "hi on",
      "hi zoph",
      "st one",
      "st ress",
      "or a",
      "fe ma",
      "fe ctive",
      "ph ologic",
      "ig ge",
      "de achment",
      "de eper",
      "de pth",
      "de fective"
    ]
  }
}