{
  "version": "1.0",
  "truncation": null,
  "padding": null,
  "added_tokens": [
    {
      "id": 0,
      "content": "<PAD>",
      "single_word": false,
      "lstrip": false,
      "rstrip": false,
      "normalized": false,
      "special": true
    },
    {
      "id": 1,
      "content": "<UNK>",
      "single_word": false,
      "lstrip": false,
      "rstrip": false,
      "normalized": false,
      "special": true
    },
    {
      "id": 2,
      "content": "<BOS>",
      "single_word": false,
      "lstrip": false,
      "rstrip": false,
      "normalized": false,
      "special": true
    },
    {
      "id": 3,
      "content": "<EOS>",
      "single_word": false,
      "lstrip": false,
      "rstrip": false,
      "normalized": false,
      "special": true
    },
    {
      "id": 4,
      "content": "<SEP>",
      "single_word": false,
      "lstrip": false,
      "rstrip": false,
      "normalized": false,
      "special": true
    }
  ],
  "normalizer": {
    "type": "Lowercase"
  },
  "pre_tokenizer": {
    "type": "Whitespace"
  },
  "post_processor": {
    "type": "TemplateProcessing",
    "single": [
      {
        "SpecialToken": {
          "id": "<BOS>",
          "type_id": 0
        }
      },
      {
        "Sequence": {
          "id": "A",
          "type_id": 0
        }
      },
      {
        "SpecialToken": {
          "id": "<EOS>",
          "type_id": 0
        }
      }
    ],
    "pair": [
      {
        "SpecialToken": {
          "id": "<BOS>",
          "type_id": 0
        }
      },
      {
        "Sequence": {
          "id": "A",
          "type_id": 0
        }
      },
      {
        "SpecialToken": {
          "id": "<EOS>",
          "type_id": 0
        }
      },
      {
        "SpecialToken": {
          "id": "<BOS>",
          "type_id": 0
        }
      },
      {
        "Sequence": {
          "id": "B",
          "type_id": 0
        }
      },
      {
        "SpecialToken": {
          "id": "<EOS>",
          "type_id": 0
        }
      }
    ],
    "special_tokens": {
      "<BOS>": {
        "id": "<BOS>",
        "ids": [
          2
        ],
        "tokens": [
          "<BOS>"
        ]
      },
      "<EOS>": {
        "id": "<EOS>",
        "ids": [
          3
        ],
        "tokens": [
          "<EOS>"
        ]
      }
    }
  },
  "decoder": null,
  "model": {
    "type": "BPE",
    "dropout": null,
    "unk_token": "<UNK>",
    "continuing_subword_prefix": null,
    "end_of_word_suffix": null,
    "fuse_unk": false,
    "byte_fallback": false,
    "ignore_merges": false,
    "vocab": {
      "<PAD>": 0,
      "<UNK>": 1,
      "<BOS>": 2,
      "<EOS>": 3,
      "<SEP>": 4,
      "\"": 5,
      "#": 6,
      "&": 7,
      "'": 8,
      "(": 9,
      ")": 10,
      "*": 11,
      "+": 12,
      ",": 13,
      "-": 14,
      ".": 15,
      "/": 16,
      "0": 17,
      "1": 18,
      "2": 19,
      "3": 20,
      "4": 21,
      "5": 22,
      "6": 23,
      "7": 24,
      "8": 25,
      "9": 26,
      ":": 27,
      ";": 28,
      "<": 29,
      "=": 30,
      ">": 31,
      "@": 32,
      "a": 33,
      "b": 34,
      "c": 35,
      "d": 36,
      "e": 37,
      "f": 38,
      "g": 39,
      "h": 40,
      "i": 41,
      "j": 42,
      "k": 43,
      "l": 44,
      "m": 45,
      "n": 46,
      "o": 47,
      "p": 48,
      "q": 49,
      "r": 50,
      "s": 51,
      "t": 52,
      "u": 53,
      "v": 54,
      "w": 55,
      "x": 56,
      "y": 57,
      "z": 58,
      "®": 59,
      "µ": 60,
      "ê": 61,
      "ó": 62,
      "–": 63,
      "’": 64,
      "ti": 65,
      "al": 66,
      "ar": 67,
      "re": 68,
      "th": 69,
      "se": 70,
      "te": 71,
      "ol": 72,
      "ye": 73,
      "an": 74,
      "ro": 75,
      "en": 76,
      "on": 77,
      "in": 78,
      "tin": 79,
      "old": 80,
      "retin": 81,
      "year": 82,
      "ul": 83,
      "ac": 84,
      "is": 85,
      "20": 86,
      "mal": 87,
      "ent": 88,
      "us": 89,
      "op": 90,
      "male": 91,
      "as": 92,
      "er": 93,
      "ho": 94,
      "ith": 95,
      "le": 96,
      "ular": 97,
      "ati": 98,
      "id": 99,
      "ve": 100,
      "to": 101,
      "with": 102,
      "of": 103,
      "sep": 104,
      "hi": 105,
      "me": 106,
      "st": 107,
      "retinal": 108,
      "or": 109,
      "fe": 110,
      "ph": 111,
      "ig": 112,
      "whi": 113,
      "de": 114,
      "ath": 115,
      "oc": 116,
      "white": 117,
      "opath": 118,
      "mac": 119,
      "and": 120,
      "ter": 121,
      "nd": 122,
      "ma": 123,
      "female": 124,
      "os": 125,
      "eye": 126,
      "opathy": 127,
      "ation": 128,
      "la": 129,
      "di": 130,
      "ment": 131,
      "iti": 132,
      "ic": 133,
      "the": 134,
      "roid": 135,
      "nv": 136,
      "cho": 137,
      "su": 138,
      "ra": 139,
      "choroid": 140,
      "ne": 141,
      "pe": 142,
      "itis": 143,
      "gi": 144,
      "at": 145,
      "be": 146,
      "tic": 147,
      "macular": 148,
      "sc": 149,
      "ion": 150,
      "retinopathy": 151,
      "phy": 152,
      "sr": 153,
      "he": 154,
      "vas": 155,
      "und": 156,
      "ch": 157,
      "vasc": 158,
      "ge": 159,
      "rophy": 160,
      "angi": 161,
      "dy": 162,
      "br": 163,
      "ing": 164,
      "cent": 165,
      "ral": 166,
      "pig": 167,
      "gra": 168,
      "vascular": 169,
      "fund": 170,
      "central": 171,
      "fundus": 172,
      "it": 173,
      "ht": 174,
      "il": 175,
      "ted": 176,
      "ft": 177,
      "ight": 178,
      "srnv": 179,
      "per": 180,
      "choroidal": 181,
      "ase": 182,
      "cl": 183,
      "neo": 184,
      "angio": 185,
      "sy": 186,
      "neovascular": 187,
      "dyst": 188,
      "dystrophy": 189,
      "sub": 190,
      "his": 191,
      "sen": 192,
      "left": 193,
      "pigment": 194,
      "pho": 195,
      "pre": 196,
      "right": 197,
      "ad": 198,
      "el": 199,
      "bran": 200,
      "ach": 201,
      "las": 202,
      "dr": 203,
      "ia": 204,
      "md": 205,
      "dia": 206,
      "det": 207,
      "photo": 208,
      "achment": 209,
      "detachment": 210,
      "rome": 211,
      "ndrome": 212,
      "syndrome": 213,
      "lu": 214,
      "po": 215,
      "rous": 216,
      "pati": 217,
      "patient": 218,
      "serous": 219,
      "iz": 220,
      "gen": 221,
      "osis": 222,
      "usion": 223,
      "sease": 224,
      "disease": 225,
      "ed": 226,
      "occl": 227,
      "diabe": 228,
      "vo": 229,
      "ped": 230,
      "ap": 231,
      "ou": 232,
      "cnv": 233,
      "mp": 234,
      "occlusion": 235,
      "ex": 236,
      "200": 237,
      "neovasculariz": 238,
      "subretinal": 239,
      "neovascularization": 240,
      "retinitis": 241,
      "ous": 242,
      "do": 243,
      "diabetic": 244,
      "sho": 245,
      "vis": 246,
      "si": 247,
      "mosis": 248,
      "ep": 249,
      "oplas": 250,
      "oplasmosis": 251,
      "flu": 252,
      "ce": 253,
      "con": 254,
      "ole": 255,
      "cnvm": 256,
      "co": 257,
      "ore": 258,
      "ry": 259,
      "mul": 260,
      "later": 261,
      "no": 262,
      "multi": 263,
      "lo": 264,
      "hem": 265,
      "ks": 266,
      "for": 267,
      "vein": 268,
      "dru": 269,
      "age": 270,
      "25": 271,
      "drusen": 272,
      "show": 273,
      "pr": 274,
      "ly": 275,
      "ithel": 276,
      "epithel": 277,
      "epitheli": 278,
      "30": 279,
      "fer": 280,
      "tern": 281,
      "oresc": 282,
      "lateral": 283,
      "gener": 284,
      "branch": 285,
      "bi": 286,
      "am": 287,
      "degener": 288,
      "degeneration": 289,
      "oli": 290,
      "fluoresc": 291,
      "ocular": 292,
      "photogra": 293,
      "acu": 294,
      "man": 295,
      "macul": 296,
      "col": 297,
      "hole": 298,
      "40": 299,
      "photograph": 300,
      "was": 301,
      "ative": 302,
      "ct": 303,
      "10": 304,
      "res": 305,
      "hist": 306,
      "lar": 307,
      "od": 308,
      "lin": 309,
      "pat": 310,
      "hs": 311,
      "apil": 312,
      "pohs": 313,
      "oma": 314,
      "optic": 315,
      "peri": 316,
      "fo": 317,
      "pattern": 318,
      "my": 319,
      "best": 320,
      "50": 321,
      "histoplasmosis": 322,
      "un": 323,
      "hy": 324,
      "angiogra": 325,
      "veal": 326,
      "rea": 327,
      "da": 328,
      "fi": 329,
      "csr": 330,
      "tion": 331,
      "vision": 332,
      "we": 333,
      "presu": 334,
      "mem": 335,
      "med": 336,
      "tox": 337,
      "ten": 338,
      "dt": 339,
      "presumed": 340,
      "acute": 341,
      "bo": 342,
      "sion": 343,
      "membran": 344,
      "membrane": 345,
      "low": 346,
      "ser": 347,
      "toma": 348,
      "star": 349,
      "vi": 350,
      "olifer": 351,
      "prolifer": 352,
      "bilateral": 353,
      "dis": 354,
      "har": 355,
      "sive": 356,
      ").": 357,
      "ane": 358,
      "myop": 359,
      "ada": 360,
      "shows": 361,
      "harada": 362,
      "proliferative": 363,
      "ima": 364,
      "teri": 365,
      "fluoresce": 366,
      "cu": 367,
      "color": 368,
      "presen": 369,
      "rh": 370,
      "mel": 371,
      "fluorescein": 372,
      "pos": 373,
      "tel": 374,
      "ocal": 375,
      "angioid": 376,
      "papil": 377,
      "dema": 378,
      "scar": 379,
      "red": 380,
      "lesion": 381,
      "ner": 382,
      "70": 383,
      "focal": 384,
      "ple": 385,
      "fa": 386,
      "fla": 387,
      "epithelial": 388,
      "pse": 389,
      "pseu": 390,
      "ri": 391,
      "pseudo": 392,
      "angiogram": 393,
      "hyper": 394,
      "mia": 395,
      "orrh": 396,
      "orrhage": 397,
      "ver": 398,
      "foveal": 399,
      "sis": 400,
      "ack": 401,
      "rpe": 402,
      "multiple": 403,
      "hemorrhage": 404,
      "isis": 405,
      "osch": 406,
      "oschisis": 407,
      "image": 408,
      "aof": 409,
      "aofped": 410,
      "tu": 411,
      "mon": 412,
      "ble": 413,
      "ant": 414,
      "gar": 415,
      "stargar": 416,
      "stargardt": 417,
      "wo": 418,
      "oct": 419,
      "ual": 420,
      "melan": 421,
      "choroiditis": 422,
      "af": 423,
      "multifocal": 424,
      "ect": 425,
      "angiect": 426,
      "telangiect": 427,
      "ta": 428,
      "va": 429,
      "ity": 430,
      "lary": 431,
      "bvo": 432,
      "edema": 433,
      "disc": 434,
      "telangiectas": 435,
      "are": 436,
      "retinoschisis": 437,
      "exu": 438,
      "atrophy": 439,
      "ty": 440,
      "vit": 441,
      "osa": 442,
      "brvo": 443,
      "pigmentosa": 444,
      "reaks": 445,
      "ven": 446,
      "tra": 447,
      "had": 448,
      "alm": 449,
      "vitre": 450,
      "ting": 451,
      "es": 452,
      "ther": 453,
      "rom": 454,
      "streaks": 455,
      "uro": 456,
      "tensive": 457,
      "nerve": 458,
      "ju": 459,
      "ren": 460,
      "one": 461,
      "thalm": 462,
      "tr": 463,
      "ds": 464,
      "anti": 465,
      "ere": 466,
      "sm": 467,
      "um": 468,
      "choroidere": 469,
      "choroideremia": 470,
      "ob": 471,
      "from": 472,
      "oph": 473,
      "idi": 474,
      "opathic": 475,
      "idiopathic": 476,
      "vus": 477,
      "mew": 478,
      "nevus": 479,
      "100": 480,
      "month": 481,
      "inous": 482,
      "toxoplasmosis": 483,
      "melanoma": 484,
      "mewds": 485,
      "terior": 486,
      "visual": 487,
      "tear": 488,
      "ber": 489,
      "15": 490,
      "ophthalm": 491,
      "atus": 492,
      "au": 493,
      "fold": 494,
      "fol": 495,
      "woman": 496,
      "follow": 497,
      "icsc": 498,
      "end": 499,
      "ticular": 500,
      "wee": 501,
      "ste": 502,
      "she": 503,
      "myopic": 504,
      "after": 505,
      "cone": 506,
      "nor": 507,
      "pan": 508,
      "qu": 509,
      "hemangio": 510,
      "normal": 511,
      "li": 512,
      "tory": 513,
      "bl": 514,
      "aneu": 515,
      "cm": 516,
      "rysm": 517,
      "aneurysm": 518,
      "ence": 519,
      "lady": 520,
      "periph": 521,
      "neuro": 522,
      "mo": 523,
      "armd": 524,
      "cy": 525,
      "her": 526,
      "min": 527,
      "vascul": 528,
      "tes": 529,
      "60": 530,
      "oral": 531,
      "arter": 532,
      "years": 533,
      "ges": 534,
      "macula": 535,
      "resol": 536,
      "lastoma": 537,
      "history": 538,
      "dus": 539,
      "dusn": 540,
      "pic": 541,
      "both": 542,
      "ital": 543,
      "so": 544,
      "this": 545,
      "black": 546,
      "peripher": 547,
      "imp": 548,
      "pon": 549,
      "asal": 550,
      "sed": 551,
      "roaneurysm": 552,
      "ab": 553,
      "that": 554,
      "ved": 555,
      "eyes": 556,
      "weeks": 557,
      "dau": 558,
      "flavi": 559,
      "hip": 560,
      "ev": 561,
      "hispan": 562,
      "hispanic": 563,
      "genital": 564,
      "congenital": 565,
      "32": 566,
      "von": 567,
      "pel": 568,
      "cuticular": 569,
      "hippel": 570,
      "six": 571,
      "fam": 572,
      "laser": 573,
      "lindau": 574,
      "famil": 575,
      "mic": 576,
      "ass": 577,
      "maculopathy": 578,
      "telangiectasia": 579,
      "has": 580,
      "ction": 581,
      "ophthalmitis": 582,
      "endophthalmitis": 583,
      "66": 584,
      "maculatus": 585,
      "flavimaculatus": 586,
      "olar": 587,
      "amd": 588,
      "tive": 589,
      "bin": 590,
      "posterior": 591,
      "oid": 592,
      "choroidopathy": 593,
      "exuda": 594,
      "fu": 595,
      "macroaneurysm": 596,
      "pro": 597,
      "par": 598,
      "piginous": 599,
      "serpiginous": 600,
      "ine": 601,
      "cmv": 602,
      "ile": 603,
      "presented": 604,
      "fle": 605,
      "ir": 606,
      "line": 607,
      "ary": 608,
      "months": 609,
      "sta": 610,
      "vitreous": 611,
      "pdr": 612,
      "ron": 613,
      "ked": 614,
      "28": 615,
      "46": 616,
      "temp": 617,
      "myopia": 618,
      "neuroretinitis": 619,
      "temporal": 620,
      "flec": 621,
      "phi": 622,
      "rio": 623,
      "chorio": 624,
      "comp": 625,
      "epithelium": 626,
      "extensive": 627,
      "yan": 628,
      "lesions": 629,
      "folds": 630,
      "following": 631,
      "up": 632,
      "uve": 633,
      "uveitis": 634,
      "retina": 635,
      "fluorescence": 636,
      "ut": 637,
      "ast": 638,
      "present": 639,
      "trac": 640,
      "pl": 641,
      "capil": 642,
      "papillary": 643,
      "mation": 644,
      "post": 645,
      "apy": 646,
      "peripapillary": 647,
      "therapy": 648,
      "80": 649,
      "og": 650,
      "trea": 651,
      "here": 652,
      "dot": 653,
      "treated": 654,
      "cry": 655,
      "radi": 656,
      "artery": 657,
      "lea": 658,
      "capillary": 659,
      "64": 660,
      "ha": 661,
      "vasculitis": 662,
      "uma": 663,
      "reveal": 664,
      "sel": 665,
      "rd": 666,
      "ves": 667,
      "non": 668,
      "dif": 669,
      "cur": 670,
      "dec": 671,
      "lated": 672,
      "sixty": 673,
      "litis": 674,
      "19": 675,
      "large": 676,
      "29": 677,
      "agi": 678,
      "gt": 679,
      "ko": 680,
      "vogt": 681,
      "yanagi": 682,
      "koyanagi": 683,
      "ior": 684,
      "rosis": 685,
      "ocia": 686,
      "ell": 687,
      "respon": 688,
      "angiography": 689,
      "associa": 690,
      "sur": 691,
      "associated": 692,
      "chron": 693,
      "exam": 694,
      "chronic": 695,
      "13": 696,
      "eld": 697,
      "linked": 698,
      "chan": 699,
      "fin": 700,
      "scent": 701,
      "anescent": 702,
      "evanescent": 703,
      "boy": 704,
      "auto": 705,
      "55": 706,
      "ur": 707,
      "outer": 708,
      "mppe": 709,
      "mil": 710,
      "com": 711,
      "jux": 712,
      "plac": 713,
      "juxta": 714,
      "there": 715,
      "hemangioma": 716,
      "placoid": 717,
      "can": 718,
      "tom": 719,
      "ilateral": 720,
      "acuity": 721,
      "unilateral": 722,
      "radiation": 723,
      "vessel": 724,
      "steroid": 725,
      "over": 726,
      "infla": 727,
      "ture": 728,
      "exud": 729,
      "inflam": 730,
      "recur": 731,
      "ign": 732,
      "papillitis": 733,
      "related": 734,
      "hypertensive": 735,
      "bac": 736,
      "ance": 737,
      "cys": 738,
      "steroids": 739,
      "ss": 740,
      "fuse": 741,
      "late": 742,
      "telangiectasis": 743,
      "diffuse": 744,
      "toid": 745,
      "47": 746,
      "gro": 747,
      "tor": 748,
      "peripheral": 749,
      "family": 750,
      "back": 751,
      "ial": 752,
      "icity": 753,
      "toxicity": 754,
      "vir": 755,
      "flecks": 756,
      "venile": 757,
      "juvenile": 758,
      "llow": 759,
      "wor": 760,
      "retinob": 761,
      "juxtafoveal": 762,
      "recurren": 763,
      "cystoid": 764,
      "retinoblastoma": 765,
      "phase": 766,
      "lain": 767,
      "24": 768,
      "met": 769,
      "stal": 770,
      "rao": 771,
      "were": 772,
      "complain": 773,
      "crystal": 774,
      "cr": 775,
      "ts": 776,
      "mptom": 777,
      "fove": 778,
      "exudative": 779,
      "inflammation": 780,
      "ger": 781,
      "ll": 782,
      "wn": 783,
      "seen": 784,
      "intra": 785,
      "active": 786,
      "phic": 787,
      "ovir": 788,
      "pdt": 789,
      "53": 790,
      "ham": 791,
      "artoma": 792,
      "leak": 793,
      "hamartoma": 794,
      "but": 795,
      "nvd": 796,
      "ree": 797,
      "rease": 798,
      "12": 799,
      "68": 800,
      "men": 801,
      "sus": 802,
      "pc": 803,
      "epitheliopathy": 804,
      "ate": 805,
      "ated": 806,
      "je": 807,
      "inje": 808,
      "subacute": 809,
      "ding": 810,
      "ii": 811,
      "inf": 812,
      "olog": 813,
      "pid": 814,
      "injection": 815,
      "blu": 816,
      "ian": 817,
      "uc": 818,
      "tice": 819,
      "trauma": 820,
      "52": 821,
      "impro": 822,
      "who": 823,
      "infer": 824,
      "out": 825,
      "inferior": 826,
      "arteri": 827,
      "decrease": 828,
      "cor": 829,
      "mid": 830,
      "mri": 831,
      "lamin": 832,
      "giant": 833,
      "laminar": 834,
      "basal": 835,
      "well": 836,
      "head": 837,
      "49": 838,
      "enty": 839,
      "ide": 840,
      "cted": 841,
      "presentation": 842,
      "seve": 843,
      "ism": 844,
      "horoid": 845,
      "supr": 846,
      "severe": 847,
      "horoidal": 848,
      "cau": 849,
      "du": 850,
      "positi": 851,
      "go": 852,
      "have": 853,
      "surger": 854,
      "35": 855,
      "cme": 856,
      "domacular": 857,
      "shot": 858,
      "bird": 859,
      "heredomacular": 860,
      "birdshot": 861,
      "72": 862,
      "achoroidal": 863,
      "phos": 864,
      "crvo": 865,
      "suprachoroidal": 866,
      "56": 867,
      "kh": 868,
      "pun": 869,
      "vkh": 870,
      "field": 871,
      "showing": 872,
      "venous": 873,
      "et": 874,
      "our": 875,
      "ternal": 876,
      "exudates": 877,
      "iv": 878,
      "sin": 879,
      "term": 880,
      "oste": 881,
      "showed": 882,
      "revealed": 883,
      "16": 884,
      "ca": 885,
      "cul": 886,
      "chem": 887,
      "hemangiob": 888,
      "changes": 889,
      "recurrent": 890,
      "since": 891,
      "osteoma": 892,
      "albin": 893,
      "coma": 894,
      "mye": 895,
      "pla": 896,
      "pholi": 897,
      "antiphos": 898,
      "plaqu": 899,
      "pholipid": 900,
      "antiphospholipid": 901,
      "65": 902,
      "81": 903,
      "if": 904,
      "mar": 905,
      "ution": 906,
      "ull": 907,
      "nasal": 908,
      "atic": 909,
      "albinism": 910,
      "resolved": 911,
      "ground": 912,
      "background": 913,
      "genous": 914,
      "fluid": 915,
      "kno": 916,
      "pit": 917,
      "not": 918,
      "known": 919,
      "did": 920,
      "leber": 921,
      "due": 922,
      "punct": 923,
      "gf": 924,
      "hd": 925,
      "venty": 926,
      "sebac": 927,
      "seventy": 928,
      "asian": 929,
      "vegf": 930,
      "fty": 931,
      "noted": 932,
      "fifty": 933,
      "hemangioblastoma": 934,
      "sebace": 935,
      "by": 936,
      "gh": 937,
      "enil": 938,
      "ded": 939,
      "atu": 940,
      "plaquenil": 941,
      "csc": 942,
      "ttice": 943,
      "lattice": 944,
      "apmppe": 945,
      "resolution": 946,
      "combin": 947,
      "surgery": 948,
      "hdpe": 949,
      "cscr": 950,
      "67": 951,
      "ving": 952,
      "ferred": 953,
      "exudate": 954,
      "14": 955,
      "inner": 956,
      "under": 957,
      "colob": 958,
      "linear": 959,
      "pcv": 960,
      "sebaceous": 961,
      "coloboma": 962,
      "ler": 963,
      "los": 964,
      "some": 965,
      "loss": 966,
      "22": 967,
      "75": 968,
      "referred": 969,
      "positive": 970,
      "gres": 971,
      "avas": 972,
      "chi": 973,
      "avastin": 974,
      "45": 975,
      "initi": 976,
      "vel": 977,
      "gill": 978,
      "pergill": 979,
      "body": 980,
      "tape": 981,
      "abnormal": 982,
      "pergillus": 983,
      "viti": 984,
      "syste": 985,
      "stable": 986,
      "autofluorescence": 987,
      "59": 988,
      "gment": 989,
      "lig": 990,
      "ache": 991,
      "traction": 992,
      "198": 993,
      "vitilig": 994,
      "systemic": 995,
      "vitiliginous": 996,
      "44": 997,
      "63": 998,
      "mas": 999,
      "graphy": 1000,
      "subfoveal": 1001,
      "oun": 1002,
      "wet": 1003,
      "leakage": 1004,
      "doc": 1005,
      "ear": 1006,
      "tent": 1007,
      "blur": 1008,
      "ama": 1009,
      "four": 1010,
      "im": 1011,
      "lp": 1012,
      "sug": 1013,
      "nec": 1014,
      "tomo": 1015,
      "heren": 1016,
      "coheren": 1017,
      "optical": 1018,
      "day": 1019,
      "vessels": 1020,
      "decreased": 1021,
      "coherence": 1022,
      "em": 1023,
      "oretinal": 1024,
      "ination": 1025,
      "diag": 1026,
      "diabetes": 1027,
      "brao": 1028,
      "ischem": 1029,
      "antibody": 1030,
      "examination": 1031,
      "ox": 1032,
      "ring": 1033,
      "scle": 1034,
      "areolar": 1035,
      "periphery": 1036,
      "other": 1037,
      "spo": 1038,
      "all": 1039,
      "ocar": 1040,
      "sugges": 1041,
      "31": 1042,
      "infe": 1043,
      "without": 1044,
      "fellow": 1045,
      "ocy": 1046,
      "pical": 1047,
      "early": 1048,
      "sclerosis": 1049,
      "foli": 1050,
      "exfoli": 1051,
      "pseudoexfoli": 1052,
      "pseudoexfoliation": 1053,
      "ging": 1054,
      "ton": 1055,
      "ining": 1056,
      "34": 1057,
      "dro": 1058,
      "ory": 1059,
      "tomography": 1060,
      "62": 1061,
      "oil": 1062,
      "ult": 1063,
      "oped": 1064,
      "asis": 1065,
      "devel": 1066,
      "ran": 1067,
      "solar": 1068,
      "clu": 1069,
      "clovir": 1070,
      "fir": 1071,
      "bdr": 1072,
      "gla": 1073,
      "ucoma": 1074,
      "featu": 1075,
      "superi": 1076,
      "glaucoma": 1077,
      "37": 1078,
      "px": 1079,
      "rp": 1080,
      "wide": 1081,
      "laye": 1082,
      "epi": 1083,
      "metast": 1084,
      "ology": 1085,
      "headache": 1086,
      "features": 1087,
      "pxe": 1088,
      "mi": 1089,
      "yclovir": 1090,
      "acyclovir": 1091,
      "sible": 1092,
      "simil": 1093,
      "similar": 1094,
      "pa": 1095,
      "sil": 1096,
      "21": 1097,
      "urosis": 1098,
      "amaurosis": 1099,
      "scler": 1100,
      "found": 1101,
      "vitreo": 1102,
      "combined": 1103,
      "eight": 1104,
      "mor": 1105,
      "aspergillus": 1106,
      "mato": 1107,
      "external": 1108,
      "coat": 1109,
      "silic": 1110,
      "18": 1111,
      "ke": 1112,
      "lr": 1113,
      "xlr": 1114,
      "ared": 1115,
      "off": 1116,
      "area": 1117,
      "typical": 1118,
      "mild": 1119,
      "xlrs": 1120,
      "54": 1121,
      "rl": 1122,
      "adult": 1123,
      "tuber": 1124,
      "response": 1125,
      "developed": 1126,
      "69": 1127,
      "fib": 1128,
      "superior": 1129,
      "car": 1130,
      "hm": 1131,
      "ised": 1132,
      "sign": 1133,
      "ledema": 1134,
      "dry": 1135,
      "papilledema": 1136,
      "familial": 1137,
      "rup": 1138,
      "segment": 1139,
      "toxocar": 1140,
      "crystals": 1141,
      "tapeoretinal": 1142,
      "toxocara": 1143,
      "smal": 1144,
      "asy": 1145,
      "lyme": 1146,
      "small": 1147,
      "-.": 1148,
      "gal": 1149,
      "ogra": 1150,
      "time": 1151,
      "ities": 1152,
      "ill": 1153,
      "chorioretinitis": 1154,
      "massive": 1155,
      "26": 1156,
      "cal": 1157,
      "cer": 1158,
      "two": 1159,
      "girl": 1160,
      "heme": 1161,
      "symptom": 1162,
      "250": 1163,
      "possible": 1164,
      "71": 1165,
      "otherapy": 1166,
      "form": 1167,
      "cause": 1168,
      "ographic": 1169,
      "symptoms": 1170,
      "36": 1171,
      "endo": 1172,
      "icg": 1173,
      "perf": 1174,
      "arteritis": 1175,
      "staining": 1176,
      "endogenous": 1177,
      "cular": 1178,
      "each": 1179,
      "ker": 1180,
      "reat": 1181,
      "new": 1182,
      "scan": 1183,
      "geographic": 1184,
      "clin": 1185,
      "punctate": 1186,
      "alth": 1187,
      "mented": 1188,
      "susac": 1189,
      "78": 1190,
      "affe": 1191,
      "first": 1192,
      "limi": 1193,
      "progres": 1194,
      "mptomatic": 1195,
      "asymptomatic": 1196,
      "dm": 1197,
      "consis": 1198,
      "loma": 1199,
      "micro": 1200,
      "crystalline": 1201,
      "pol": 1202,
      "also": 1203,
      "been": 1204,
      "unknown": 1205,
      "metastasis": 1206,
      "61": 1207,
      "gold": 1208,
      "fect": 1209,
      "finding": 1210,
      "clinic": 1211,
      "goldman": 1212,
      "38": 1213,
      "ag": 1214,
      "ning": 1215,
      "sa": 1216,
      "ulation": 1217,
      "idal": 1218,
      "lamel": 1219,
      "melanocy": 1220,
      "doctor": 1221,
      "days": 1222,
      "poly": 1223,
      "lamellar": 1224,
      "melanocytoma": 1225,
      "av": 1226,
      "lon": 1227,
      "nosis": 1228,
      "rophic": 1229,
      "led": 1230,
      "vement": 1231,
      "pigmentary": 1232,
      "hemorrhages": 1233,
      "canis": 1234,
      "initial": 1235,
      "layer": 1236,
      "coats": 1237,
      "goldmann": 1238,
      "ick": 1239,
      "sco": 1240,
      "health": 1241,
      "obser": 1242,
      "perfusion": 1243,
      "len": 1244,
      "defect": 1245,
      "laterals": 1246,
      "collaterals": 1247,
      "mother": 1248,
      "improved": 1249,
      "ific": 1250,
      "headaches": 1251,
      "cf": 1252,
      "free": 1253,
      "sl": 1254,
      "rotemporal": 1255,
      "photos": 1256,
      "poidal": 1257,
      "biet": 1258,
      "started": 1259,
      "imaging": 1260,
      "polypoidal": 1261,
      "bietti": 1262,
      "85": 1263,
      "inher": 1264,
      "high": 1265,
      "grade": 1266,
      "angioma": 1267,
      "42": 1268,
      "zoc": 1269,
      "vasculopathy": 1270,
      "complaint": 1271,
      "ivig": 1272,
      "myeloma": 1273,
      "diagnosis": 1274,
      "scotoma": 1275,
      "zocchi": 1276,
      "39": 1277,
      "74": 1278,
      "loop": 1279,
      "fiber": 1280,
      "intraocular": 1281,
      ".,": 1282,
      "cin": 1283,
      "ele": 1284,
      "mus": 1285,
      "treat": 1286,
      "vol": 1287,
      "zing": 1288,
      "any": 1289,
      "syphi": 1290,
      "appe": 1291,
      "oles": 1292,
      "scleritis": 1293,
      "treatment": 1294,
      "amppe": 1295,
      "den": 1296,
      "mt": 1297,
      "invol": 1298,
      "cancer": 1299,
      "gent": 1300,
      "trophy": 1301,
      "three": 1302,
      "hypertrophy": 1303,
      "very": 1304,
      "chorioretinopathy": 1305,
      "gentle": 1306,
      "hce": 1307,
      "reticular": 1308,
      "status": 1309,
      "behce": 1310,
      "400": 1311,
      "chorioretinal": 1312,
      "suggesting": 1313,
      "epiretinal": 1314,
      "appear": 1315,
      "behcet": 1316,
      "band": 1317,
      "bull": 1318,
      "van": 1319,
      "arac": 1320,
      "secon": 1321,
      "fovea": 1322,
      "corre": 1323,
      "160": 1324,
      "bre": 1325,
      "cir": 1326,
      "sp": 1327,
      "yellow": 1328,
      "raised": 1329,
      "tical": 1330,
      "part": 1331,
      "iii": 1332,
      "breast": 1333,
      "clinical": 1334,
      "sit": 1335,
      "astic": 1336,
      "tome": 1337,
      "elastic": 1338,
      "photoco": 1339,
      "tension": 1340,
      "hypertension": 1341,
      "renal": 1342,
      "cytome": 1343,
      "ovirus": 1344,
      "ischemic": 1345,
      "silicon": 1346,
      "galovirus": 1347,
      "photocoag": 1348,
      "cytomegalovirus": 1349,
      "43": 1350,
      "fore": 1351,
      "prim": 1352,
      "scarring": 1353,
      "photocoagulation": 1354,
      "primary": 1355,
      "58": 1356,
      "73": 1357,
      "79": 1358,
      "forty": 1359,
      "hyperfluorescence": 1360,
      "week": 1361,
      "somal": 1362,
      "change": 1363,
      "autosomal": 1364,
      "second": 1365,
      "41": 1366,
      "crao": 1367,
      "full": 1368,
      "oton": 1369,
      "rared": 1370,
      "ultra": 1371,
      "ness": 1372,
      "myoton": 1373,
      "five": 1374,
      "infrared": 1375,
      "gentleman": 1376,
      "myotonic": 1377,
      "ced": 1378,
      "fly": 1379,
      "xan": 1380,
      "thoma": 1381,
      "thick": 1382,
      "set": 1383,
      "seven": 1384,
      "deterior": 1385,
      "terfly": 1386,
      "dition": 1387,
      "itance": 1388,
      "pseudoxan": 1389,
      "images": 1390,
      "picture": 1391,
      "butterfly": 1392,
      "rupture": 1393,
      "inheritance": 1394,
      "elasticum": 1395,
      "deterioration": 1396,
      "pseudoxanthoma": 1397,
      "ible": 1398,
      "ssu": 1399,
      "terole": 1400,
      "rate": 1401,
      "choles": 1402,
      "htn": 1403,
      "hisis": 1404,
      "visible": 1405,
      "improvement": 1406,
      "myelin": 1407,
      "terolemia": 1408,
      "cholesterolemia": 1409,
      "path": 1410,
      "advan": 1411,
      "domin": 1412,
      "cons": 1413,
      "perifoveal": 1414,
      "rhab": 1415,
      "oxal": 1416,
      "advanced": 1417,
      "dominant": 1418,
      "rhabdo": 1419,
      "33": 1420,
      "57": 1421,
      "ater": 1422,
      "gl": 1423,
      "hx": 1424,
      "rhe": 1425,
      "sh": 1426,
      "before": 1427,
      "pigmentation": 1428,
      "pred": 1429,
      "faf": 1430,
      "necrosis": 1431,
      "morning": 1432,
      "glory": 1433,
      "17": 1434,
      "ball": 1435,
      "tal": 1436,
      "youn": 1437,
      "then": 1438,
      "ang": 1439,
      "str": 1440,
      "while": 1441,
      "sud": 1442,
      "pigmented": 1443,
      "hyp": 1444,
      "tured": 1445,
      "blem": 1446,
      "ending": 1447,
      "problem": 1448,
      "progressive": 1449,
      "young": 1450,
      "cand": 1451,
      "ew": 1452,
      "went": 1453,
      "roqu": 1454,
      "malign": 1455,
      "ida": 1456,
      "atrophic": 1457,
      "chlo": 1458,
      "culosis": 1459,
      "underwent": 1460,
      "tuberculosis": 1461,
      "fibro": 1462,
      "sudden": 1463,
      "candida": 1464,
      "roquine": 1465,
      "chloroquine": 1466,
      "77": 1467,
      "cell": 1468,
      "tw": 1469,
      "rou": 1470,
      "ules": 1471,
      "ican": 1472,
      "ned": 1473,
      "itus": 1474,
      "like": 1475,
      "came": 1476,
      "spot": 1477,
      "bitis": 1478,
      "coun": 1479,
      "gre": 1480,
      "sle": 1481,
      "tizing": 1482,
      "recent": 1483,
      "rotizing": 1484,
      "inclu": 1485,
      "lebitis": 1486,
      "main": 1487,
      "elder": 1488,
      "necrotizing": 1489,
      "drop": 1490,
      "myelinated": 1491,
      "including": 1492,
      "51": 1493,
      "bone": 1494,
      "dual": 1495,
      "spic": 1496,
      "tage": 1497,
      "gradual": 1498,
      "pressu": 1499,
      "formation": 1500,
      "uck": 1501,
      "malignant": 1502,
      "pressure": 1503,
      "125": 1504,
      "27": 1505,
      "320": 1506,
      "cto": 1507,
      "casian": 1508,
      "mu": 1509,
      "nis": 1510,
      "spe": 1511,
      "reflec": 1512,
      "view": 1513,
      "neuroretinopathy": 1514,
      "impending": 1515,
      "fused": 1516,
      "caucasian": 1517,
      "abnormalities": 1518,
      "vitreoretinopathy": 1519,
      "corrected": 1520,
      "prednis": 1521,
      "prednisone": 1522,
      "ago": 1523,
      "cva": 1524,
      "nine": 1525,
      "stel": 1526,
      "val": 1527,
      "onset": 1528,
      "rain": 1529,
      "montage": 1530,
      "impa": 1531,
      "decal": 1532,
      "work": 1533,
      "tractional": 1534,
      "blurred": 1535,
      "consistent": 1536,
      "findings": 1537,
      "appearance": 1538,
      "situ": 1539,
      "stellate": 1540,
      "76": 1541,
      "case": 1542,
      "tam": 1543,
      "entral": 1544,
      "schisis": 1545,
      "smo": 1546,
      "reveals": 1547,
      "bacteri": 1548,
      "ifen": 1549,
      "oxifen": 1550,
      "limited": 1551,
      "reflective": 1552,
      "tamoxifen": 1553,
      "ating": 1554,
      "ld": 1555,
      "pul": 1556,
      "rt": 1557,
      "vac": 1558,
      "xes": 1559,
      "assis": 1560,
      "bevac": 1561,
      "sening": 1562,
      "izuma": 1563,
      "fixes": 1564,
      "starting": 1565,
      "vated": 1566,
      "areas": 1567,
      "trol": 1568,
      "follows": 1569,
      "worsening": 1570,
      "inferotemporal": 1571,
      "elevated": 1572,
      "assisted": 1573,
      "bevacizuma": 1574,
      "bevacizumab": 1575,
      "ae": 1576,
      "fra": 1577,
      "oro": 1578,
      "sic": 1579,
      "rod": 1580,
      "ents": 1581,
      "ental": 1582,
      "hor": 1583,
      "lear": 1584,
      "depigmentation": 1585,
      "perflu": 1586,
      "ized": 1587,
      "cere": 1588,
      "prior": 1589,
      "ophthalmic": 1590,
      "mot": 1591,
      "parents": 1592,
      "good": 1593,
      "pain": 1594,
      "healthy": 1595,
      "lens": 1596,
      "decalin": 1597,
      "orodecalin": 1598,
      "perfluorodecalin": 1599,
      "bcva": 1600,
      "ired": 1601,
      "vr": 1602,
      "test": 1603,
      "short": 1604,
      "vitreal": 1605,
      "resolving": 1606,
      "infar": 1607,
      "infection": 1608,
      "observed": 1609,
      "green": 1610,
      "ctomy": 1611,
      "gy": 1612,
      "yon": 1613,
      "sequ": 1614,
      "became": 1615,
      "brin": 1616,
      "centre": 1617,
      "poor": 1618,
      "fibrin": 1619,
      "flat": 1620,
      "gyrate": 1621,
      "pole": 1622,
      "anterior": 1623,
      "intrac": 1624,
      "erm": 1625,
      "total": 1626,
      "which": 1627,
      "addition": 1628,
      "lying": 1629,
      "tors": 1630,
      "ischemia": 1631,
      "ranial": 1632,
      "intracranial": 1633,
      "128": 1634,
      "48": 1635,
      "rant": 1636,
      "sti": 1637,
      "xy": 1638,
      "chrpe": 1639,
      "adrant": 1640,
      "hydro": 1641,
      "quadrant": 1642,
      "intravitreal": 1643,
      "child": 1644,
      "changed": 1645,
      "xychloroquine": 1646,
      "hydroxychloroquine": 1647,
      "'.": 1648,
      "brain": 1649,
      "gran": 1650,
      "tered": 1651,
      "row": 1652,
      "ace": 1653,
      "lete": 1654,
      "ortion": 1655,
      "abortion": 1656,
      "complete": 1657,
      "foveoschisis": 1658,
      "vitreomacular": 1659,
      "problems": 1660,
      "recently": 1661,
      "abortions": 1662,
      "able": 1663,
      "bor": 1664,
      "eal": 1665,
      "gmato": 1666,
      "iant": 1667,
      "tary": 1668,
      "var": 1669,
      "fevr": 1670,
      "ditary": 1671,
      "unk": 1672,
      "vious": 1673,
      "angiograms": 1674,
      "hereditary": 1675,
      "responded": 1676,
      "culture": 1677,
      "pair": 1678,
      "calc": 1679,
      "cinoma": 1680,
      "muscular": 1681,
      "rhegmato": 1682,
      "eales": 1683,
      "variant": 1684,
      "rhegmatogenous": 1685,
      "cep": 1686,
      "ien": 1687,
      "regi": 1688,
      "fluorescent": 1689,
      "disor": 1690,
      "tracks": 1691,
      "cryotherapy": 1692,
      "same": 1693,
      "consang": 1694,
      "elderly": 1695,
      "impaired": 1696,
      "consangu": 1697,
      "bly": 1698,
      "der": 1699,
      "dur": 1700,
      "land": 1701,
      "inc": 1702,
      "isch": 1703,
      "island": 1704,
      "less": 1705,
      "these": 1706,
      "bed": 1707,
      "bear": 1708,
      "berous": 1709,
      "unding": 1710,
      "eding": 1711,
      "tuberous": 1712,
      "panretinal": 1713,
      "signific": 1714,
      "oxalosis": 1715,
      "ischae": 1716,
      "significant": 1717,
      "11": 1718,
      "bal": 1719,
      "blo": 1720,
      "nitus": 1721,
      "top": 1722,
      "tun": 1723,
      "sever": 1724,
      "oncol": 1725,
      "tinnitus": 1726,
      "deli": 1727,
      "scri": 1728,
      "fortun": 1729,
      "rier": 1730,
      "vertical": 1731,
      "surro": 1732,
      "ately": 1733,
      "arterio": 1734,
      "spots": 1735,
      "affected": 1736,
      "long": 1737,
      "circu": 1738,
      "much": 1739,
      "several": 1740,
      "oncolog": 1741,
      "delivery": 1742,
      "scribed": 1743,
      "fortunately": 1744,
      "cq": 1745,
      "coc": 1746,
      "hcq": 1747,
      "ies": 1748,
      "iform": 1749,
      "omacular": 1750,
      "semin": 1751,
      "enuc": 1752,
      "uld": 1753,
      "uloma": 1754,
      "defin": 1755,
      "icentral": 1756,
      "pericentral": 1757,
      "could": 1758,
      "hype": 1759,
      "vitel": 1760,
      "dissemin": 1761,
      "presenting": 1762,
      "liform": 1763,
      "recurrence": 1764,
      "foveomacular": 1765,
      "ologic": 1766,
      "suggestive": 1767,
      "carcinoma": 1768,
      "granuloma": 1769,
      "vitelliform": 1770,
      "disseminated": 1771,
      "ey": 1772,
      "gr": 1773,
      "light": 1774,
      "ng": 1775,
      "pus": 1776,
      "ure": 1777,
      "reo": 1778,
      "thir": 1779,
      "interm": 1780,
      "malformation": 1781,
      "neur": 1782,
      "ittent": 1783,
      "class": 1784,
      "lung": 1785,
      "control": 1786,
      "nosed": 1787,
      "photography": 1788,
      "hyperreflective": 1789,
      "stereo": 1790,
      "para": 1791,
      "pcp": 1792,
      "initiating": 1793,
      "diagnosed": 1794,
      "shun": 1795,
      "arteriovenous": 1796,
      "grand": 1797,
      "intermittent": 1798,
      "neuritis": 1799,
      "classic": 1800,
      "82": 1801,
      "cen": 1802,
      "gam": 1803,
      "mopathy": 1804,
      "mscribed": 1805,
      "tane": 1806,
      "vation": 1807,
      "xal": 1808,
      "ythe": 1809,
      "regres": 1810,
      "remain": 1811,
      "roxal": 1812,
      "ins": 1813,
      "inju": 1814,
      "erythe": 1815,
      "hood": 1816,
      "leation": 1817,
      "idental": 1818,
      "orb": 1819,
      "phthalm": 1820,
      "ely": 1821,
      "lupus": 1822,
      "tumor": 1823,
      "vitrectomy": 1824,
      "tran": 1825,
      "uria": 1826,
      "infant": 1827,
      "1985": 1828,
      "1987": 1829,
      "clump": 1830,
      "matosus": 1831,
      "microphthalm": 1832,
      "lonal": 1833,
      "secondary": 1834,
      "struck": 1835,
      "additional": 1836,
      "childhood": 1837,
      "circumscribed": 1838,
      "enucleation": 1839,
      "hyperoxal": 1840,
      "gammopathy": 1841,
      "taneous": 1842,
      "injury": 1843,
      "erythematosus": 1844,
      "microphthalmos": 1845,
      "hyperoxaluria": 1846,
      "az": 1847,
      "cj": 1848,
      "cw": 1849,
      "che": 1850,
      "cel": 1851,
      "fal": 1852,
      "far": 1853,
      "hlear": 1854,
      "llu": 1855,
      "vre": 1856,
      "wf": 1857,
      "tigo": 1858,
      "rece": 1859,
      "repon": 1860,
      "recep": 1861,
      "thing": 1862,
      "sened": 1863,
      "tein": 1864,
      "rop": 1865,
      "ule": 1866,
      "issu": 1867,
      "erg": 1868,
      "vep": 1869,
      "orde": 1870,
      "demar": 1871,
      "athi": 1872,
      "pected": 1873,
      "given": 1874,
      "bellu": 1875,
      "confused": 1876,
      "rycel": 1877,
      "memory": 1878,
      "favre": 1879,
      "vertigo": 1880,
      "tau": 1881,
      "disciform": 1882,
      "bloc": 1883,
      "cml": 1884,
      "eval": 1885,
      "protein": 1886,
      "parts": 1887,
      "find": 1888,
      "final": 1889,
      "worsened": 1890,
      "mens": 1891,
      "suspected": 1892,
      "signal": 1893,
      "saw": 1894,
      "anything": 1895,
      "mtx": 1896,
      "sprycel": 1897,
      "cerebellu": 1898,
      "iented": 1899,
      "regimens": 1900,
      "disoriented": 1901,
      "balance": 1902,
      "oncology": 1903,
      "cochlear": 1904,
      "eylea": 1905,
      "azathi": 1906,
      "cjd": 1907,
      "cws": 1908,
      "false": 1909,
      "farve": 1910,
      "reponse": 1911,
      "issues": 1912,
      "ordered": 1913,
      "cerebellum": 1914,
      "23": 1915,
      "bic": 1916,
      "nve": 1917,
      "aloid": 1918,
      "roth": 1919,
      "oper": 1920,
      "photorecep": 1921,
      "luoresc": 1922,
      "edges": 1923,
      "cess": 1924,
      "complaints": 1925,
      "blurry": 1926,
      "initially": 1927,
      "biclonal": 1928,
      "cac": 1929,
      "cat": 1930,
      "mber": 1931,
      "sme": 1932,
      "spon": 1933,
      "uation": 1934,
      "throu": 1935,
      "vember": 1936,
      "ofluoresc": 1937,
      "supe": 1938,
      "previous": 1939,
      "adj": 1940,
      "november": 1941,
      "holes": 1942,
      "type": 1943,
      "slight": 1944,
      "aract": 1945,
      "pathology": 1946,
      "remained": 1947,
      "cataract": 1948,
      "cation": 1949,
      "fl": 1950,
      "fic": 1951,
      "fun": 1952,
      "olor": 1953,
      "doing": 1954,
      "photographs": 1955,
      "hyaloid": 1956,
      "tur": 1957,
      "periphlebitis": 1958,
      "arteriolar": 1959,
      "underlying": 1960,
      "tubercular": 1961,
      "83": 1962,
      "cti": 1963,
      "arcoma": 1964,
      "using": 1965,
      "idual": 1966,
      "medi": 1967,
      "ather": 1968,
      "osarcoma": 1969,
      "charac": 1970,
      "its": 1971,
      "residual": 1972,
      "myosarcoma": 1973,
      "folded": 1974,
      "nonperfusion": 1975,
      "arterial": 1976,
      "fibrosis": 1977,
      "carrier": 1978,
      "rhabdomyosarcoma": 1979,
      "spicules": 1980,
      "thirty": 1981,
      "parafoveal": 1982,
      "clumping": 1983,
      "photoreceptors": 1984,
      "character": 1985,
      "),": 1986,
      "aine": 1987,
      "cre": 1988,
      "kely": 1989,
      "lign": 1990,
      "omal": 1991,
      "sia": 1992,
      "vh": 1993,
      "tial": 1994,
      "argen": 1995,
      "recor": 1996,
      "anomal": 1997,
      "tina": 1998,
      "ocaine": 1999,
      "neg": 2000,
      "else": 2001,
      "shoe": 2002,
      "cot": 2003,
      "drusenoid": 2004,
      "histopath": 2005,
      "likely": 2006,
      "having": 2007,
      "epimacular": 2008,
      "limiting": 2009,
      "syphil": 2010,
      "thickness": 2011,
      "horse": 2012,
      "demarcation": 2013,
      "cacd": 2014,
      "argentina": 2015,
      "ao": 2016,
      "fing": 2017,
      "ken": 2018,
      "indoc": 2019,
      "opto": 2020,
      "hiv": 2021,
      "media": 2022,
      "hyperfluorescent": 2023,
      "taken": 2024,
      "rent": 2025,
      "aneurysms": 2026,
      "yanine": 2027,
      "metal": 2028,
      "complaining": 2029,
      "correspon": 2030,
      "silicone": 2031,
      ".,,": 2032,
      "hypofluoresc": 2033,
      "infarction": 2034,
      "still": 2035,
      "blood": 2036,
      "finger": 2037,
      "indocyanine": 2038,
      "optos": 2039,
      "fs": 2040,
      "flo": 2041,
      "gho": 2042,
      "more": 2043,
      "ound": 2044,
      "pi": 2045,
      "pur": 2046,
      "rx": 2047,
      "tsc": 2048,
      "water": 2049,
      "yr": 2050,
      "tis": 2051,
      "than": 2052,
      "orfs": 2053,
      "depos": 2054,
      "mably": 2055,
      "neph": 2056,
      "bryon": 2057,
      "presumably": 2058,
      "wool": 2059,
      "quet": 2060,
      "embryon": 2061,
      "consisting": 2062,
      "bacterial": 2063,
      "duration": 2064,
      "spontaneous": 2065,
      "lignocaine": 2066,
      "cotton": 2067,
      "horseshoe": 2068,
      "purtsc": 2069,
      "purtscher": 2070,
      "past": 2071,
      "use": 2072,
      "vmt": 2073,
      "around": 2074,
      "seem": 2075,
      "ross": 2076,
      "demon": 2077,
      "maternal": 2078,
      "atten": 2079,
      "peral": 2080,
      "note": 2081,
      "periperal": 2082,
      "proliferation": 2083,
      "evid": 2084,
      "complained": 2085,
      "grandmother": 2086,
      "seems": 2087,
      "demonst": 2088,
      "father": 2089,
      "loc": 2090,
      "ost": 2091,
      "rican": 2092,
      "ars": 2093,
      "thy": 2094,
      "tend": 2095,
      "rocy": 2096,
      "only": 2097,
      "deep": 2098,
      "ations": 2099,
      "extend": 2100,
      "notice": 2101,
      "prine": 2102,
      "hypo": 2103,
      "reak": 2104,
      "african": 2105,
      "almost": 2106,
      "astrocy": 2107,
      "diffic": 2108,
      "combination": 2109,
      "illness": 2110,
      "spec": 2111,
      "azathiprine": 2112,
      "negative": 2113,
      "extending": 2114,
      "astrocytic": 2115,
      "hine": 2116,
      "ipcv": 2117,
      "mass": 2118,
      "puc": 2119,
      "albi": 2120,
      "enlar": 2121,
      "int": 2122,
      "2012": 2123,
      "toretinal": 2124,
      "machine": 2125,
      "ice": 2126,
      "amy": 2127,
      "histology": 2128,
      "roaneurysms": 2129,
      "microaneurysms": 2130,
      "marg": 2131,
      "punctatus": 2132,
      "tapetoretinal": 2133,
      "blurring": 2134,
      "eighty": 2135,
      "ropia": 2136,
      "evaluation": 2137,
      "pucker": 2138,
      "albipunctatus": 2139,
      "enlarging": 2140,
      "bul": 2141,
      "ive": 2142,
      "nt": 2143,
      "tb": 2144,
      "tig": 2145,
      "inter": 2146,
      "lead": 2147,
      "physic": 2148,
      "subsequ": 2149,
      "300": 2150,
      "traum": 2151,
      "antitubercular": 2152,
      "cmc": 2153,
      "iris": 2154,
      "worm": 2155,
      "blunt": 2156,
      "midperiphery": 2157,
      "cultured": 2158,
      "colobomata": 2159,
      "involving": 2160,
      "fibrotic": 2161,
      "regressed": 2162,
      "smears": 2163,
      "histopathology": 2164,
      "floater": 2165,
      "embryonal": 2166,
      "evidence": 2167,
      "bulb": 2168,
      "leading": 2169,
      "physician": 2170,
      "subsequent": 2171,
      "traumatic": 2172,
      "88": 2173,
      "90": 2174,
      "bur": 2175,
      "cle": 2176,
      "cting": 2177,
      "fill": 2178,
      "tren": 2179,
      "will": 2180,
      "ollen": 2181,
      "inity": 2182,
      "usive": 2183,
      "iden": 2184,
      "tosis": 2185,
      "ters": 2186,
      "lay": 2187,
      "their": 2188,
      "clo": 2189,
      "last": 2190,
      "pounding": 2191,
      "occlusive": 2192,
      "app": 2193,
      "occlusions": 2194,
      "many": 2195,
      "scars": 2196,
      "scarred": 2197,
      "minu": 2198,
      "affecting": 2199,
      "progressed": 2200,
      "pully": 2201,
      "fragment": 2202,
      "consanguinity": 2203,
      "ischaemia": 2204,
      "block": 2205,
      "superotemporal": 2206,
      "metalic": 2207,
      "pipe": 2208,
      "trench": 2209,
      "eog": 2210,
      "ium": 2211,
      "lit": 2212,
      "nl": 2213,
      "swell": 2214,
      "zone": 2215,
      "ropic": 2216,
      "into": 2217,
      "him": 2218,
      "stack": 2219,
      "deut": 2220,
      "chy": 2221,
      "perg": 2222,
      "photop": 2223,
      "diame": 2224,
      "conges": 2225,
      "dable": 2226,
      "presence": 2227,
      "presenile": 2228,
      "micron": 2229,
      "nonrecor": 2230,
      "marked": 2231,
      "ature": 2232,
      "imt": 2233,
      "emmot": 2234,
      "kestack": 2235,
      "ruptured": 2236,
      "fibers": 2237,
      "spect": 2238,
      "smokestack": 2239,
      "mott": 2240,
      "painless": 2241,
      "calcium": 2242,
      "defined": 2243,
      "shunt": 2244,
      "centered": 2245,
      "deposits": 2246,
      "swelling": 2247,
      "deutan": 2248,
      "microns": 2249,
      "nonrecordable": 2250,
      "emmotropic": 2251,
      "cop": 2252,
      "face": 2253,
      "ite": 2254,
      "mun": 2255,
      "wth": 2256,
      "arrow": 2257,
      "indi": 2258,
      "depositi": 2259,
      "general": 2260,
      "lied": 2261,
      "growth": 2262,
      "arteriole": 2263,
      "midperipheral": 2264,
      "immun": 2265,
      "observation": 2266,
      "counting": 2267,
      "frame": 2268,
      "incidental": 2269,
      "through": 2270,
      "syphilis": 2271,
      "identical": 2272,
      "applied": 2273,
      "deposition": 2274,
      "+.": 2275,
      "apergillus": 2276,
      "flas": 2277,
      "hal": 2278,
      "nous": 2279,
      "otic": 2280,
      "rth": 2281,
      "tri": 2282,
      "reus": 2283,
      "ene": 2284,
      "intr": 2285,
      "tinal": 2286,
      "atitis": 2287,
      "stasis": 2288,
      "delaye": 2289,
      "terreus": 2290,
      "dilated": 2291,
      "centrally": 2292,
      "subhyaloid": 2293,
      "conj": 2294,
      "lomacular": 2295,
      "birth": 2296,
      "papillomacular": 2297,
      "versic": 2298,
      "vernous": 2299,
      "aretinal": 2300,
      "injections": 2301,
      "cavernous": 2302,
      "balls": 2303,
      "count": 2304,
      "quadrants": 2305,
      "fungal": 2306,
      "medical": 2307,
      "vhl": 2308,
      "difficul": 2309,
      "closed": 2310,
      "spectral": 2311,
      "flash": 2312,
      "intraretinal": 2313,
      "delayed": 2314,
      "versicolor": 2315,
      "gmus": 2316,
      "ny": 2317,
      "pin": 2318,
      "sof": 2319,
      "rotic": 2320,
      "acity": 2321,
      "ist": 2322,
      "opacity": 2323,
      "raquet": 2324,
      "dystrophic": 2325,
      "fluent": 2326,
      "confluent": 2327,
      "bleed": 2328,
      "testing": 2329,
      "prob": 2330,
      "process": 2331,
      "stagmus": 2332,
      "self": 2333,
      "boys": 2334,
      "intravenous": 2335,
      "keratitis": 2336,
      "twin": 2337,
      "creamy": 2338,
      "cleared": 2339,
      "diameters": 2340,
      "congestion": 2341,
      "half": 2342,
      "nystagmus": 2343,
      "soft": 2344,
      "raquetball": 2345,
      "breaks": 2346,
      "koc": 2347,
      "loph": 2348,
      "omp": 2349,
      "son": 2350,
      "uted": 2351,
      "ukoc": 2352,
      "tid": 2353,
      "rele": 2354,
      "seeding": 2355,
      "tine": 2356,
      "leukoc": 2357,
      "within": 2358,
      "ort": 2359,
      "oria": 2360,
      "few": 2361,
      "ocomp": 2362,
      "sces": 2363,
      "histo": 2364,
      "senile": 2365,
      "cobacteri": 2366,
      "amor": 2367,
      "mycobacteri": 2368,
      "untreated": 2369,
      "papilloph": 2370,
      "romised": 2371,
      "absces": 2372,
      "parac": 2373,
      "grown": 2374,
      "tortu": 2375,
      "metamor": 2376,
      "syphilitis": 2377,
      "hypop": 2378,
      "twenty": 2379,
      "spicule": 2380,
      "controlled": 2381,
      "anomaly": 2382,
      "hypofluorescence": 2383,
      "nephrotic": 2384,
      "thyroid": 2385,
      "immunocomp": 2386,
      "leukocoria": 2387,
      "mycobacterium": 2388,
      "papillophlebitis": 2389,
      "abscess": 2390,
      "immunocompromised": 2391,
      "84": 2392,
      "gn": 2393,
      "glo": 2394,
      "ip": 2395,
      "kable": 2396,
      "local": 2397,
      "sw": 2398,
      "remar": 2399,
      "ening": 2400,
      "inves": 2401,
      "usting": 2402,
      "stage": 2403,
      "labe": 2404,
      "lamp": 2405,
      "dimin": 2406,
      "shown": 2407,
      "amn": 2408,
      "amer": 2409,
      "unremar": 2410,
      "hard": 2411,
      "neuropath": 2412,
      "slit": 2413,
      "thickening": 2414,
      "routine": 2415,
      "border": 2416,
      "adjusting": 2417,
      "corresponds": 2418,
      "filling": 2419,
      "swollen": 2420,
      "investig": 2421,
      "labeled": 2422,
      "unremarkable": 2423,
      "neuropathy": 2424,
      "borders": 2425,
      "b2": 2426,
      "bun": 2427,
      "break": 2428,
      "cour": 2429,
      "db2": 2430,
      "glu": 2431,
      "mh": 2432,
      "pp": 2433,
      "pene": 2434,
      "ru": 2435,
      "sf": 2436,
      "ssive": 2437,
      "uated": 2438,
      "oler": 2439,
      "decl": 2440,
      "mag": 2441,
      "ilities": 2442,
      "confir": 2443,
      "cose": 2444,
      "notic": 2445,
      "cts": 2446,
      "uncti": 2447,
      "verted": 2448,
      "melanotic": 2449,
      "ophthalmologic": 2450,
      "most": 2451,
      "responsive": 2452,
      "comorb": 2453,
      "juxtafove": 2454,
      "llis": 2455,
      "surgeries": 2456,
      "cating": 2457,
      "1982": 2458,
      "metastatic": 2459,
      "microvascular": 2460,
      "syphillis": 2461,
      "vals": 2462,
      "smoker": 2463,
      "sequence": 2464,
      "calcific": 2465,
      "recessive": 2466,
      "ghost": 2467,
      "intoler": 2468,
      "blockage": 2469,
      "conjuncti": 2470,
      "glucose": 2471,
      "rube": 2472,
      "declining": 2473,
      "comorbilities": 2474,
      "juxtafoveolar": 2475,
      "intolerance": 2476,
      "87": 2477,
      "bro": 2478,
      "cross": 2479,
      "dar": 2480,
      "dou": 2481,
      "fac": 2482,
      "nop": 2483,
      "pall": 2484,
      "tle": 2485,
      "uded": 2486,
      "2014": 2487,
      "matory": 2488,
      "oscop": 2489,
      "scat": 2490,
      "extra": 2491,
      "site": 2492,
      "acuities": 2493,
      "toxo": 2494,
      "visually": 2495,
      "tears": 2496,
      "exudation": 2497,
      "inflammatory": 2498,
      "chemotherapy": 2499,
      "times": 2500,
      "afferent": 2501,
      "involuted": 2502,
      "clinically": 2503,
      "oxalate": 2504,
      "born": 2505,
      "operative": 2506,
      "located": 2507,
      "margins": 2508,
      "minutes": 2509,
      "globe": 2510,
      "american": 2511,
      "dark": 2512,
      "double": 2513,
      "pallor": 2514,
      "amp": 2515,
      "amelanotic": 2516,
      "cd": 2517,
      "cil": 2518,
      "csf": 2519,
      "eith": 2520,
      "ffa": 2521,
      "ife": 2522,
      "ioretinal": 2523,
      "otid": 2524,
      "ria": 2525,
      "spr": 2526,
      "vf": 2527,
      "where": 2528,
      "xt": 2529,
      "olving": 2530,
      "ana": 2531,
      "ancy": 2532,
      "onh": 2533,
      "hot": 2534,
      "febr": 2535,
      "occur": 2536,
      "thesia": 2537,
      "next": 2538,
      "pregn": 2539,
      "occluded": 2540,
      "anemia": 2541,
      "pleocy": 2542,
      "bleeding": 2543,
      "tration": 2544,
      "vasculature": 2545,
      "evolving": 2546,
      "ineous": 2547,
      "plus": 2548,
      "radiotherapy": 2549,
      "ivda": 2550,
      "marria": 2551,
      "34yr": 2552,
      "offspr": 2553,
      "carotid": 2554,
      "infarcts": 2555,
      "consanguineous": 2556,
      "characterized": 2557,
      ".,,-": 2558,
      "floaters": 2559,
      "localized": 2560,
      "penetration": 2561,
      "cd4": 2562,
      "cilioretinal": 2563,
      "either": 2564,
      "febrile": 2565,
      "pleocytosis": 2566,
      "marriage": 2567,
      "offspring": 2568,
      "cas": 2569,
      "ef": 2570,
      "iop": 2571,
      "mmh": 2572,
      "sk": 2573,
      "sing": 2574,
      "ured": 2575,
      "vant": 2576,
      "wh": 2577,
      "rel": 2578,
      "ret": 2579,
      "retur": 2580,
      "ens": 2581,
      "istic": 2582,
      "ishe": 2583,
      "ission": 2584,
      "stand": 2585,
      "srnvm": 2586,
      "perfused": 2587,
      "vomi": 2588,
      "ough": 2589,
      "down": 2590,
      "come": 2591,
      "prp": 2592,
      "patchy": 2593,
      "distor": 2594,
      "smission": 2595,
      "ophthalmolog": 2596,
      "lipid": 2597,
      "partial": 2598,
      "ached": 2599,
      "amazing": 2600,
      "superiorly": 2601,
      "loops": 2602,
      "cells": 2603,
      "ischaemic": 2604,
      "surrounding": 2605,
      "transmission": 2606,
      "characteristic": 2607,
      "demonstra": 2608,
      "pinhole": 2609,
      "relevant": 2610,
      "investigations": 2611,
      "scattered": 2612,
      "mmhg": 2613,
      "returned": 2614,
      "ished": 2615,
      "standing": 2616,
      "vomiting": 2617,
      "distortion": 2618,
      "ophthalmologist": 2619,
      ");": 2620,
      "bol": 2621,
      "bulation": 2622,
      "buck": 2623,
      "crow": 2624,
      "dle": 2625,
      "ful": 2626,
      "gree": 2627,
      "hand": 2628,
      "ited": 2629,
      "lac": 2630,
      "nuc": 2631,
      "rac": 2632,
      "race": 2633,
      "rfl": 2634,
      "spar": 2635,
      "sha": 2636,
      "sler": 2637,
      "albe": 2638,
      "alva": 2639,
      "antic": 2640,
      "inad": 2641,
      "acent": 2642,
      "level": 2643,
      "meas": 2644,
      "meta": 2645,
      "degree": 2646,
      "occas": 2647,
      "whitening": 2648,
      "need": 2649,
      "nemato": 2650,
      "ata": 2651,
      "scens": 2652,
      "ional": 2653,
      "ilm": 2654,
      "condition": 2655,
      "amsler": 2656,
      "manife": 2657,
      "peribulb": 2658,
      "hypermet": 2659,
      "vertent": 2660,
      "tubulation": 2661,
      "vable": 2662,
      "venules": 2663,
      "esthesia": 2664,
      "tric": 2665,
      "mose": 2666,
      "unilaterally": 2667,
      "improvable": 2668,
      "middle": 2669,
      "punctata": 2670,
      "embol": 2671,
      "sclera": 2672,
      "involvement": 2673,
      "definite": 2674,
      "orbit": 2675,
      "operated": 2676,
      "adjacent": 2677,
      "indicating": 2678,
      "probable": 2679,
      "course": 2680,
      "valsalva": 2681,
      "rubeosis": 2682,
      "anaesthesia": 2683,
      "occurs": 2684,
      "buckle": 2685,
      "crowded": 2686,
      "racemose": 2687,
      "albescens": 2688,
      "inadvertent": 2689,
      "occasional": 2690,
      "needle": 2691,
      "nematode": 2692,
      "peribulbar": 2693,
      "hypermetropia": 2694,
      "embolus": 2695,
      "(>": 2696,
      "cidental": 2697,
      "ccess": 2698,
      "imented": 2699,
      "jus": 2700,
      "lid": 2701,
      "litus": 2702,
      "narrow": 2703,
      "oimented": 2704,
      "upon": 2705,
      "recom": 2706,
      "accidental": 2707,
      "idel": 2708,
      "osure": 2709,
      "suf": 2710,
      "success": 2711,
      "hear": 2712,
      "heidel": 2713,
      "closure": 2714,
      "sence": 2715,
      "preretinal": 2716,
      "colle": 2717,
      "mellitus": 2718,
      "endocar": 2719,
      "mended": 2720,
      "slide": 2721,
      "stitial": 2722,
      "shunts": 2723,
      "interstitial": 2724,
      "burn": 2725,
      "difficulty": 2726,
      "hypopig": 2727,
      "diminished": 2728,
      "noticed": 2729,
      "skin": 2730,
      "fully": 2731,
      "manifest": 2732,
      "just": 2733,
      "oimentedmacular": 2734,
      "recommended": 2735,
      "successfully": 2736,
      "endocardi": 2737,
      "abo": 2738,
      "cn": 2739,
      "fres": 2740,
      "ived": 2741,
      "pup": 2742,
      "internal": 2743,
      "howe": 2744,
      "matri": 2745,
      "become": 2746,
      "cham": 2747,
      "subtle": 2748,
      "pread": 2749,
      "detached": 2750,
      "ize": 2751,
      "expos": 2752,
      "sias": 2753,
      "unchanged": 2754,
      "reduc": 2755,
      "sister": 2756,
      "monary": 2757,
      "followed": 2758,
      "absence": 2759,
      "future": 2760,
      "temporally": 2761,
      "tomas": 2762,
      "punche": 2763,
      "spoke": 2764,
      "inherited": 2765,
      "elevation": 2766,
      "mainly": 2767,
      "pulmonary": 2768,
      "increase": 2769,
      "surround": 2770,
      "received": 2771,
      "elsewhere": 2772,
      "attenuated": 2773,
      "demonstrate": 2774,
      "specific": 2775,
      "photopsias": 2776,
      "measured": 2777,
      "hypopigmented": 2778,
      "above": 2779,
      "fresh": 2780,
      "pupil": 2781,
      "however": 2782,
      "matrix": 2783,
      "chamber": 2784,
      "reduced": 2785,
      "punched": 2786,
      "base": 2787,
      "everted": 2788,
      "gger": 2789,
      "hat": 2790,
      "ling": 2791,
      "ot": 2792,
      "ode": 2793,
      "rol": 2794,
      "ude": 2795,
      "vs": 2796,
      "welder": 2797,
      "ypical": 2798,
      "ally": 2799,
      "remo": 2800,
      "tely": 2801,
      "tected": 2802,
      "isode": 2803,
      "opr": 2804,
      "opsia": 2805,
      "phopsia": 2806,
      "detected": 2807,
      "pec": 2808,
      "atypical": 2809,
      "becom": 2810,
      "prema": 2811,
      "detachments": 2812,
      "episode": 2813,
      "cutic": 2814,
      "mewhat": 2815,
      "somewhat": 2816,
      "ably": 2817,
      "daugh": 2818,
      "surface": 2819,
      "overlying": 2820,
      "signs": 2821,
      "shut": 2822,
      "mugger": 2823,
      "litude": 2824,
      "metamorphopsia": 2825,
      "confirmed": 2826,
      "amplitude": 2827,
      "pregnancy": 2828,
      "when": 2829,
      "sparing": 2830,
      "shaped": 2831,
      "otropia": 2832,
      "rolled": 2833,
      "becoming": 2834,
      "daughter": 2835,
      "-,": 2836,
      "164": 2837,
      "ax": 2838,
      "bid": 2839,
      "bia": 2840,
      "bao": 2841,
      "done": 2842,
      "ff": 2843,
      "gon": 2844,
      "grea": 2845,
      "iof": 2846,
      "lic": 2847,
      "lant": 2848,
      "mg": 2849,
      "mod": 2850,
      "py": 2851,
      "plas": 2852,
      "rule": 2853,
      "ue": 2854,
      "wy": 2855,
      "ysis": 2856,
      "alysis": 2857,
      "arca": 2858,
      "redetachment": 2859,
      "retrol": 2860,
      "round": 2861,
      "ontal": 2862,
      "ints": 2863,
      "inactive": 2864,
      "across": 2865,
      "usual": 2866,
      "aside": 2867,
      "hobia": 2868,
      "ides": 2869,
      "tous": 2870,
      "occu": 2871,
      "ossible": 2872,
      "aton": 2873,
      "gray": 2874,
      "poder": 2875,
      "points": 2876,
      "izontal": 2877,
      "neovascularizaton": 2878,
      "silateral": 2879,
      "sibly": 2880,
      "unded": 2881,
      "viral": 2882,
      "cuff": 2883,
      "possibly": 2884,
      "lipoder": 2885,
      "moid": 2886,
      "motion": 2887,
      "implant": 2888,
      "impossible": 2889,
      "1971": 2890,
      "55yr": 2891,
      "recurred": 2892,
      "crick": 2893,
      "blue": 2894,
      "arterioles": 2895,
      "1988": 2896,
      "mason": 2897,
      "dense": 2898,
      "involved": 2899,
      "bullous": 2900,
      "fibrovascular": 2901,
      "fibroplas": 2902,
      "pulsed": 2903,
      "horizontal": 2904,
      "surrounded": 2905,
      "longstanding": 2906,
      "granulomatous": 2907,
      "througho": 2908,
      "anomalies": 2909,
      "corresponding": 2910,
      "photophobia": 2911,
      "mottled": 2912,
      "paracentral": 2913,
      "tortuous": 2914,
      "ipsilateral": 2915,
      "exposure": 2916,
      "greater": 2917,
      "iofb": 2918,
      "pying": 2919,
      "wyburn": 2920,
      "arcade": 2921,
      "retrolental": 2922,
      "usually": 2923,
      "occupying": 2924,
      "lipodermoid": 2925,
      "cricket": 2926,
      "fibroplasia": 2927,
      "throughout": 2928,
      "'/": 2929,
      "ato": 2930,
      "dig": 2931,
      "fran": 2932,
      "gan": 2933,
      "great": 2934,
      "hn": 2935,
      "jad": 2936,
      "king": 2937,
      "mig": 2938,
      "might": 2939,
      "mcin": 2940,
      "na": 2941,
      "ography": 2942,
      "ris": 2943,
      "ration": 2944,
      "rane": 2945,
      "sol": 2946,
      "soc": 2947,
      "size": 2948,
      "tre": 2949,
      "vice": 2950,
      "win": 2951,
      "xima": 2952,
      "til": 2953,
      "see": 2954,
      "sess": 2955,
      "olone": 2956,
      "anas": 2957,
      "onide": 2958,
      "inal": 2959,
      "acet": 2960,
      "asso": 2961,
      "assess": 2962,
      "tomosis": 2963,
      "stu": 2964,
      "stri": 2965,
      "organ": 2966,
      "made": 2967,
      "ray": 2968,
      "beyon": 2969,
      "gest": 2970,
      "predis": 2971,
      "iamcin": 2972,
      "deta": 2973,
      "appro": 2974,
      "extre": 2975,
      "dow": 2976,
      "now": 2977,
      "atively": 2978,
      "fied": 2979,
      "service": 2980,
      "cuts": 2981,
      "posing": 2982,
      "flap": 2983,
      "monotherapy": 2984,
      "taper": 2985,
      "espec": 2986,
      "triamcin": 2987,
      "berg": 2988,
      "import": 2989,
      "haem": 2990,
      "responding": 2991,
      "ially": 2992,
      "worker": 2993,
      "systemically": 2994,
      "examinations": 2995,
      "infecti": 2996,
      "club": 2997,
      "scleral": 2998,
      "defects": 2999,
      "stru": 3000,
      "during": 3001,
      "center": 3002,
      "hypofluorescent": 3003,
      "location": 3004,
      "spectralis": 3005,
      "calcification": 3006,
      "factors": 3007,
      "relatively": 3008,
      "endocardiris": 3009,
      "increased": 3010,
      "baseline": 3011,
      "digital": 3012,
      "frank": 3013,
      "jadasso": 3014,
      "migration": 3015,
      "social": 3016,
      "window": 3017,
      "ximately": 3018,
      "anastomosis": 3019,
      "acetonide": 3020,
      "assessment": 3021,
      "beyond": 3022,
      "predisposing": 3023,
      "approximately": 3024,
      "extreme": 3025,
      "especially": 3026,
      "triamcinolone": 3027,
      "important": 3028,
      "infectious": 3029,
      "jadassohn": 3030,
      "08": 3031,
      "150": 3032,
      "86": 3033,
      "cous": 3034,
      "dye": 3035,
      "dent": 3036,
      "fhx": 3037,
      "imal": 3038,
      "kler": 3039,
      "m1": 3040,
      "mit": 3041,
      "ni": 3042,
      "nile": 3043,
      "pv": 3044,
      "rped": 3045,
      "sd": 3046,
      "sar": 3047,
      "stic": 3048,
      "slate": 3049,
      "sory": 3050,
      "wa": 3051,
      "xican": 3052,
      "tio": 3053,
      "timal": 3054,
      "alon": 3055,
      "alitis": 3056,
      "art": 3057,
      "throm": 3058,
      "tesis": 3059,
      "entesis": 3060,
      "retinos": 3061,
      "optimal": 3062,
      "eration": 3063,
      "erate": 3064,
      "homa": 3065,
      "mexican": 3066,
      "streak": 3067,
      "ferent": 3068,
      "phalitis": 3069,
      "ock": 3070,
      "terrane": 3071,
      "osity": 3072,
      "dialysis": 3073,
      "icial": 3074,
      "superf": 3075,
      "scall": 3076,
      "srf": 3077,
      "angiopathy": 3078,
      "perfor": 3079,
      "submacular": 3080,
      "suboptimal": 3081,
      "sensory": 3082,
      "lastomas": 3083,
      "patible": 3084,
      "extent": 3085,
      "viscer": 3086,
      "coid": 3087,
      "nod": 3088,
      "loo": 3089,
      "drug": 3090,
      "10mmhg": 3091,
      "until": 3092,
      "west": 3093,
      "lower": 3094,
      "tax": 3095,
      "taut": 3096,
      "vitr": 3097,
      "esotropia": 3098,
      "encephalitis": 3099,
      "motio": 3100,
      "minimal": 3101,
      "irment": 3102,
      "stain": 3103,
      "ronasal": 3104,
      "fleck": 3105,
      "retinae": 3106,
      "tract": 3107,
      "trachoma": 3108,
      "radical": 3109,
      "leaks": 3110,
      "revealing": 3111,
      "19th": 3112,
      "exams": 3113,
      "compatible": 3114,
      "commotio": 3115,
      "virus": 3116,
      "intraoperative": 3117,
      "corne": 3118,
      "hemangioblastomas": 3119,
      "abnormality": 3120,
      "1983": 3121,
      "develop": 3122,
      "office": 3123,
      "microinfarcts": 3124,
      "microangiopathy": 3125,
      "rheuma": 3126,
      "impairment": 3127,
      "malformations": 3128,
      "regressing": 3129,
      "transit": 3130,
      "blocked": 3131,
      "superonasal": 3132,
      "turity": 3133,
      "mediterrane": 3134,
      "margin": 3135,
      "burg": 3136,
      "markedly": 3137,
      "mottling": 3138,
      "paracentesis": 3139,
      "tortuosity": 3140,
      "conjunctival": 3141,
      "brother": 3142,
      "extramacular": 3143,
      "efferent": 3144,
      "demonstrates": 3145,
      "laceration": 3146,
      "nuclear": 3147,
      "suffer": 3148,
      "heidelburg": 3149,
      "college": 3150,
      "cns": 3151,
      "removal": 3152,
      "prematurity": 3153,
      "episodes": 3154,
      "moderate": 3155,
      "student": 3156,
      "striking": 3157,
      "cousins": 3158,
      "pvd": 3159,
      "sarcoid": 3160,
      "stickler": 3161,
      "along": 3162,
      "thromb": 3163,
      "retinoshisis": 3164,
      "superficial": 3165,
      "scalloped": 3166,
      "visceral": 3167,
      "mediterranean": 3168,
      "..": 3169,
      "bar": 3170,
      "bad": 3171,
      "bab": 3172,
      "csme": 3173,
      "gone": 3174,
      "gli": 3175,
      "ified": 3176,
      "kod": 3177,
      "nfl": 3178,
      "om": 3179,
      "ois": 3180,
      "pto": 3181,
      "tx": 3182,
      "ties": 3183,
      "though": 3184,
      "ange": 3185,
      "inary": 3186,
      "isc": 3187,
      "aspe": 3188,
      "mesen": 3189,
      "ditory": 3190,
      "itic": 3191,
      "nel": 3192,
      "peel": 3193,
      "beg": 3194,
      "ticolor": 3195,
      "phyloma": 3196,
      "ged": 3197,
      "fundoscop": 3198,
      "persis": 3199,
      "subnormal": 3200,
      "elve": 3201,
      "achrome": 3202,
      "gene": 3203,
      "visit": 3204,
      "sient": 3205,
      "simul": 3206,
      "multicolor": 3207,
      "multispectral": 3208,
      "lym": 3209,
      "please": 3210,
      "hyperpigmented": 3211,
      "ophthalmoscop": 3212,
      "auditory": 3213,
      "neurosensory": 3214,
      "minton": 3215,
      "irvan": 3216,
      "staphyloma": 3217,
      "compared": 3218,
      "upper": 3219,
      "haz": 3220,
      "urinary": 3221,
      "cystic": 3222,
      "duct": 3223,
      "phosia": 3224,
      "nasally": 3225,
      "timeframe": 3226,
      "appearence": 3227,
      "circular": 3228,
      "partly": 3229,
      "twelve": 3230,
      "inferotemporally": 3231,
      "cerebro": 3232,
      "blot": 3233,
      "lights": 3234,
      "transient": 3235,
      "chest": 3236,
      "azathiopr": 3237,
      "funnel": 3238,
      "syphilitic": 3239,
      "fingers": 3240,
      "spontaneously": 3241,
      "attended": 3242,
      "superotemporally": 3243,
      "chymal": 3244,
      "difficulties": 3245,
      "metamorphosia": 3246,
      "ipated": 3247,
      "racquet": 3248,
      "anticipated": 3249,
      "organized": 3250,
      "struct": 3251,
      "suffers": 3252,
      "badminton": 3253,
      "baby": 3254,
      "gliosis": 3255,
      "kodachrome": 3256,
      "mesenchymal": 3257,
      "peeling": 3258,
      "ophthalmoscope": 3259,
      "cerebrovasculitis": 3260,
      "azathioprine": 3261,
      "kodachromes": 3262,
      "120": 3263,
      "230": 3264,
      "89": 3265,
      "aaf": 3266,
      "ator": 3267,
      "awa": 3268,
      "bance": 3269,
      "cap": 3270,
      "dra": 3271,
      "drain": 3272,
      "ece": 3273,
      "eman": 3274,
      "even": 3275,
      "equ": 3276,
      "foc": 3277,
      "fil": 3278,
      "gm": 3279,
      "gas": 3280,
      "gue": 3281,
      "jan": 3282,
      "lprednisone": 3283,
      "mer": 3284,
      "mme": 3285,
      "mou": 3286,
      "n3": 3287,
      "nature": 3288,
      "oth": 3289,
      "pac": 3290,
      "prom": 3291,
      "rther": 3292,
      "spl": 3293,
      "spread": 3294,
      "t3": 3295,
      "vity": 3296,
      "wre": 3297,
      "yne": 3298,
      "allow": 3299,
      "sec": 3300,
      "section": 3301,
      "another": 3302,
      "anae": 3303,
      "enia": 3304,
      "ina": 3305,
      "tiny": 3306,
      "ulin": 3307,
      "isting": 3308,
      "leg": 3309,
      "ider": 3310,
      "methy": 3311,
      "stop": 3312,
      "orid": 3313,
      "depart": 3314,
      "osite": 3315,
      "ical": 3316,
      "icted": 3317,
      "never": 3318,
      "bet": 3319,
      "because": 3320,
      "fundi": 3321,
      "clitis": 3322,
      "symme": 3323,
      "aden": 3324,
      "admit": 3325,
      "point": 3326,
      "ization": 3327,
      "existing": 3328,
      "doyne": 3329,
      "visits": 3330,
      "constr": 3331,
      "aml": 3332,
      "amic": 3333,
      "105": 3334,
      "resul": 3335,
      "larger": 3336,
      "laries": 3337,
      "patch": 3338,
      "uncorrected": 3339,
      "tionable": 3340,
      "distur": 3341,
      "disclosed": 3342,
      "verified": 3343,
      "tain": 3344,
      "estionable": 3345,
      "aug": 3346,
      "questionable": 3347,
      "further": 3348,
      "irid": 3349,
      "composite": 3350,
      "capillaries": 3351,
      "dots": 3352,
      "leated": 3353,
      "nonsmall": 3354,
      "hemangiomatosis": 3355,
      "inferiorly": 3356,
      "severely": 3357,
      "chemo": 3358,
      "plaque": 3359,
      "ocytop": 3360,
      "asym": 3361,
      "kerato": 3362,
      "although": 3363,
      "cinate": 3364,
      "gentlemen": 3365,
      "correction": 3366,
      "circinate": 3367,
      "consider": 3368,
      "shallow": 3369,
      "angina": 3370,
      "smooth": 3371,
      "pains": 3372,
      "insulin": 3373,
      "previously": 3374,
      "florid": 3375,
      "recorded": 3376,
      "attenuation": 3377,
      "minute": 3378,
      "litax": 3379,
      "flashing": 3380,
      "ppd": 3381,
      "pping": 3382,
      "conjunctiva": 3383,
      "tricort": 3384,
      "manifestation": 3385,
      "pupillary": 3386,
      "metamorphopsiae": 3387,
      "niece": 3388,
      "looks": 3389,
      "taxol": 3390,
      "thrombocytop": 3391,
      "barrier": 3392,
      "simultaneous": 3393,
      "lympho": 3394,
      "hazy": 3395,
      "drainage": 3396,
      "emanating": 3397,
      "equator": 3398,
      "foci": 3399,
      "merged": 3400,
      "paclitax": 3401,
      "promin": 3402,
      "wreath": 3403,
      "anaemia": 3404,
      "methylprednisone": 3405,
      "department": 3406,
      "symmetric": 3407,
      "admitted": 3408,
      "constricted": 3409,
      "disturbance": 3410,
      "keratoscleritis": 3411,
      "thrombocytopenia": 3412,
      "paclitaxel": 3413,
      ",(": 3414,
      "97": 3415,
      "frac": 3416,
      "ga": 3417,
      "hro": 3418,
      "imen": 3419,
      "kore": 3420,
      "lma": 3421,
      "nm": 3422,
      "nlp": 3423,
      "oag": 3424,
      "psc": 3425,
      "uous": 3426,
      "uction": 3427,
      "tire": 3428,
      "tissu": 3429,
      "alone": 3430,
      "arse": 3431,
      "reti": 3432,
      "reen": 3433,
      "thin": 3434,
      "entire": 3435,
      "ulcer": 3436,
      "opsy": 3437,
      "stron": 3438,
      "orange": 3439,
      "phs": 3440,
      "dex": 3441,
      "depigmented": 3442,
      "athing": 3443,
      "may": 3444,
      "mage": 3445,
      "mapping": 3446,
      "being": 3447,
      "screen": 3448,
      "lucent": 3449,
      "oplasma": 3450,
      "contig": 3451,
      "cover": 3452,
      "coarse": 3453,
      "biopsy": 3454,
      "damage": 3455,
      "toxoplasma": 3456,
      "disk": 3457,
      "reduction": 3458,
      "hyperpigmentation": 3459,
      "tras": 3460,
      "obvious": 3461,
      "sheathing": 3462,
      "lier": 3463,
      "about": 3464,
      "1997": 3465,
      "respond": 3466,
      "cord": 3467,
      "culation": 3468,
      "undergo": 3469,
      "undergone": 3470,
      "masked": 3471,
      "earlier": 3472,
      "cali": 3473,
      "mushro": 3474,
      "circulation": 3475,
      "spinal": 3476,
      "ches": 3477,
      "mediate": 3478,
      "specimen": 3479,
      "intermediate": 3480,
      "probably": 3481,
      "hypopyon": 3482,
      "demonstrated": 3483,
      "anticoag": 3484,
      "manifestations": 3485,
      "nail": 3486,
      "solid": 3487,
      "haemorrhage": 3488,
      "nodules": 3489,
      "cornea": 3490,
      "aspect": 3491,
      "begin": 3492,
      "persist": 3493,
      "genetic": 3494,
      "mouth": 3495,
      "lymphoma": 3496,
      "korean": 3497,
      "tissue": 3498,
      "ulcers": 3499
    },
    "merges": [
      [
        "t",
        "i"
      ],
      [
        "a",
        "l"
      ],
      [
        "a",
        "r"
      ],
      [
        "r",
        "e"
      ],
      [
        "t",
        "h"
      ],
      [
        "s",
        "e"
      ],
      [
        "t",
        "e"
      ],
      [
        "o",
        "l"
      ],
      [
        "y",
        "e"
      ],
      [
        "a",
        "n"
      ],
      [
        "r",
        "o"
      ],
      [
        "e",
        "n"
      ],
      [
        "o",
        "n"
      ],
      [
        "i",
        "n"
      ],
      [
        "ti",
        "n"
      ],
      [
        "ol",
        "d"
      ],
      [
        "re",
        "tin"
      ],
      [
        "ye",
        "ar"
      ],
      [
        "u",
        "l"
      ],
      [
        "a",
        "c"
      ],
      [
        "i",
        "s"
      ],
      [
        "2",
        "0"
      ],
      [
        "m",
        "al"
      ],
      [
        "en",
        "t"
      ],
      [
        "u",
        "s"
      ],
      [
        "o",
        "p"
      ],
      [
        "mal",
        "e"
      ],
      [
        "a",
        "s"
      ],
      [
        "e",
        "r"
      ],
      [
        "h",
        "o"
      ],
      [
        "i",
        "th"
      ],
      [
        "l",
        "e"
      ],
      [
        "ul",
        "ar"
      ],
      [
        "a",
        "ti"
      ],
      [
        "i",
        "d"
      ],
      [
        "v",
        "e"
      ],
      [
        "t",
        "o"
      ],
      [
        "w",
        "ith"
      ],
      [
        "o",
        "f"
      ],
      [
        "se",
        "p"
      ],
      [
        "h",
        "i"
      ],
      [
        "m",
        "e"
      ],
      [
        "s",
        "t"
      ],
      [
        "retin",
        "al"
      ],
      [
        "o",
        "r"
      ],
      [
        "f",
        "e"
      ],
      [
        "p",
        "h"
      ],
      [
        "i",
        "g"
      ],
      [
        "w",
        "hi"
      ],
      [
        "d",
        "e"
      ],
      [
        "a",
        "th"
      ],
      [
        "o",
        "c"
      ],
      [
        "whi",
        "te"
      ],
      [
        "op",
        "ath"
      ],
      [
        "m",
        "ac"
      ],
      [
        "an",
        "d"
      ],
      [
        "te",
        "r"
      ],
      [
        "n",
        "d"
      ],
      [
        "m",
        "a"
      ],
      [
        "fe",
        "male"
      ],
      [
        "o",
        "s"
      ],
      [
        "e",
        "ye"
      ],
      [
        "opath",
        "y"
      ],
      [
        "ati",
        "on"
      ],
      [
        "l",
        "a"
      ],
      [
        "d",
        "i"
      ],
      [
        "m",
        "ent"
      ],
      [
        "i",
        "ti"
      ],
      [
        "i",
        "c"
      ],
      [
        "th",
        "e"
      ],
      [
        "ro",
        "id"
      ],
      [
        "n",
        "v"
      ],
      [
        "c",
        "ho"
      ],
      [
        "s",
        "u"
      ],
      [
        "r",
        "a"
      ],
      [
        "cho",
        "roid"
      ],
      [
        "n",
        "e"
      ],
      [
        "p",
        "e"
      ],
      [
        "iti",
        "s"
      ],
      [
        "g",
        "i"
      ],
      [
        "a",
        "t"
      ],
      [
        "b",
        "e"
      ],
      [
        "ti",
        "c"
      ],
      [
        "mac",
        "ular"
      ],
      [
        "s",
        "c"
      ],
      [
        "i",
        "on"
      ],
      [
        "retin",
        "opathy"
      ],
      [
        "ph",
        "y"
      ],
      [
        "s",
        "r"
      ],
      [
        "h",
        "e"
      ],
      [
        "v",
        "as"
      ],
      [
        "u",
        "nd"
      ],
      [
        "c",
        "h"
      ],
      [
        "vas",
        "c"
      ],
      [
        "g",
        "e"
      ],
      [
        "ro",
        "phy"
      ],
      [
        "an",
        "gi"
      ],
      [
        "d",
        "y"
      ],
      [
        "b",
        "r"
      ],
      [
        "in",
        "g"
      ],
      [
        "c",
        "ent"
      ],
      [
        "r",
        "al"
      ],
      [
        "p",
        "ig"
      ],
      [
        "g",
        "ra"
      ],
      [
        "vasc",
        "ular"
      ],
      [
        "f",
        "und"
      ],
      [
        "cent",
        "ral"
      ],
      [
        "fund",
        "us"
      ],
      [
        "i",
        "t"
      ],
      [
        "h",
        "t"
      ],
      [
        "i",
        "l"
      ],
      [
        "te",
        "d"
      ],
      [
        "f",
        "t"
      ],
      [
        "ig",
        "ht"
      ],
      [
        "sr",
        "nv"
      ],
      [
        "p",
        "er"
      ],
      [
        "choroid",
        "al"
      ],
      [
        "a",
        "se"
      ],
      [
        "c",
        "l"
      ],
      [
        "ne",
        "o"
      ],
      [
        "angi",
        "o"
      ],
      [
        "s",
        "y"
      ],
      [
        "neo",
        "vascular"
      ],
      [
        "dy",
        "st"
      ],
      [
        "dyst",
        "rophy"
      ],
      [
        "su",
        "b"
      ],
      [
        "h",
        "is"
      ],
      [
        "se",
        "n"
      ],
      [
        "le",
        "ft"
      ],
      [
        "pig",
        "ment"
      ],
      [
        "p",
        "ho"
      ],
      [
        "p",
        "re"
      ],
      [
        "r",
        "ight"
      ],
      [
        "a",
        "d"
      ],
      [
        "e",
        "l"
      ],
      [
        "br",
        "an"
      ],
      [
        "ac",
        "h"
      ],
      [
        "l",
        "as"
      ],
      [
        "d",
        "r"
      ],
      [
        "i",
        "a"
      ],
      [
        "m",
        "d"
      ],
      [
        "di",
        "a"
      ],
      [
        "de",
        "t"
      ],
      [
        "pho",
        "to"
      ],
      [
        "ach",
        "ment"
      ],
      [
        "det",
        "achment"
      ],
      [
        "ro",
        "me"
      ],
      [
        "nd",
        "rome"
      ],
      [
        "sy",
        "ndrome"
      ],
      [
        "l",
        "u"
      ],
      [
        "p",
        "o"
      ],
      [
        "ro",
        "us"
      ],
      [
        "p",
        "ati"
      ],
      [
        "pati",
        "ent"
      ],
      [
        "se",
        "rous"
      ],
      [
        "i",
        "z"
      ],
      [
        "g",
        "en"
      ],
      [
        "os",
        "is"
      ],
      [
        "us",
        "ion"
      ],
      [
        "se",
        "ase"
      ],
      [
        "di",
        "sease"
      ],
      [
        "e",
        "d"
      ],
      [
        "oc",
        "cl"
      ],
      [
        "dia",
        "be"
      ],
      [
        "v",
        "o"
      ],
      [
        "pe",
        "d"
      ],
      [
        "a",
        "p"
      ],
      [
        "o",
        "u"
      ],
      [
        "c",
        "nv"
      ],
      [
        "m",
        "p"
      ],
      [
        "occl",
        "usion"
      ],
      [
        "e",
        "x"
      ],
      [
        "20",
        "0"
      ],
      [
        "neovascular",
        "iz"
      ],
      [
        "sub",
        "retinal"
      ],
      [
        "neovasculariz",
        "ation"
      ],
      [
        "retin",
        "itis"
      ],
      [
        "o",
        "us"
      ],
      [
        "d",
        "o"
      ],
      [
        "diabe",
        "tic"
      ],
      [
        "s",
        "ho"
      ],
      [
        "v",
        "is"
      ],
      [
        "s",
        "i"
      ],
      [
        "m",
        "osis"
      ],
      [
        "e",
        "p"
      ],
      [
        "op",
        "las"
      ],
      [
        "oplas",
        "mosis"
      ],
      [
        "f",
        "lu"
      ],
      [
        "c",
        "e"
      ],
      [
        "c",
        "on"
      ],
      [
        "ol",
        "e"
      ],
      [
        "cnv",
        "m"
      ],
      [
        "c",
        "o"
      ],
      [
        "o",
        "re"
      ],
      [
        "r",
        "y"
      ],
      [
        "m",
        "ul"
      ],
      [
        "la",
        "ter"
      ],
      [
        "n",
        "o"
      ],
      [
        "mul",
        "ti"
      ],
      [
        "l",
        "o"
      ],
      [
        "he",
        "m"
      ],
      [
        "k",
        "s"
      ],
      [
        "f",
        "or"
      ],
      [
        "ve",
        "in"
      ],
      [
        "dr",
        "u"
      ],
      [
        "a",
        "ge"
      ],
      [
        "2",
        "5"
      ],
      [
        "dru",
        "sen"
      ],
      [
        "sho",
        "w"
      ],
      [
        "p",
        "r"
      ],
      [
        "l",
        "y"
      ],
      [
        "ith",
        "el"
      ],
      [
        "ep",
        "ithel"
      ],
      [
        "epithel",
        "i"
      ],
      [
        "3",
        "0"
      ],
      [
        "f",
        "er"
      ],
      [
        "ter",
        "n"
      ],
      [
        "ore",
        "sc"
      ],
      [
        "later",
        "al"
      ],
      [
        "gen",
        "er"
      ],
      [
        "bran",
        "ch"
      ],
      [
        "b",
        "i"
      ],
      [
        "a",
        "m"
      ],
      [
        "de",
        "gener"
      ],
      [
        "degener",
        "ation"
      ],
      [
        "ol",
        "i"
      ],
      [
        "flu",
        "oresc"
      ],
      [
        "oc",
        "ular"
      ],
      [
        "photo",
        "gra"
      ],
      [
        "ac",
        "u"
      ],
      [
        "m",
        "an"
      ],
      [
        "mac",
        "ul"
      ],
      [
        "c",
        "ol"
      ],
      [
        "h",
        "ole"
      ],
      [
        "4",
        "0"
      ],
      [
        "photogra",
        "ph"
      ],
      [
        "w",
        "as"
      ],
      [
        "ati",
        "ve"
      ],
      [
        "c",
        "t"
      ],
      [
        "1",
        "0"
      ],
      [
        "re",
        "s"
      ],
      [
        "his",
        "t"
      ],
      [
        "l",
        "ar"
      ],
      [
        "o",
        "d"
      ],
      [
        "l",
        "in"
      ],
      [
        "p",
        "at"
      ],
      [
        "h",
        "s"
      ],
      [
        "ap",
        "il"
      ],
      [
        "po",
        "hs"
      ],
      [
        "o",
        "ma"
      ],
      [
        "op",
        "tic"
      ],
      [
        "per",
        "i"
      ],
      [
        "f",
        "o"
      ],
      [
        "pat",
        "tern"
      ],
      [
        "m",
        "y"
      ],
      [
        "be",
        "st"
      ],
      [
        "5",
        "0"
      ],
      [
        "hist",
        "oplasmosis"
      ],
      [
        "u",
        "n"
      ],
      [
        "h",
        "y"
      ],
      [
        "angio",
        "gra"
      ],
      [
        "ve",
        "al"
      ],
      [
        "re",
        "a"
      ],
      [
        "d",
        "a"
      ],
      [
        "f",
        "i"
      ],
      [
        "c",
        "sr"
      ],
      [
        "ti",
        "on"
      ],
      [
        "vis",
        "ion"
      ],
      [
        "w",
        "e"
      ],
      [
        "pre",
        "su"
      ],
      [
        "me",
        "m"
      ],
      [
        "me",
        "d"
      ],
      [
        "to",
        "x"
      ],
      [
        "te",
        "n"
      ],
      [
        "d",
        "t"
      ],
      [
        "presu",
        "med"
      ],
      [
        "acu",
        "te"
      ],
      [
        "b",
        "o"
      ],
      [
        "s",
        "ion"
      ],
      [
        "mem",
        "bran"
      ],
      [
        "membran",
        "e"
      ],
      [
        "lo",
        "w"
      ],
      [
        "se",
        "r"
      ],
      [
        "to",
        "ma"
      ],
      [
        "st",
        "ar"
      ],
      [
        "v",
        "i"
      ],
      [
        "oli",
        "fer"
      ],
      [
        "pr",
        "olifer"
      ],
      [
        "bi",
        "lateral"
      ],
      [
        "d",
        "is"
      ],
      [
        "h",
        "ar"
      ],
      [
        "si",
        "ve"
      ],
      [
        ")",
        "."
      ],
      [
        "an",
        "e"
      ],
      [
        "my",
        "op"
      ],
      [
        "ad",
        "a"
      ],
      [
        "show",
        "s"
      ],
      [
        "har",
        "ada"
      ],
      [
        "prolifer",
        "ative"
      ],
      [
        "i",
        "ma"
      ],
      [
        "ter",
        "i"
      ],
      [
        "fluoresc",
        "e"
      ],
      [
        "c",
        "u"
      ],
      [
        "col",
        "or"
      ],
      [
        "pre",
        "sen"
      ],
      [
        "r",
        "h"
      ],
      [
        "me",
        "l"
      ],
      [
        "fluoresce",
        "in"
      ],
      [
        "p",
        "os"
      ],
      [
        "te",
        "l"
      ],
      [
        "oc",
        "al"
      ],
      [
        "angio",
        "id"
      ],
      [
        "p",
        "apil"
      ],
      [
        "de",
        "ma"
      ],
      [
        "sc",
        "ar"
      ],
      [
        "re",
        "d"
      ],
      [
        "le",
        "sion"
      ],
      [
        "n",
        "er"
      ],
      [
        "7",
        "0"
      ],
      [
        "f",
        "ocal"
      ],
      [
        "p",
        "le"
      ],
      [
        "f",
        "a"
      ],
      [
        "f",
        "la"
      ],
      [
        "epitheli",
        "al"
      ],
      [
        "p",
        "se"
      ],
      [
        "pse",
        "u"
      ],
      [
        "r",
        "i"
      ],
      [
        "pseu",
        "do"
      ],
      [
        "angiogra",
        "m"
      ],
      [
        "hy",
        "per"
      ],
      [
        "m",
        "ia"
      ],
      [
        "or",
        "rh"
      ],
      [
        "orrh",
        "age"
      ],
      [
        "v",
        "er"
      ],
      [
        "fo",
        "veal"
      ],
      [
        "s",
        "is"
      ],
      [
        "ac",
        "k"
      ],
      [
        "r",
        "pe"
      ],
      [
        "multi",
        "ple"
      ],
      [
        "hem",
        "orrhage"
      ],
      [
        "is",
        "is"
      ],
      [
        "os",
        "ch"
      ],
      [
        "osch",
        "isis"
      ],
      [
        "ima",
        "ge"
      ],
      [
        "a",
        "of"
      ],
      [
        "aof",
        "ped"
      ],
      [
        "t",
        "u"
      ],
      [
        "m",
        "on"
      ],
      [
        "b",
        "le"
      ],
      [
        "an",
        "t"
      ],
      [
        "g",
        "ar"
      ],
      [
        "star",
        "gar"
      ],
      [
        "stargar",
        "dt"
      ],
      [
        "w",
        "o"
      ],
      [
        "oc",
        "t"
      ],
      [
        "u",
        "al"
      ],
      [
        "mel",
        "an"
      ],
      [
        "choroid",
        "itis"
      ],
      [
        "a",
        "f"
      ],
      [
        "multi",
        "focal"
      ],
      [
        "e",
        "ct"
      ],
      [
        "angi",
        "ect"
      ],
      [
        "tel",
        "angiect"
      ],
      [
        "t",
        "a"
      ],
      [
        "v",
        "a"
      ],
      [
        "it",
        "y"
      ],
      [
        "lar",
        "y"
      ],
      [
        "b",
        "vo"
      ],
      [
        "e",
        "dema"
      ],
      [
        "dis",
        "c"
      ],
      [
        "telangiect",
        "as"
      ],
      [
        "ar",
        "e"
      ],
      [
        "retin",
        "oschisis"
      ],
      [
        "ex",
        "u"
      ],
      [
        "at",
        "rophy"
      ],
      [
        "t",
        "y"
      ],
      [
        "v",
        "it"
      ],
      [
        "os",
        "a"
      ],
      [
        "br",
        "vo"
      ],
      [
        "pigment",
        "osa"
      ],
      [
        "rea",
        "ks"
      ],
      [
        "v",
        "en"
      ],
      [
        "t",
        "ra"
      ],
      [
        "h",
        "ad"
      ],
      [
        "al",
        "m"
      ],
      [
        "vit",
        "re"
      ],
      [
        "tin",
        "g"
      ],
      [
        "e",
        "s"
      ],
      [
        "th",
        "er"
      ],
      [
        "ro",
        "m"
      ],
      [
        "st",
        "reaks"
      ],
      [
        "u",
        "ro"
      ],
      [
        "ten",
        "sive"
      ],
      [
        "ner",
        "ve"
      ],
      [
        "j",
        "u"
      ],
      [
        "re",
        "n"
      ],
      [
        "on",
        "e"
      ],
      [
        "th",
        "alm"
      ],
      [
        "t",
        "r"
      ],
      [
        "d",
        "s"
      ],
      [
        "an",
        "ti"
      ],
      [
        "e",
        "re"
      ],
      [
        "s",
        "m"
      ],
      [
        "u",
        "m"
      ],
      [
        "choroid",
        "ere"
      ],
      [
        "choroidere",
        "mia"
      ],
      [
        "o",
        "b"
      ],
      [
        "f",
        "rom"
      ],
      [
        "op",
        "h"
      ],
      [
        "id",
        "i"
      ],
      [
        "opath",
        "ic"
      ],
      [
        "idi",
        "opathic"
      ],
      [
        "v",
        "us"
      ],
      [
        "me",
        "w"
      ],
      [
        "ne",
        "vus"
      ],
      [
        "10",
        "0"
      ],
      [
        "mon",
        "th"
      ],
      [
        "in",
        "ous"
      ],
      [
        "tox",
        "oplasmosis"
      ],
      [
        "melan",
        "oma"
      ],
      [
        "mew",
        "ds"
      ],
      [
        "teri",
        "or"
      ],
      [
        "vis",
        "ual"
      ],
      [
        "te",
        "ar"
      ],
      [
        "b",
        "er"
      ],
      [
        "1",
        "5"
      ],
      [
        "oph",
        "thalm"
      ],
      [
        "at",
        "us"
      ],
      [
        "a",
        "u"
      ],
      [
        "f",
        "old"
      ],
      [
        "f",
        "ol"
      ],
      [
        "wo",
        "man"
      ],
      [
        "fol",
        "low"
      ],
      [
        "ic",
        "sc"
      ],
      [
        "en",
        "d"
      ],
      [
        "tic",
        "ular"
      ],
      [
        "we",
        "e"
      ],
      [
        "s",
        "te"
      ],
      [
        "s",
        "he"
      ],
      [
        "myop",
        "ic"
      ],
      [
        "af",
        "ter"
      ],
      [
        "con",
        "e"
      ],
      [
        "n",
        "or"
      ],
      [
        "p",
        "an"
      ],
      [
        "q",
        "u"
      ],
      [
        "hem",
        "angio"
      ],
      [
        "nor",
        "mal"
      ],
      [
        "l",
        "i"
      ],
      [
        "to",
        "ry"
      ],
      [
        "b",
        "l"
      ],
      [
        "ane",
        "u"
      ],
      [
        "c",
        "m"
      ],
      [
        "ry",
        "sm"
      ],
      [
        "aneu",
        "rysm"
      ],
      [
        "en",
        "ce"
      ],
      [
        "la",
        "dy"
      ],
      [
        "peri",
        "ph"
      ],
      [
        "ne",
        "uro"
      ],
      [
        "m",
        "o"
      ],
      [
        "ar",
        "md"
      ],
      [
        "c",
        "y"
      ],
      [
        "h",
        "er"
      ],
      [
        "m",
        "in"
      ],
      [
        "vasc",
        "ul"
      ],
      [
        "te",
        "s"
      ],
      [
        "6",
        "0"
      ],
      [
        "or",
        "al"
      ],
      [
        "ar",
        "ter"
      ],
      [
        "year",
        "s"
      ],
      [
        "ge",
        "s"
      ],
      [
        "macul",
        "a"
      ],
      [
        "res",
        "ol"
      ],
      [
        "las",
        "toma"
      ],
      [
        "his",
        "tory"
      ],
      [
        "d",
        "us"
      ],
      [
        "dus",
        "n"
      ],
      [
        "p",
        "ic"
      ],
      [
        "bo",
        "th"
      ],
      [
        "it",
        "al"
      ],
      [
        "s",
        "o"
      ],
      [
        "th",
        "is"
      ],
      [
        "bl",
        "ack"
      ],
      [
        "periph",
        "er"
      ],
      [
        "i",
        "mp"
      ],
      [
        "p",
        "on"
      ],
      [
        "as",
        "al"
      ],
      [
        "se",
        "d"
      ],
      [
        "ro",
        "aneurysm"
      ],
      [
        "a",
        "b"
      ],
      [
        "th",
        "at"
      ],
      [
        "ve",
        "d"
      ],
      [
        "eye",
        "s"
      ],
      [
        "wee",
        "ks"
      ],
      [
        "da",
        "u"
      ],
      [
        "fla",
        "vi"
      ],
      [
        "hi",
        "p"
      ],
      [
        "e",
        "v"
      ],
      [
        "his",
        "pan"
      ],
      [
        "hispan",
        "ic"
      ],
      [
        "gen",
        "ital"
      ],
      [
        "con",
        "genital"
      ],
      [
        "3",
        "2"
      ],
      [
        "v",
        "on"
      ],
      [
        "pe",
        "l"
      ],
      [
        "cu",
        "ticular"
      ],
      [
        "hip",
        "pel"
      ],
      [
        "si",
        "x"
      ],
      [
        "f",
        "am"
      ],
      [
        "la",
        "ser"
      ],
      [
        "lin",
        "dau"
      ],
      [
        "fam",
        "il"
      ],
      [
        "m",
        "ic"
      ],
      [
        "as",
        "s"
      ],
      [
        "macul",
        "opathy"
      ],
      [
        "telangiectas",
        "ia"
      ],
      [
        "h",
        "as"
      ],
      [
        "c",
        "tion"
      ],
      [
        "ophthalm",
        "itis"
      ],
      [
        "end",
        "ophthalmitis"
      ],
      [
        "6",
        "6"
      ],
      [
        "macul",
        "atus"
      ],
      [
        "flavi",
        "maculatus"
      ],
      [
        "ol",
        "ar"
      ],
      [
        "a",
        "md"
      ],
      [
        "ti",
        "ve"
      ],
      [
        "b",
        "in"
      ],
      [
        "pos",
        "terior"
      ],
      [
        "o",
        "id"
      ],
      [
        "choroid",
        "opathy"
      ],
      [
        "exu",
        "da"
      ],
      [
        "f",
        "u"
      ],
      [
        "mac",
        "roaneurysm"
      ],
      [
        "p",
        "ro"
      ],
      [
        "p",
        "ar"
      ],
      [
        "pig",
        "inous"
      ],
      [
        "ser",
        "piginous"
      ],
      [
        "in",
        "e"
      ],
      [
        "cm",
        "v"
      ],
      [
        "i",
        "le"
      ],
      [
        "presen",
        "ted"
      ],
      [
        "f",
        "le"
      ],
      [
        "i",
        "r"
      ],
      [
        "lin",
        "e"
      ],
      [
        "ar",
        "y"
      ],
      [
        "month",
        "s"
      ],
      [
        "st",
        "a"
      ],
      [
        "vitre",
        "ous"
      ],
      [
        "p",
        "dr"
      ],
      [
        "ro",
        "n"
      ],
      [
        "k",
        "ed"
      ],
      [
        "2",
        "8"
      ],
      [
        "4",
        "6"
      ],
      [
        "te",
        "mp"
      ],
      [
        "myop",
        "ia"
      ],
      [
        "neuro",
        "retinitis"
      ],
      [
        "temp",
        "oral"
      ],
      [
        "fle",
        "c"
      ],
      [
        "p",
        "hi"
      ],
      [
        "ri",
        "o"
      ],
      [
        "cho",
        "rio"
      ],
      [
        "co",
        "mp"
      ],
      [
        "epitheli",
        "um"
      ],
      [
        "ex",
        "tensive"
      ],
      [
        "y",
        "an"
      ],
      [
        "lesion",
        "s"
      ],
      [
        "fold",
        "s"
      ],
      [
        "follow",
        "ing"
      ],
      [
        "u",
        "p"
      ],
      [
        "u",
        "ve"
      ],
      [
        "uve",
        "itis"
      ],
      [
        "retin",
        "a"
      ],
      [
        "fluoresc",
        "ence"
      ],
      [
        "u",
        "t"
      ],
      [
        "as",
        "t"
      ],
      [
        "presen",
        "t"
      ],
      [
        "tr",
        "ac"
      ],
      [
        "p",
        "l"
      ],
      [
        "c",
        "apil"
      ],
      [
        "papil",
        "lary"
      ],
      [
        "m",
        "ation"
      ],
      [
        "po",
        "st"
      ],
      [
        "ap",
        "y"
      ],
      [
        "peri",
        "papillary"
      ],
      [
        "ther",
        "apy"
      ],
      [
        "8",
        "0"
      ],
      [
        "o",
        "g"
      ],
      [
        "t",
        "rea"
      ],
      [
        "he",
        "re"
      ],
      [
        "do",
        "t"
      ],
      [
        "trea",
        "ted"
      ],
      [
        "c",
        "ry"
      ],
      [
        "ra",
        "di"
      ],
      [
        "arter",
        "y"
      ],
      [
        "le",
        "a"
      ],
      [
        "capil",
        "lary"
      ],
      [
        "6",
        "4"
      ],
      [
        "h",
        "a"
      ],
      [
        "vascul",
        "itis"
      ],
      [
        "u",
        "ma"
      ],
      [
        "re",
        "veal"
      ],
      [
        "se",
        "l"
      ],
      [
        "r",
        "d"
      ],
      [
        "ve",
        "s"
      ],
      [
        "n",
        "on"
      ],
      [
        "di",
        "f"
      ],
      [
        "cu",
        "r"
      ],
      [
        "de",
        "c"
      ],
      [
        "la",
        "ted"
      ],
      [
        "six",
        "ty"
      ],
      [
        "l",
        "itis"
      ],
      [
        "1",
        "9"
      ],
      [
        "lar",
        "ge"
      ],
      [
        "2",
        "9"
      ],
      [
        "a",
        "gi"
      ],
      [
        "g",
        "t"
      ],
      [
        "k",
        "o"
      ],
      [
        "vo",
        "gt"
      ],
      [
        "yan",
        "agi"
      ],
      [
        "ko",
        "yanagi"
      ],
      [
        "i",
        "or"
      ],
      [
        "ro",
        "sis"
      ],
      [
        "oc",
        "ia"
      ],
      [
        "el",
        "l"
      ],
      [
        "res",
        "pon"
      ],
      [
        "angiogra",
        "phy"
      ],
      [
        "ass",
        "ocia"
      ],
      [
        "su",
        "r"
      ],
      [
        "associa",
        "ted"
      ],
      [
        "ch",
        "ron"
      ],
      [
        "ex",
        "am"
      ],
      [
        "chron",
        "ic"
      ],
      [
        "1",
        "3"
      ],
      [
        "el",
        "d"
      ],
      [
        "lin",
        "ked"
      ],
      [
        "ch",
        "an"
      ],
      [
        "f",
        "in"
      ],
      [
        "sc",
        "ent"
      ],
      [
        "ane",
        "scent"
      ],
      [
        "ev",
        "anescent"
      ],
      [
        "bo",
        "y"
      ],
      [
        "au",
        "to"
      ],
      [
        "5",
        "5"
      ],
      [
        "u",
        "r"
      ],
      [
        "ou",
        "ter"
      ],
      [
        "mp",
        "pe"
      ],
      [
        "m",
        "il"
      ],
      [
        "co",
        "m"
      ],
      [
        "ju",
        "x"
      ],
      [
        "pl",
        "ac"
      ],
      [
        "jux",
        "ta"
      ],
      [
        "the",
        "re"
      ],
      [
        "hemangio",
        "ma"
      ],
      [
        "plac",
        "oid"
      ],
      [
        "c",
        "an"
      ],
      [
        "to",
        "m"
      ],
      [
        "i",
        "lateral"
      ],
      [
        "acu",
        "ity"
      ],
      [
        "un",
        "ilateral"
      ],
      [
        "radi",
        "ation"
      ],
      [
        "ves",
        "sel"
      ],
      [
        "ste",
        "roid"
      ],
      [
        "o",
        "ver"
      ],
      [
        "in",
        "fla"
      ],
      [
        "tu",
        "re"
      ],
      [
        "exu",
        "d"
      ],
      [
        "infla",
        "m"
      ],
      [
        "re",
        "cur"
      ],
      [
        "ig",
        "n"
      ],
      [
        "papil",
        "litis"
      ],
      [
        "re",
        "lated"
      ],
      [
        "hyper",
        "tensive"
      ],
      [
        "b",
        "ac"
      ],
      [
        "an",
        "ce"
      ],
      [
        "cy",
        "s"
      ],
      [
        "steroid",
        "s"
      ],
      [
        "s",
        "s"
      ],
      [
        "fu",
        "se"
      ],
      [
        "la",
        "te"
      ],
      [
        "telangiectas",
        "is"
      ],
      [
        "dif",
        "fuse"
      ],
      [
        "to",
        "id"
      ],
      [
        "4",
        "7"
      ],
      [
        "g",
        "ro"
      ],
      [
        "to",
        "r"
      ],
      [
        "peripher",
        "al"
      ],
      [
        "famil",
        "y"
      ],
      [
        "b",
        "ack"
      ],
      [
        "i",
        "al"
      ],
      [
        "ic",
        "ity"
      ],
      [
        "tox",
        "icity"
      ],
      [
        "vi",
        "r"
      ],
      [
        "flec",
        "ks"
      ],
      [
        "ven",
        "ile"
      ],
      [
        "ju",
        "venile"
      ],
      [
        "l",
        "low"
      ],
      [
        "w",
        "or"
      ],
      [
        "retin",
        "ob"
      ],
      [
        "juxta",
        "foveal"
      ],
      [
        "recur",
        "ren"
      ],
      [
        "cys",
        "toid"
      ],
      [
        "retinob",
        "lastoma"
      ],
      [
        "ph",
        "ase"
      ],
      [
        "la",
        "in"
      ],
      [
        "2",
        "4"
      ],
      [
        "me",
        "t"
      ],
      [
        "st",
        "al"
      ],
      [
        "ra",
        "o"
      ],
      [
        "we",
        "re"
      ],
      [
        "comp",
        "lain"
      ],
      [
        "cry",
        "stal"
      ],
      [
        "c",
        "r"
      ],
      [
        "t",
        "s"
      ],
      [
        "mp",
        "tom"
      ],
      [
        "fo",
        "ve"
      ],
      [
        "exud",
        "ative"
      ],
      [
        "inflam",
        "mation"
      ],
      [
        "g",
        "er"
      ],
      [
        "l",
        "l"
      ],
      [
        "w",
        "n"
      ],
      [
        "se",
        "en"
      ],
      [
        "in",
        "tra"
      ],
      [
        "ac",
        "tive"
      ],
      [
        "phi",
        "c"
      ],
      [
        "o",
        "vir"
      ],
      [
        "p",
        "dt"
      ],
      [
        "5",
        "3"
      ],
      [
        "h",
        "am"
      ],
      [
        "ar",
        "toma"
      ],
      [
        "lea",
        "k"
      ],
      [
        "ham",
        "artoma"
      ],
      [
        "b",
        "ut"
      ],
      [
        "nv",
        "d"
      ],
      [
        "re",
        "e"
      ],
      [
        "re",
        "ase"
      ],
      [
        "1",
        "2"
      ],
      [
        "6",
        "8"
      ],
      [
        "m",
        "en"
      ],
      [
        "s",
        "us"
      ],
      [
        "p",
        "c"
      ],
      [
        "epitheli",
        "opathy"
      ],
      [
        "a",
        "te"
      ],
      [
        "a",
        "ted"
      ],
      [
        "j",
        "e"
      ],
      [
        "in",
        "je"
      ],
      [
        "sub",
        "acute"
      ],
      [
        "d",
        "ing"
      ],
      [
        "i",
        "i"
      ],
      [
        "in",
        "f"
      ],
      [
        "ol",
        "og"
      ],
      [
        "p",
        "id"
      ],
      [
        "inje",
        "ction"
      ],
      [
        "b",
        "lu"
      ],
      [
        "i",
        "an"
      ],
      [
        "u",
        "c"
      ],
      [
        "tic",
        "e"
      ],
      [
        "tra",
        "uma"
      ],
      [
        "5",
        "2"
      ],
      [
        "imp",
        "ro"
      ],
      [
        "w",
        "ho"
      ],
      [
        "in",
        "fer"
      ],
      [
        "ou",
        "t"
      ],
      [
        "infer",
        "ior"
      ],
      [
        "ar",
        "teri"
      ],
      [
        "dec",
        "rease"
      ],
      [
        "c",
        "or"
      ],
      [
        "m",
        "id"
      ],
      [
        "m",
        "ri"
      ],
      [
        "la",
        "min"
      ],
      [
        "gi",
        "ant"
      ],
      [
        "lamin",
        "ar"
      ],
      [
        "b",
        "asal"
      ],
      [
        "w",
        "ell"
      ],
      [
        "he",
        "ad"
      ],
      [
        "4",
        "9"
      ],
      [
        "ent",
        "y"
      ],
      [
        "id",
        "e"
      ],
      [
        "c",
        "ted"
      ],
      [
        "present",
        "ation"
      ],
      [
        "se",
        "ve"
      ],
      [
        "is",
        "m"
      ],
      [
        "ho",
        "roid"
      ],
      [
        "su",
        "pr"
      ],
      [
        "seve",
        "re"
      ],
      [
        "horoid",
        "al"
      ],
      [
        "c",
        "au"
      ],
      [
        "d",
        "u"
      ],
      [
        "pos",
        "iti"
      ],
      [
        "g",
        "o"
      ],
      [
        "ha",
        "ve"
      ],
      [
        "sur",
        "ger"
      ],
      [
        "3",
        "5"
      ],
      [
        "c",
        "me"
      ],
      [
        "do",
        "macular"
      ],
      [
        "sho",
        "t"
      ],
      [
        "bi",
        "rd"
      ],
      [
        "here",
        "domacular"
      ],
      [
        "bird",
        "shot"
      ],
      [
        "7",
        "2"
      ],
      [
        "ac",
        "horoidal"
      ],
      [
        "pho",
        "s"
      ],
      [
        "cr",
        "vo"
      ],
      [
        "supr",
        "achoroidal"
      ],
      [
        "5",
        "6"
      ],
      [
        "k",
        "h"
      ],
      [
        "p",
        "un"
      ],
      [
        "v",
        "kh"
      ],
      [
        "fi",
        "eld"
      ],
      [
        "show",
        "ing"
      ],
      [
        "ven",
        "ous"
      ],
      [
        "e",
        "t"
      ],
      [
        "ou",
        "r"
      ],
      [
        "tern",
        "al"
      ],
      [
        "exuda",
        "tes"
      ],
      [
        "i",
        "v"
      ],
      [
        "s",
        "in"
      ],
      [
        "ter",
        "m"
      ],
      [
        "os",
        "te"
      ],
      [
        "show",
        "ed"
      ],
      [
        "reveal",
        "ed"
      ],
      [
        "1",
        "6"
      ],
      [
        "c",
        "a"
      ],
      [
        "c",
        "ul"
      ],
      [
        "c",
        "hem"
      ],
      [
        "hemangio",
        "b"
      ],
      [
        "chan",
        "ges"
      ],
      [
        "recurren",
        "t"
      ],
      [
        "sin",
        "ce"
      ],
      [
        "oste",
        "oma"
      ],
      [
        "al",
        "bin"
      ],
      [
        "co",
        "ma"
      ],
      [
        "m",
        "ye"
      ],
      [
        "p",
        "la"
      ],
      [
        "ph",
        "oli"
      ],
      [
        "anti",
        "phos"
      ],
      [
        "pla",
        "qu"
      ],
      [
        "pholi",
        "pid"
      ],
      [
        "antiphos",
        "pholipid"
      ],
      [
        "6",
        "5"
      ],
      [
        "8",
        "1"
      ],
      [
        "i",
        "f"
      ],
      [
        "m",
        "ar"
      ],
      [
        "u",
        "tion"
      ],
      [
        "ul",
        "l"
      ],
      [
        "n",
        "asal"
      ],
      [
        "ati",
        "c"
      ],
      [
        "albin",
        "ism"
      ],
      [
        "resol",
        "ved"
      ],
      [
        "gro",
        "und"
      ],
      [
        "back",
        "ground"
      ],
      [
        "gen",
        "ous"
      ],
      [
        "flu",
        "id"
      ],
      [
        "k",
        "no"
      ],
      [
        "p",
        "it"
      ],
      [
        "no",
        "t"
      ],
      [
        "kno",
        "wn"
      ],
      [
        "d",
        "id"
      ],
      [
        "le",
        "ber"
      ],
      [
        "du",
        "e"
      ],
      [
        "pun",
        "ct"
      ],
      [
        "g",
        "f"
      ],
      [
        "h",
        "d"
      ],
      [
        "v",
        "enty"
      ],
      [
        "se",
        "bac"
      ],
      [
        "se",
        "venty"
      ],
      [
        "as",
        "ian"
      ],
      [
        "ve",
        "gf"
      ],
      [
        "ft",
        "y"
      ],
      [
        "no",
        "ted"
      ],
      [
        "fi",
        "fty"
      ],
      [
        "hemangiob",
        "lastoma"
      ],
      [
        "sebac",
        "e"
      ],
      [
        "b",
        "y"
      ],
      [
        "g",
        "h"
      ],
      [
        "en",
        "il"
      ],
      [
        "de",
        "d"
      ],
      [
        "at",
        "u"
      ],
      [
        "plaqu",
        "enil"
      ],
      [
        "c",
        "sc"
      ],
      [
        "t",
        "tice"
      ],
      [
        "la",
        "ttice"
      ],
      [
        "ap",
        "mppe"
      ],
      [
        "resol",
        "ution"
      ],
      [
        "com",
        "bin"
      ],
      [
        "surger",
        "y"
      ],
      [
        "hd",
        "pe"
      ],
      [
        "csc",
        "r"
      ],
      [
        "6",
        "7"
      ],
      [
        "v",
        "ing"
      ],
      [
        "fer",
        "red"
      ],
      [
        "exuda",
        "te"
      ],
      [
        "1",
        "4"
      ],
      [
        "in",
        "ner"
      ],
      [
        "und",
        "er"
      ],
      [
        "col",
        "ob"
      ],
      [
        "line",
        "ar"
      ],
      [
        "pc",
        "v"
      ],
      [
        "sebace",
        "ous"
      ],
      [
        "colob",
        "oma"
      ],
      [
        "l",
        "er"
      ],
      [
        "l",
        "os"
      ],
      [
        "so",
        "me"
      ],
      [
        "los",
        "s"
      ],
      [
        "2",
        "2"
      ],
      [
        "7",
        "5"
      ],
      [
        "re",
        "ferred"
      ],
      [
        "positi",
        "ve"
      ],
      [
        "g",
        "res"
      ],
      [
        "a",
        "vas"
      ],
      [
        "c",
        "hi"
      ],
      [
        "avas",
        "tin"
      ],
      [
        "4",
        "5"
      ],
      [
        "in",
        "iti"
      ],
      [
        "ve",
        "l"
      ],
      [
        "gi",
        "ll"
      ],
      [
        "per",
        "gill"
      ],
      [
        "bo",
        "dy"
      ],
      [
        "ta",
        "pe"
      ],
      [
        "ab",
        "normal"
      ],
      [
        "pergill",
        "us"
      ],
      [
        "v",
        "iti"
      ],
      [
        "sy",
        "ste"
      ],
      [
        "sta",
        "ble"
      ],
      [
        "auto",
        "fluorescence"
      ],
      [
        "5",
        "9"
      ],
      [
        "g",
        "ment"
      ],
      [
        "l",
        "ig"
      ],
      [
        "ac",
        "he"
      ],
      [
        "trac",
        "tion"
      ],
      [
        "19",
        "8"
      ],
      [
        "viti",
        "lig"
      ],
      [
        "syste",
        "mic"
      ],
      [
        "vitilig",
        "inous"
      ],
      [
        "4",
        "4"
      ],
      [
        "6",
        "3"
      ],
      [
        "m",
        "as"
      ],
      [
        "gra",
        "phy"
      ],
      [
        "sub",
        "foveal"
      ],
      [
        "ou",
        "n"
      ],
      [
        "we",
        "t"
      ],
      [
        "leak",
        "age"
      ],
      [
        "d",
        "oc"
      ],
      [
        "e",
        "ar"
      ],
      [
        "ten",
        "t"
      ],
      [
        "blu",
        "r"
      ],
      [
        "a",
        "ma"
      ],
      [
        "f",
        "our"
      ],
      [
        "i",
        "m"
      ],
      [
        "l",
        "p"
      ],
      [
        "su",
        "g"
      ],
      [
        "ne",
        "c"
      ],
      [
        "to",
        "mo"
      ],
      [
        "he",
        "ren"
      ],
      [
        "co",
        "heren"
      ],
      [
        "optic",
        "al"
      ],
      [
        "da",
        "y"
      ],
      [
        "vessel",
        "s"
      ],
      [
        "decrease",
        "d"
      ],
      [
        "coheren",
        "ce"
      ],
      [
        "e",
        "m"
      ],
      [
        "o",
        "retinal"
      ],
      [
        "in",
        "ation"
      ],
      [
        "dia",
        "g"
      ],
      [
        "diabe",
        "tes"
      ],
      [
        "b",
        "rao"
      ],
      [
        "is",
        "chem"
      ],
      [
        "anti",
        "body"
      ],
      [
        "exam",
        "ination"
      ],
      [
        "o",
        "x"
      ],
      [
        "r",
        "ing"
      ],
      [
        "sc",
        "le"
      ],
      [
        "are",
        "olar"
      ],
      [
        "peripher",
        "y"
      ],
      [
        "o",
        "ther"
      ],
      [
        "s",
        "po"
      ],
      [
        "al",
        "l"
      ],
      [
        "oc",
        "ar"
      ],
      [
        "sug",
        "ges"
      ],
      [
        "3",
        "1"
      ],
      [
        "in",
        "fe"
      ],
      [
        "with",
        "out"
      ],
      [
        "fe",
        "llow"
      ],
      [
        "oc",
        "y"
      ],
      [
        "pic",
        "al"
      ],
      [
        "ear",
        "ly"
      ],
      [
        "scle",
        "rosis"
      ],
      [
        "f",
        "oli"
      ],
      [
        "ex",
        "foli"
      ],
      [
        "pseudo",
        "exfoli"
      ],
      [
        "pseudoexfoli",
        "ation"
      ],
      [
        "g",
        "ing"
      ],
      [
        "t",
        "on"
      ],
      [
        "in",
        "ing"
      ],
      [
        "3",
        "4"
      ],
      [
        "d",
        "ro"
      ],
      [
        "or",
        "y"
      ],
      [
        "tomo",
        "graphy"
      ],
      [
        "6",
        "2"
      ],
      [
        "o",
        "il"
      ],
      [
        "ul",
        "t"
      ],
      [
        "op",
        "ed"
      ],
      [
        "as",
        "is"
      ],
      [
        "de",
        "vel"
      ],
      [
        "r",
        "an"
      ],
      [
        "s",
        "olar"
      ],
      [
        "cl",
        "u"
      ],
      [
        "cl",
        "ovir"
      ],
      [
        "fi",
        "r"
      ],
      [
        "b",
        "dr"
      ],
      [
        "g",
        "la"
      ],
      [
        "u",
        "coma"
      ],
      [
        "fe",
        "atu"
      ],
      [
        "su",
        "peri"
      ],
      [
        "gla",
        "ucoma"
      ],
      [
        "3",
        "7"
      ],
      [
        "p",
        "x"
      ],
      [
        "r",
        "p"
      ],
      [
        "w",
        "ide"
      ],
      [
        "la",
        "ye"
      ],
      [
        "ep",
        "i"
      ],
      [
        "met",
        "ast"
      ],
      [
        "olog",
        "y"
      ],
      [
        "head",
        "ache"
      ],
      [
        "featu",
        "res"
      ],
      [
        "px",
        "e"
      ],
      [
        "m",
        "i"
      ],
      [
        "y",
        "clovir"
      ],
      [
        "ac",
        "yclovir"
      ],
      [
        "si",
        "ble"
      ],
      [
        "si",
        "mil"
      ],
      [
        "simil",
        "ar"
      ],
      [
        "p",
        "a"
      ],
      [
        "s",
        "il"
      ],
      [
        "2",
        "1"
      ],
      [
        "uro",
        "sis"
      ],
      [
        "ama",
        "urosis"
      ],
      [
        "sc",
        "ler"
      ],
      [
        "fo",
        "und"
      ],
      [
        "vitre",
        "o"
      ],
      [
        "combin",
        "ed"
      ],
      [
        "e",
        "ight"
      ],
      [
        "m",
        "or"
      ],
      [
        "as",
        "pergillus"
      ],
      [
        "ma",
        "to"
      ],
      [
        "ex",
        "ternal"
      ],
      [
        "co",
        "at"
      ],
      [
        "sil",
        "ic"
      ],
      [
        "1",
        "8"
      ],
      [
        "k",
        "e"
      ],
      [
        "l",
        "r"
      ],
      [
        "x",
        "lr"
      ],
      [
        "ar",
        "ed"
      ],
      [
        "of",
        "f"
      ],
      [
        "are",
        "a"
      ],
      [
        "ty",
        "pical"
      ],
      [
        "mil",
        "d"
      ],
      [
        "xlr",
        "s"
      ],
      [
        "5",
        "4"
      ],
      [
        "r",
        "l"
      ],
      [
        "ad",
        "ult"
      ],
      [
        "tu",
        "ber"
      ],
      [
        "respon",
        "se"
      ],
      [
        "devel",
        "oped"
      ],
      [
        "6",
        "9"
      ],
      [
        "fi",
        "b"
      ],
      [
        "superi",
        "or"
      ],
      [
        "c",
        "ar"
      ],
      [
        "h",
        "m"
      ],
      [
        "i",
        "sed"
      ],
      [
        "s",
        "ign"
      ],
      [
        "le",
        "dema"
      ],
      [
        "dr",
        "y"
      ],
      [
        "papil",
        "ledema"
      ],
      [
        "famil",
        "ial"
      ],
      [
        "r",
        "up"
      ],
      [
        "se",
        "gment"
      ],
      [
        "tox",
        "ocar"
      ],
      [
        "crystal",
        "s"
      ],
      [
        "tape",
        "oretinal"
      ],
      [
        "toxocar",
        "a"
      ],
      [
        "s",
        "mal"
      ],
      [
        "as",
        "y"
      ],
      [
        "ly",
        "me"
      ],
      [
        "smal",
        "l"
      ],
      [
        "-",
        "."
      ],
      [
        "g",
        "al"
      ],
      [
        "o",
        "gra"
      ],
      [
        "ti",
        "me"
      ],
      [
        "iti",
        "es"
      ],
      [
        "il",
        "l"
      ],
      [
        "chorio",
        "retinitis"
      ],
      [
        "mas",
        "sive"
      ],
      [
        "2",
        "6"
      ],
      [
        "c",
        "al"
      ],
      [
        "c",
        "er"
      ],
      [
        "t",
        "wo"
      ],
      [
        "gi",
        "rl"
      ],
      [
        "he",
        "me"
      ],
      [
        "sy",
        "mptom"
      ],
      [
        "25",
        "0"
      ],
      [
        "pos",
        "sible"
      ],
      [
        "7",
        "1"
      ],
      [
        "o",
        "therapy"
      ],
      [
        "for",
        "m"
      ],
      [
        "cau",
        "se"
      ],
      [
        "ogra",
        "phic"
      ],
      [
        "symptom",
        "s"
      ],
      [
        "3",
        "6"
      ],
      [
        "en",
        "do"
      ],
      [
        "ic",
        "g"
      ],
      [
        "per",
        "f"
      ],
      [
        "arter",
        "itis"
      ],
      [
        "sta",
        "ining"
      ],
      [
        "endo",
        "genous"
      ],
      [
        "c",
        "ular"
      ],
      [
        "e",
        "ach"
      ],
      [
        "k",
        "er"
      ],
      [
        "re",
        "at"
      ],
      [
        "ne",
        "w"
      ],
      [
        "sc",
        "an"
      ],
      [
        "ge",
        "ographic"
      ],
      [
        "cl",
        "in"
      ],
      [
        "punct",
        "ate"
      ],
      [
        "al",
        "th"
      ],
      [
        "men",
        "ted"
      ],
      [
        "sus",
        "ac"
      ],
      [
        "7",
        "8"
      ],
      [
        "af",
        "fe"
      ],
      [
        "fir",
        "st"
      ],
      [
        "li",
        "mi"
      ],
      [
        "pro",
        "gres"
      ],
      [
        "mptom",
        "atic"
      ],
      [
        "asy",
        "mptomatic"
      ],
      [
        "d",
        "m"
      ],
      [
        "con",
        "sis"
      ],
      [
        "lo",
        "ma"
      ],
      [
        "mic",
        "ro"
      ],
      [
        "crystal",
        "line"
      ],
      [
        "p",
        "ol"
      ],
      [
        "al",
        "so"
      ],
      [
        "be",
        "en"
      ],
      [
        "un",
        "known"
      ],
      [
        "metast",
        "asis"
      ],
      [
        "6",
        "1"
      ],
      [
        "g",
        "old"
      ],
      [
        "fe",
        "ct"
      ],
      [
        "fin",
        "ding"
      ],
      [
        "clin",
        "ic"
      ],
      [
        "gold",
        "man"
      ],
      [
        "3",
        "8"
      ],
      [
        "a",
        "g"
      ],
      [
        "n",
        "ing"
      ],
      [
        "s",
        "a"
      ],
      [
        "ul",
        "ation"
      ],
      [
        "id",
        "al"
      ],
      [
        "la",
        "mel"
      ],
      [
        "melan",
        "ocy"
      ],
      [
        "doc",
        "tor"
      ],
      [
        "day",
        "s"
      ],
      [
        "pol",
        "y"
      ],
      [
        "lamel",
        "lar"
      ],
      [
        "melanocy",
        "toma"
      ],
      [
        "a",
        "v"
      ],
      [
        "l",
        "on"
      ],
      [
        "n",
        "osis"
      ],
      [
        "ro",
        "phic"
      ],
      [
        "le",
        "d"
      ],
      [
        "ve",
        "ment"
      ],
      [
        "pigment",
        "ary"
      ],
      [
        "hemorrhage",
        "s"
      ],
      [
        "can",
        "is"
      ],
      [
        "initi",
        "al"
      ],
      [
        "laye",
        "r"
      ],
      [
        "coat",
        "s"
      ],
      [
        "goldman",
        "n"
      ],
      [
        "ic",
        "k"
      ],
      [
        "sc",
        "o"
      ],
      [
        "he",
        "alth"
      ],
      [
        "ob",
        "ser"
      ],
      [
        "perf",
        "usion"
      ],
      [
        "l",
        "en"
      ],
      [
        "de",
        "fect"
      ],
      [
        "lateral",
        "s"
      ],
      [
        "col",
        "laterals"
      ],
      [
        "mo",
        "ther"
      ],
      [
        "impro",
        "ved"
      ],
      [
        "if",
        "ic"
      ],
      [
        "headache",
        "s"
      ],
      [
        "c",
        "f"
      ],
      [
        "f",
        "ree"
      ],
      [
        "s",
        "l"
      ],
      [
        "ro",
        "temporal"
      ],
      [
        "photo",
        "s"
      ],
      [
        "po",
        "idal"
      ],
      [
        "bi",
        "et"
      ],
      [
        "star",
        "ted"
      ],
      [
        "ima",
        "ging"
      ],
      [
        "poly",
        "poidal"
      ],
      [
        "biet",
        "ti"
      ],
      [
        "8",
        "5"
      ],
      [
        "in",
        "her"
      ],
      [
        "hi",
        "gh"
      ],
      [
        "gra",
        "de"
      ],
      [
        "angio",
        "ma"
      ],
      [
        "4",
        "2"
      ],
      [
        "z",
        "oc"
      ],
      [
        "vascul",
        "opathy"
      ],
      [
        "complain",
        "t"
      ],
      [
        "iv",
        "ig"
      ],
      [
        "mye",
        "loma"
      ],
      [
        "diag",
        "nosis"
      ],
      [
        "sco",
        "toma"
      ],
      [
        "zoc",
        "chi"
      ],
      [
        "3",
        "9"
      ],
      [
        "7",
        "4"
      ],
      [
        "lo",
        "op"
      ],
      [
        "fi",
        "ber"
      ],
      [
        "intra",
        "ocular"
      ],
      [
        ".",
        ","
      ],
      [
        "c",
        "in"
      ],
      [
        "e",
        "le"
      ],
      [
        "m",
        "us"
      ],
      [
        "t",
        "reat"
      ],
      [
        "v",
        "ol"
      ],
      [
        "z",
        "ing"
      ],
      [
        "an",
        "y"
      ],
      [
        "sy",
        "phi"
      ],
      [
        "ap",
        "pe"
      ],
      [
        "ole",
        "s"
      ],
      [
        "scler",
        "itis"
      ],
      [
        "treat",
        "ment"
      ],
      [
        "a",
        "mppe"
      ],
      [
        "d",
        "en"
      ],
      [
        "m",
        "t"
      ],
      [
        "in",
        "vol"
      ],
      [
        "can",
        "cer"
      ],
      [
        "g",
        "ent"
      ],
      [
        "t",
        "rophy"
      ],
      [
        "th",
        "ree"
      ],
      [
        "hyper",
        "trophy"
      ],
      [
        "ver",
        "y"
      ],
      [
        "chorio",
        "retinopathy"
      ],
      [
        "gent",
        "le"
      ],
      [
        "h",
        "ce"
      ],
      [
        "re",
        "ticular"
      ],
      [
        "st",
        "atus"
      ],
      [
        "be",
        "hce"
      ],
      [
        "40",
        "0"
      ],
      [
        "chorio",
        "retinal"
      ],
      [
        "sugges",
        "ting"
      ],
      [
        "epi",
        "retinal"
      ],
      [
        "appe",
        "ar"
      ],
      [
        "behce",
        "t"
      ],
      [
        "b",
        "and"
      ],
      [
        "b",
        "ull"
      ],
      [
        "v",
        "an"
      ],
      [
        "ar",
        "ac"
      ],
      [
        "se",
        "con"
      ],
      [
        "fove",
        "a"
      ],
      [
        "cor",
        "re"
      ],
      [
        "1",
        "60"
      ],
      [
        "b",
        "re"
      ],
      [
        "c",
        "ir"
      ],
      [
        "s",
        "p"
      ],
      [
        "ye",
        "llow"
      ],
      [
        "ra",
        "ised"
      ],
      [
        "tic",
        "al"
      ],
      [
        "par",
        "t"
      ],
      [
        "ii",
        "i"
      ],
      [
        "bre",
        "ast"
      ],
      [
        "clinic",
        "al"
      ],
      [
        "s",
        "it"
      ],
      [
        "as",
        "tic"
      ],
      [
        "to",
        "me"
      ],
      [
        "el",
        "astic"
      ],
      [
        "photo",
        "co"
      ],
      [
        "ten",
        "sion"
      ],
      [
        "hyper",
        "tension"
      ],
      [
        "ren",
        "al"
      ],
      [
        "cy",
        "tome"
      ],
      [
        "ovir",
        "us"
      ],
      [
        "ischem",
        "ic"
      ],
      [
        "silic",
        "on"
      ],
      [
        "gal",
        "ovirus"
      ],
      [
        "photoco",
        "ag"
      ],
      [
        "cytome",
        "galovirus"
      ],
      [
        "4",
        "3"
      ],
      [
        "f",
        "ore"
      ],
      [
        "pr",
        "im"
      ],
      [
        "scar",
        "ring"
      ],
      [
        "photocoag",
        "ulation"
      ],
      [
        "prim",
        "ary"
      ],
      [
        "5",
        "8"
      ],
      [
        "7",
        "3"
      ],
      [
        "7",
        "9"
      ],
      [
        "for",
        "ty"
      ],
      [
        "hyper",
        "fluorescence"
      ],
      [
        "wee",
        "k"
      ],
      [
        "so",
        "mal"
      ],
      [
        "chan",
        "ge"
      ],
      [
        "auto",
        "somal"
      ],
      [
        "secon",
        "d"
      ],
      [
        "4",
        "1"
      ],
      [
        "c",
        "rao"
      ],
      [
        "f",
        "ull"
      ],
      [
        "o",
        "ton"
      ],
      [
        "r",
        "ared"
      ],
      [
        "ul",
        "tra"
      ],
      [
        "ne",
        "ss"
      ],
      [
        "my",
        "oton"
      ],
      [
        "fi",
        "ve"
      ],
      [
        "inf",
        "rared"
      ],
      [
        "gentle",
        "man"
      ],
      [
        "myoton",
        "ic"
      ],
      [
        "c",
        "ed"
      ],
      [
        "f",
        "ly"
      ],
      [
        "x",
        "an"
      ],
      [
        "th",
        "oma"
      ],
      [
        "th",
        "ick"
      ],
      [
        "se",
        "t"
      ],
      [
        "se",
        "ven"
      ],
      [
        "de",
        "terior"
      ],
      [
        "ter",
        "fly"
      ],
      [
        "di",
        "tion"
      ],
      [
        "it",
        "ance"
      ],
      [
        "pseudo",
        "xan"
      ],
      [
        "image",
        "s"
      ],
      [
        "pic",
        "ture"
      ],
      [
        "but",
        "terfly"
      ],
      [
        "rup",
        "ture"
      ],
      [
        "inher",
        "itance"
      ],
      [
        "elastic",
        "um"
      ],
      [
        "deterior",
        "ation"
      ],
      [
        "pseudoxan",
        "thoma"
      ],
      [
        "i",
        "ble"
      ],
      [
        "s",
        "su"
      ],
      [
        "ter",
        "ole"
      ],
      [
        "ra",
        "te"
      ],
      [
        "ch",
        "oles"
      ],
      [
        "ht",
        "n"
      ],
      [
        "his",
        "is"
      ],
      [
        "vis",
        "ible"
      ],
      [
        "impro",
        "vement"
      ],
      [
        "mye",
        "lin"
      ],
      [
        "terole",
        "mia"
      ],
      [
        "choles",
        "terolemia"
      ],
      [
        "p",
        "ath"
      ],
      [
        "ad",
        "van"
      ],
      [
        "do",
        "min"
      ],
      [
        "con",
        "s"
      ],
      [
        "peri",
        "foveal"
      ],
      [
        "rh",
        "ab"
      ],
      [
        "ox",
        "al"
      ],
      [
        "advan",
        "ced"
      ],
      [
        "domin",
        "ant"
      ],
      [
        "rhab",
        "do"
      ],
      [
        "3",
        "3"
      ],
      [
        "5",
        "7"
      ],
      [
        "a",
        "ter"
      ],
      [
        "g",
        "l"
      ],
      [
        "h",
        "x"
      ],
      [
        "r",
        "he"
      ],
      [
        "s",
        "h"
      ],
      [
        "be",
        "fore"
      ],
      [
        "pigment",
        "ation"
      ],
      [
        "pre",
        "d"
      ],
      [
        "fa",
        "f"
      ],
      [
        "nec",
        "rosis"
      ],
      [
        "mor",
        "ning"
      ],
      [
        "gl",
        "ory"
      ],
      [
        "1",
        "7"
      ],
      [
        "b",
        "all"
      ],
      [
        "t",
        "al"
      ],
      [
        "y",
        "oun"
      ],
      [
        "th",
        "en"
      ],
      [
        "an",
        "g"
      ],
      [
        "st",
        "r"
      ],
      [
        "whi",
        "le"
      ],
      [
        "su",
        "d"
      ],
      [
        "pig",
        "mented"
      ],
      [
        "hy",
        "p"
      ],
      [
        "tu",
        "red"
      ],
      [
        "ble",
        "m"
      ],
      [
        "end",
        "ing"
      ],
      [
        "pro",
        "blem"
      ],
      [
        "progres",
        "sive"
      ],
      [
        "youn",
        "g"
      ],
      [
        "c",
        "and"
      ],
      [
        "e",
        "w"
      ],
      [
        "w",
        "ent"
      ],
      [
        "ro",
        "qu"
      ],
      [
        "mal",
        "ign"
      ],
      [
        "id",
        "a"
      ],
      [
        "at",
        "rophic"
      ],
      [
        "ch",
        "lo"
      ],
      [
        "cul",
        "osis"
      ],
      [
        "under",
        "went"
      ],
      [
        "tuber",
        "culosis"
      ],
      [
        "fib",
        "ro"
      ],
      [
        "sud",
        "den"
      ],
      [
        "cand",
        "ida"
      ],
      [
        "roqu",
        "ine"
      ],
      [
        "chlo",
        "roquine"
      ],
      [
        "7",
        "7"
      ],
      [
        "c",
        "ell"
      ],
      [
        "t",
        "w"
      ],
      [
        "ro",
        "u"
      ],
      [
        "ul",
        "es"
      ],
      [
        "ic",
        "an"
      ],
      [
        "ne",
        "d"
      ],
      [
        "it",
        "us"
      ],
      [
        "li",
        "ke"
      ],
      [
        "ca",
        "me"
      ],
      [
        "spo",
        "t"
      ],
      [
        "b",
        "itis"
      ],
      [
        "c",
        "oun"
      ],
      [
        "g",
        "re"
      ],
      [
        "s",
        "le"
      ],
      [
        "ti",
        "zing"
      ],
      [
        "re",
        "cent"
      ],
      [
        "ro",
        "tizing"
      ],
      [
        "in",
        "clu"
      ],
      [
        "le",
        "bitis"
      ],
      [
        "ma",
        "in"
      ],
      [
        "eld",
        "er"
      ],
      [
        "nec",
        "rotizing"
      ],
      [
        "dro",
        "p"
      ],
      [
        "myelin",
        "ated"
      ],
      [
        "inclu",
        "ding"
      ],
      [
        "5",
        "1"
      ],
      [
        "b",
        "one"
      ],
      [
        "d",
        "ual"
      ],
      [
        "s",
        "pic"
      ],
      [
        "t",
        "age"
      ],
      [
        "gra",
        "dual"
      ],
      [
        "pre",
        "ssu"
      ],
      [
        "for",
        "mation"
      ],
      [
        "uc",
        "k"
      ],
      [
        "malign",
        "ant"
      ],
      [
        "pressu",
        "re"
      ],
      [
        "1",
        "25"
      ],
      [
        "2",
        "7"
      ],
      [
        "3",
        "20"
      ],
      [
        "c",
        "to"
      ],
      [
        "c",
        "asian"
      ],
      [
        "m",
        "u"
      ],
      [
        "n",
        "is"
      ],
      [
        "s",
        "pe"
      ],
      [
        "re",
        "flec"
      ],
      [
        "vi",
        "ew"
      ],
      [
        "neuro",
        "retinopathy"
      ],
      [
        "imp",
        "ending"
      ],
      [
        "fu",
        "sed"
      ],
      [
        "cau",
        "casian"
      ],
      [
        "abnormal",
        "ities"
      ],
      [
        "vitreo",
        "retinopathy"
      ],
      [
        "corre",
        "cted"
      ],
      [
        "pred",
        "nis"
      ],
      [
        "prednis",
        "one"
      ],
      [
        "a",
        "go"
      ],
      [
        "c",
        "va"
      ],
      [
        "n",
        "ine"
      ],
      [
        "s",
        "tel"
      ],
      [
        "v",
        "al"
      ],
      [
        "on",
        "set"
      ],
      [
        "ra",
        "in"
      ],
      [
        "mon",
        "tage"
      ],
      [
        "imp",
        "a"
      ],
      [
        "dec",
        "al"
      ],
      [
        "wor",
        "k"
      ],
      [
        "traction",
        "al"
      ],
      [
        "blur",
        "red"
      ],
      [
        "consis",
        "tent"
      ],
      [
        "finding",
        "s"
      ],
      [
        "appear",
        "ance"
      ],
      [
        "sit",
        "u"
      ],
      [
        "stel",
        "late"
      ],
      [
        "7",
        "6"
      ],
      [
        "c",
        "ase"
      ],
      [
        "t",
        "am"
      ],
      [
        "ent",
        "ral"
      ],
      [
        "sc",
        "hisis"
      ],
      [
        "sm",
        "o"
      ],
      [
        "reveal",
        "s"
      ],
      [
        "bac",
        "teri"
      ],
      [
        "if",
        "en"
      ],
      [
        "ox",
        "ifen"
      ],
      [
        "limi",
        "ted"
      ],
      [
        "reflec",
        "tive"
      ],
      [
        "tam",
        "oxifen"
      ],
      [
        "a",
        "ting"
      ],
      [
        "l",
        "d"
      ],
      [
        "p",
        "ul"
      ],
      [
        "r",
        "t"
      ],
      [
        "v",
        "ac"
      ],
      [
        "x",
        "es"
      ],
      [
        "as",
        "sis"
      ],
      [
        "be",
        "vac"
      ],
      [
        "sen",
        "ing"
      ],
      [
        "iz",
        "uma"
      ],
      [
        "fi",
        "xes"
      ],
      [
        "star",
        "ting"
      ],
      [
        "va",
        "ted"
      ],
      [
        "are",
        "as"
      ],
      [
        "tr",
        "ol"
      ],
      [
        "follow",
        "s"
      ],
      [
        "wor",
        "sening"
      ],
      [
        "infe",
        "rotemporal"
      ],
      [
        "ele",
        "vated"
      ],
      [
        "assis",
        "ted"
      ],
      [
        "bevac",
        "izuma"
      ],
      [
        "bevacizuma",
        "b"
      ],
      [
        "a",
        "e"
      ],
      [
        "f",
        "ra"
      ],
      [
        "o",
        "ro"
      ],
      [
        "s",
        "ic"
      ],
      [
        "ro",
        "d"
      ],
      [
        "ent",
        "s"
      ],
      [
        "ent",
        "al"
      ],
      [
        "ho",
        "r"
      ],
      [
        "le",
        "ar"
      ],
      [
        "de",
        "pigmentation"
      ],
      [
        "per",
        "flu"
      ],
      [
        "iz",
        "ed"
      ],
      [
        "ce",
        "re"
      ],
      [
        "pr",
        "ior"
      ],
      [
        "ophthalm",
        "ic"
      ],
      [
        "mo",
        "t"
      ],
      [
        "par",
        "ents"
      ],
      [
        "go",
        "od"
      ],
      [
        "pa",
        "in"
      ],
      [
        "health",
        "y"
      ],
      [
        "len",
        "s"
      ],
      [
        "decal",
        "in"
      ],
      [
        "oro",
        "decalin"
      ],
      [
        "perflu",
        "orodecalin"
      ],
      [
        "b",
        "cva"
      ],
      [
        "i",
        "red"
      ],
      [
        "v",
        "r"
      ],
      [
        "te",
        "st"
      ],
      [
        "sho",
        "rt"
      ],
      [
        "vitre",
        "al"
      ],
      [
        "resol",
        "ving"
      ],
      [
        "inf",
        "ar"
      ],
      [
        "infe",
        "ction"
      ],
      [
        "obser",
        "ved"
      ],
      [
        "gre",
        "en"
      ],
      [
        "cto",
        "my"
      ],
      [
        "g",
        "y"
      ],
      [
        "y",
        "on"
      ],
      [
        "se",
        "qu"
      ],
      [
        "be",
        "came"
      ],
      [
        "br",
        "in"
      ],
      [
        "cent",
        "re"
      ],
      [
        "po",
        "or"
      ],
      [
        "fi",
        "brin"
      ],
      [
        "fla",
        "t"
      ],
      [
        "gy",
        "rate"
      ],
      [
        "p",
        "ole"
      ],
      [
        "an",
        "terior"
      ],
      [
        "in",
        "trac"
      ],
      [
        "er",
        "m"
      ],
      [
        "to",
        "tal"
      ],
      [
        "whi",
        "ch"
      ],
      [
        "ad",
        "dition"
      ],
      [
        "ly",
        "ing"
      ],
      [
        "tor",
        "s"
      ],
      [
        "ischem",
        "ia"
      ],
      [
        "ran",
        "ial"
      ],
      [
        "intrac",
        "ranial"
      ],
      [
        "1",
        "28"
      ],
      [
        "4",
        "8"
      ],
      [
        "r",
        "ant"
      ],
      [
        "s",
        "ti"
      ],
      [
        "x",
        "y"
      ],
      [
        "ch",
        "rpe"
      ],
      [
        "ad",
        "rant"
      ],
      [
        "hy",
        "dro"
      ],
      [
        "qu",
        "adrant"
      ],
      [
        "intra",
        "vitreal"
      ],
      [
        "chi",
        "ld"
      ],
      [
        "change",
        "d"
      ],
      [
        "xy",
        "chloroquine"
      ],
      [
        "hydro",
        "xychloroquine"
      ],
      [
        "'",
        "."
      ],
      [
        "b",
        "rain"
      ],
      [
        "g",
        "ran"
      ],
      [
        "te",
        "red"
      ],
      [
        "ro",
        "w"
      ],
      [
        "ac",
        "e"
      ],
      [
        "le",
        "te"
      ],
      [
        "or",
        "tion"
      ],
      [
        "ab",
        "ortion"
      ],
      [
        "comp",
        "lete"
      ],
      [
        "fove",
        "oschisis"
      ],
      [
        "vitreo",
        "macular"
      ],
      [
        "problem",
        "s"
      ],
      [
        "recent",
        "ly"
      ],
      [
        "abortion",
        "s"
      ],
      [
        "a",
        "ble"
      ],
      [
        "b",
        "or"
      ],
      [
        "e",
        "al"
      ],
      [
        "g",
        "mato"
      ],
      [
        "i",
        "ant"
      ],
      [
        "t",
        "ary"
      ],
      [
        "v",
        "ar"
      ],
      [
        "fe",
        "vr"
      ],
      [
        "di",
        "tary"
      ],
      [
        "un",
        "k"
      ],
      [
        "vi",
        "ous"
      ],
      [
        "angiogram",
        "s"
      ],
      [
        "here",
        "ditary"
      ],
      [
        "respon",
        "ded"
      ],
      [
        "cul",
        "ture"
      ],
      [
        "pa",
        "ir"
      ],
      [
        "cal",
        "c"
      ],
      [
        "cin",
        "oma"
      ],
      [
        "mus",
        "cular"
      ],
      [
        "rhe",
        "gmato"
      ],
      [
        "eal",
        "es"
      ],
      [
        "var",
        "iant"
      ],
      [
        "rhegmato",
        "genous"
      ],
      [
        "c",
        "ep"
      ],
      [
        "i",
        "en"
      ],
      [
        "re",
        "gi"
      ],
      [
        "fluoresc",
        "ent"
      ],
      [
        "dis",
        "or"
      ],
      [
        "trac",
        "ks"
      ],
      [
        "cry",
        "otherapy"
      ],
      [
        "sa",
        "me"
      ],
      [
        "cons",
        "ang"
      ],
      [
        "elder",
        "ly"
      ],
      [
        "impa",
        "ired"
      ],
      [
        "consang",
        "u"
      ],
      [
        "b",
        "ly"
      ],
      [
        "d",
        "er"
      ],
      [
        "d",
        "ur"
      ],
      [
        "l",
        "and"
      ],
      [
        "in",
        "c"
      ],
      [
        "is",
        "ch"
      ],
      [
        "is",
        "land"
      ],
      [
        "le",
        "ss"
      ],
      [
        "the",
        "se"
      ],
      [
        "be",
        "d"
      ],
      [
        "be",
        "ar"
      ],
      [
        "be",
        "rous"
      ],
      [
        "und",
        "ing"
      ],
      [
        "ed",
        "ing"
      ],
      [
        "tu",
        "berous"
      ],
      [
        "pan",
        "retinal"
      ],
      [
        "sign",
        "ific"
      ],
      [
        "oxal",
        "osis"
      ],
      [
        "isch",
        "ae"
      ],
      [
        "signific",
        "ant"
      ],
      [
        "1",
        "1"
      ],
      [
        "b",
        "al"
      ],
      [
        "b",
        "lo"
      ],
      [
        "n",
        "itus"
      ],
      [
        "t",
        "op"
      ],
      [
        "t",
        "un"
      ],
      [
        "se",
        "ver"
      ],
      [
        "on",
        "col"
      ],
      [
        "tin",
        "nitus"
      ],
      [
        "de",
        "li"
      ],
      [
        "sc",
        "ri"
      ],
      [
        "for",
        "tun"
      ],
      [
        "ri",
        "er"
      ],
      [
        "ver",
        "tical"
      ],
      [
        "sur",
        "ro"
      ],
      [
        "ate",
        "ly"
      ],
      [
        "arteri",
        "o"
      ],
      [
        "spo",
        "ts"
      ],
      [
        "affe",
        "cted"
      ],
      [
        "lon",
        "g"
      ],
      [
        "cir",
        "cu"
      ],
      [
        "mu",
        "ch"
      ],
      [
        "sever",
        "al"
      ],
      [
        "oncol",
        "og"
      ],
      [
        "deli",
        "very"
      ],
      [
        "scri",
        "bed"
      ],
      [
        "fortun",
        "ately"
      ],
      [
        "c",
        "q"
      ],
      [
        "c",
        "oc"
      ],
      [
        "h",
        "cq"
      ],
      [
        "i",
        "es"
      ],
      [
        "i",
        "form"
      ],
      [
        "o",
        "macular"
      ],
      [
        "se",
        "min"
      ],
      [
        "en",
        "uc"
      ],
      [
        "ul",
        "d"
      ],
      [
        "ul",
        "oma"
      ],
      [
        "de",
        "fin"
      ],
      [
        "ic",
        "entral"
      ],
      [
        "per",
        "icentral"
      ],
      [
        "co",
        "uld"
      ],
      [
        "hy",
        "pe"
      ],
      [
        "vi",
        "tel"
      ],
      [
        "dis",
        "semin"
      ],
      [
        "presen",
        "ting"
      ],
      [
        "li",
        "form"
      ],
      [
        "recurren",
        "ce"
      ],
      [
        "fove",
        "omacular"
      ],
      [
        "olog",
        "ic"
      ],
      [
        "sugges",
        "tive"
      ],
      [
        "car",
        "cinoma"
      ],
      [
        "gran",
        "uloma"
      ],
      [
        "vitel",
        "liform"
      ],
      [
        "dissemin",
        "ated"
      ],
      [
        "e",
        "y"
      ],
      [
        "g",
        "r"
      ],
      [
        "l",
        "ight"
      ],
      [
        "n",
        "g"
      ],
      [
        "p",
        "us"
      ],
      [
        "u",
        "re"
      ],
      [
        "re",
        "o"
      ],
      [
        "th",
        "ir"
      ],
      [
        "in",
        "term"
      ],
      [
        "mal",
        "formation"
      ],
      [
        "ne",
        "ur"
      ],
      [
        "it",
        "tent"
      ],
      [
        "cl",
        "ass"
      ],
      [
        "lu",
        "ng"
      ],
      [
        "con",
        "trol"
      ],
      [
        "no",
        "sed"
      ],
      [
        "photogra",
        "phy"
      ],
      [
        "hyper",
        "reflective"
      ],
      [
        "ste",
        "reo"
      ],
      [
        "par",
        "a"
      ],
      [
        "pc",
        "p"
      ],
      [
        "initi",
        "ating"
      ],
      [
        "diag",
        "nosed"
      ],
      [
        "sh",
        "un"
      ],
      [
        "arterio",
        "venous"
      ],
      [
        "gr",
        "and"
      ],
      [
        "interm",
        "ittent"
      ],
      [
        "neur",
        "itis"
      ],
      [
        "class",
        "ic"
      ],
      [
        "8",
        "2"
      ],
      [
        "c",
        "en"
      ],
      [
        "g",
        "am"
      ],
      [
        "m",
        "opathy"
      ],
      [
        "m",
        "scribed"
      ],
      [
        "t",
        "ane"
      ],
      [
        "v",
        "ation"
      ],
      [
        "x",
        "al"
      ],
      [
        "y",
        "the"
      ],
      [
        "re",
        "gres"
      ],
      [
        "re",
        "main"
      ],
      [
        "ro",
        "xal"
      ],
      [
        "in",
        "s"
      ],
      [
        "in",
        "ju"
      ],
      [
        "er",
        "ythe"
      ],
      [
        "ho",
        "od"
      ],
      [
        "le",
        "ation"
      ],
      [
        "id",
        "ental"
      ],
      [
        "or",
        "b"
      ],
      [
        "ph",
        "thalm"
      ],
      [
        "el",
        "y"
      ],
      [
        "lu",
        "pus"
      ],
      [
        "tu",
        "mor"
      ],
      [
        "vitre",
        "ctomy"
      ],
      [
        "tr",
        "an"
      ],
      [
        "ur",
        "ia"
      ],
      [
        "inf",
        "ant"
      ],
      [
        "198",
        "5"
      ],
      [
        "198",
        "7"
      ],
      [
        "clu",
        "mp"
      ],
      [
        "mato",
        "sus"
      ],
      [
        "micro",
        "phthalm"
      ],
      [
        "lon",
        "al"
      ],
      [
        "second",
        "ary"
      ],
      [
        "str",
        "uck"
      ],
      [
        "addition",
        "al"
      ],
      [
        "child",
        "hood"
      ],
      [
        "circu",
        "mscribed"
      ],
      [
        "enuc",
        "leation"
      ],
      [
        "hype",
        "roxal"
      ],
      [
        "gam",
        "mopathy"
      ],
      [
        "tane",
        "ous"
      ],
      [
        "inju",
        "ry"
      ],
      [
        "erythe",
        "matosus"
      ],
      [
        "microphthalm",
        "os"
      ],
      [
        "hyperoxal",
        "uria"
      ],
      [
        "a",
        "z"
      ],
      [
        "c",
        "j"
      ],
      [
        "c",
        "w"
      ],
      [
        "c",
        "he"
      ],
      [
        "c",
        "el"
      ],
      [
        "f",
        "al"
      ],
      [
        "f",
        "ar"
      ],
      [
        "h",
        "lear"
      ],
      [
        "l",
        "lu"
      ],
      [
        "v",
        "re"
      ],
      [
        "w",
        "f"
      ],
      [
        "ti",
        "go"
      ],
      [
        "re",
        "ce"
      ],
      [
        "re",
        "pon"
      ],
      [
        "re",
        "cep"
      ],
      [
        "th",
        "ing"
      ],
      [
        "se",
        "ned"
      ],
      [
        "te",
        "in"
      ],
      [
        "ro",
        "p"
      ],
      [
        "ul",
        "e"
      ],
      [
        "is",
        "su"
      ],
      [
        "er",
        "g"
      ],
      [
        "ve",
        "p"
      ],
      [
        "or",
        "de"
      ],
      [
        "de",
        "mar"
      ],
      [
        "ath",
        "i"
      ],
      [
        "pe",
        "cted"
      ],
      [
        "gi",
        "ven"
      ],
      [
        "be",
        "llu"
      ],
      [
        "con",
        "fused"
      ],
      [
        "ry",
        "cel"
      ],
      [
        "mem",
        "ory"
      ],
      [
        "fa",
        "vre"
      ],
      [
        "ver",
        "tigo"
      ],
      [
        "ta",
        "u"
      ],
      [
        "disc",
        "iform"
      ],
      [
        "bl",
        "oc"
      ],
      [
        "cm",
        "l"
      ],
      [
        "ev",
        "al"
      ],
      [
        "pro",
        "tein"
      ],
      [
        "par",
        "ts"
      ],
      [
        "fin",
        "d"
      ],
      [
        "fin",
        "al"
      ],
      [
        "wor",
        "sened"
      ],
      [
        "men",
        "s"
      ],
      [
        "sus",
        "pected"
      ],
      [
        "sign",
        "al"
      ],
      [
        "sa",
        "w"
      ],
      [
        "any",
        "thing"
      ],
      [
        "mt",
        "x"
      ],
      [
        "sp",
        "rycel"
      ],
      [
        "cere",
        "bellu"
      ],
      [
        "ien",
        "ted"
      ],
      [
        "regi",
        "mens"
      ],
      [
        "disor",
        "iented"
      ],
      [
        "bal",
        "ance"
      ],
      [
        "oncolog",
        "y"
      ],
      [
        "coc",
        "hlear"
      ],
      [
        "ey",
        "lea"
      ],
      [
        "az",
        "athi"
      ],
      [
        "cj",
        "d"
      ],
      [
        "cw",
        "s"
      ],
      [
        "fal",
        "se"
      ],
      [
        "far",
        "ve"
      ],
      [
        "repon",
        "se"
      ],
      [
        "issu",
        "es"
      ],
      [
        "orde",
        "red"
      ],
      [
        "cerebellu",
        "m"
      ],
      [
        "2",
        "3"
      ],
      [
        "b",
        "ic"
      ],
      [
        "n",
        "ve"
      ],
      [
        "al",
        "oid"
      ],
      [
        "ro",
        "th"
      ],
      [
        "op",
        "er"
      ],
      [
        "photo",
        "recep"
      ],
      [
        "lu",
        "oresc"
      ],
      [
        "ed",
        "ges"
      ],
      [
        "ce",
        "ss"
      ],
      [
        "complain",
        "ts"
      ],
      [
        "blur",
        "ry"
      ],
      [
        "initial",
        "ly"
      ],
      [
        "bic",
        "lonal"
      ],
      [
        "c",
        "ac"
      ],
      [
        "c",
        "at"
      ],
      [
        "m",
        "ber"
      ],
      [
        "s",
        "me"
      ],
      [
        "s",
        "pon"
      ],
      [
        "u",
        "ation"
      ],
      [
        "th",
        "rou"
      ],
      [
        "ve",
        "mber"
      ],
      [
        "of",
        "luoresc"
      ],
      [
        "su",
        "pe"
      ],
      [
        "pre",
        "vious"
      ],
      [
        "ad",
        "j"
      ],
      [
        "no",
        "vember"
      ],
      [
        "hole",
        "s"
      ],
      [
        "ty",
        "pe"
      ],
      [
        "sl",
        "ight"
      ],
      [
        "arac",
        "t"
      ],
      [
        "path",
        "ology"
      ],
      [
        "remain",
        "ed"
      ],
      [
        "cat",
        "aract"
      ],
      [
        "c",
        "ation"
      ],
      [
        "f",
        "l"
      ],
      [
        "f",
        "ic"
      ],
      [
        "f",
        "un"
      ],
      [
        "ol",
        "or"
      ],
      [
        "do",
        "ing"
      ],
      [
        "photograph",
        "s"
      ],
      [
        "hy",
        "aloid"
      ],
      [
        "tu",
        "r"
      ],
      [
        "periph",
        "lebitis"
      ],
      [
        "arteri",
        "olar"
      ],
      [
        "under",
        "lying"
      ],
      [
        "tuber",
        "cular"
      ],
      [
        "8",
        "3"
      ],
      [
        "c",
        "ti"
      ],
      [
        "ar",
        "coma"
      ],
      [
        "us",
        "ing"
      ],
      [
        "id",
        "ual"
      ],
      [
        "me",
        "di"
      ],
      [
        "ath",
        "er"
      ],
      [
        "os",
        "arcoma"
      ],
      [
        "ch",
        "arac"
      ],
      [
        "it",
        "s"
      ],
      [
        "res",
        "idual"
      ],
      [
        "my",
        "osarcoma"
      ],
      [
        "fold",
        "ed"
      ],
      [
        "non",
        "perfusion"
      ],
      [
        "arteri",
        "al"
      ],
      [
        "fib",
        "rosis"
      ],
      [
        "car",
        "rier"
      ],
      [
        "rhabdo",
        "myosarcoma"
      ],
      [
        "spic",
        "ules"
      ],
      [
        "thir",
        "ty"
      ],
      [
        "para",
        "foveal"
      ],
      [
        "clump",
        "ing"
      ],
      [
        "photorecep",
        "tors"
      ],
      [
        "charac",
        "ter"
      ],
      [
        ")",
        ","
      ],
      [
        "a",
        "ine"
      ],
      [
        "c",
        "re"
      ],
      [
        "k",
        "ely"
      ],
      [
        "l",
        "ign"
      ],
      [
        "o",
        "mal"
      ],
      [
        "s",
        "ia"
      ],
      [
        "v",
        "h"
      ],
      [
        "ti",
        "al"
      ],
      [
        "ar",
        "gen"
      ],
      [
        "re",
        "cor"
      ],
      [
        "an",
        "omal"
      ],
      [
        "tin",
        "a"
      ],
      [
        "oc",
        "aine"
      ],
      [
        "ne",
        "g"
      ],
      [
        "el",
        "se"
      ],
      [
        "sho",
        "e"
      ],
      [
        "co",
        "t"
      ],
      [
        "drusen",
        "oid"
      ],
      [
        "hist",
        "opath"
      ],
      [
        "li",
        "kely"
      ],
      [
        "ha",
        "ving"
      ],
      [
        "epi",
        "macular"
      ],
      [
        "limi",
        "ting"
      ],
      [
        "syphi",
        "l"
      ],
      [
        "thick",
        "ness"
      ],
      [
        "hor",
        "se"
      ],
      [
        "demar",
        "cation"
      ],
      [
        "cac",
        "d"
      ],
      [
        "argen",
        "tina"
      ],
      [
        "a",
        "o"
      ],
      [
        "f",
        "ing"
      ],
      [
        "k",
        "en"
      ],
      [
        "in",
        "doc"
      ],
      [
        "op",
        "to"
      ],
      [
        "hi",
        "v"
      ],
      [
        "me",
        "dia"
      ],
      [
        "hyper",
        "fluorescent"
      ],
      [
        "ta",
        "ken"
      ],
      [
        "ren",
        "t"
      ],
      [
        "aneurysm",
        "s"
      ],
      [
        "yan",
        "ine"
      ],
      [
        "met",
        "al"
      ],
      [
        "complain",
        "ing"
      ],
      [
        "cor",
        "respon"
      ],
      [
        "silic",
        "one"
      ],
      [
        ".,",
        ","
      ],
      [
        "hyp",
        "ofluoresc"
      ],
      [
        "infar",
        "ction"
      ],
      [
        "sti",
        "ll"
      ],
      [
        "blo",
        "od"
      ],
      [
        "fing",
        "er"
      ],
      [
        "indoc",
        "yanine"
      ],
      [
        "opto",
        "s"
      ],
      [
        "f",
        "s"
      ],
      [
        "f",
        "lo"
      ],
      [
        "g",
        "ho"
      ],
      [
        "m",
        "ore"
      ],
      [
        "o",
        "und"
      ],
      [
        "p",
        "i"
      ],
      [
        "p",
        "ur"
      ],
      [
        "r",
        "x"
      ],
      [
        "t",
        "sc"
      ],
      [
        "w",
        "ater"
      ],
      [
        "y",
        "r"
      ],
      [
        "ti",
        "s"
      ],
      [
        "th",
        "an"
      ],
      [
        "or",
        "fs"
      ],
      [
        "de",
        "pos"
      ],
      [
        "ma",
        "bly"
      ],
      [
        "ne",
        "ph"
      ],
      [
        "br",
        "yon"
      ],
      [
        "presu",
        "mably"
      ],
      [
        "wo",
        "ol"
      ],
      [
        "qu",
        "et"
      ],
      [
        "em",
        "bryon"
      ],
      [
        "consis",
        "ting"
      ],
      [
        "bacteri",
        "al"
      ],
      [
        "dur",
        "ation"
      ],
      [
        "spon",
        "taneous"
      ],
      [
        "lign",
        "ocaine"
      ],
      [
        "cot",
        "ton"
      ],
      [
        "horse",
        "shoe"
      ],
      [
        "pur",
        "tsc"
      ],
      [
        "purtsc",
        "her"
      ],
      [
        "p",
        "ast"
      ],
      [
        "u",
        "se"
      ],
      [
        "v",
        "mt"
      ],
      [
        "ar",
        "ound"
      ],
      [
        "se",
        "em"
      ],
      [
        "ro",
        "ss"
      ],
      [
        "de",
        "mon"
      ],
      [
        "ma",
        "ternal"
      ],
      [
        "at",
        "ten"
      ],
      [
        "per",
        "al"
      ],
      [
        "no",
        "te"
      ],
      [
        "peri",
        "peral"
      ],
      [
        "prolifer",
        "ation"
      ],
      [
        "ev",
        "id"
      ],
      [
        "complain",
        "ed"
      ],
      [
        "grand",
        "mother"
      ],
      [
        "seem",
        "s"
      ],
      [
        "demon",
        "st"
      ],
      [
        "f",
        "ather"
      ],
      [
        "l",
        "oc"
      ],
      [
        "o",
        "st"
      ],
      [
        "r",
        "ican"
      ],
      [
        "ar",
        "s"
      ],
      [
        "th",
        "y"
      ],
      [
        "te",
        "nd"
      ],
      [
        "ro",
        "cy"
      ],
      [
        "on",
        "ly"
      ],
      [
        "de",
        "ep"
      ],
      [
        "ation",
        "s"
      ],
      [
        "ex",
        "tend"
      ],
      [
        "no",
        "tice"
      ],
      [
        "pr",
        "ine"
      ],
      [
        "hy",
        "po"
      ],
      [
        "rea",
        "k"
      ],
      [
        "af",
        "rican"
      ],
      [
        "alm",
        "ost"
      ],
      [
        "ast",
        "rocy"
      ],
      [
        "dif",
        "fic"
      ],
      [
        "combin",
        "ation"
      ],
      [
        "ill",
        "ness"
      ],
      [
        "spe",
        "c"
      ],
      [
        "azathi",
        "prine"
      ],
      [
        "neg",
        "ative"
      ],
      [
        "extend",
        "ing"
      ],
      [
        "astrocy",
        "tic"
      ],
      [
        "h",
        "ine"
      ],
      [
        "i",
        "pcv"
      ],
      [
        "m",
        "ass"
      ],
      [
        "p",
        "uc"
      ],
      [
        "al",
        "bi"
      ],
      [
        "en",
        "lar"
      ],
      [
        "in",
        "t"
      ],
      [
        "20",
        "12"
      ],
      [
        "to",
        "retinal"
      ],
      [
        "mac",
        "hine"
      ],
      [
        "ic",
        "e"
      ],
      [
        "am",
        "y"
      ],
      [
        "hist",
        "ology"
      ],
      [
        "roaneurysm",
        "s"
      ],
      [
        "mic",
        "roaneurysms"
      ],
      [
        "mar",
        "g"
      ],
      [
        "punct",
        "atus"
      ],
      [
        "tape",
        "toretinal"
      ],
      [
        "blur",
        "ring"
      ],
      [
        "eight",
        "y"
      ],
      [
        "rop",
        "ia"
      ],
      [
        "eval",
        "uation"
      ],
      [
        "puc",
        "ker"
      ],
      [
        "albi",
        "punctatus"
      ],
      [
        "enlar",
        "ging"
      ],
      [
        "b",
        "ul"
      ],
      [
        "i",
        "ve"
      ],
      [
        "n",
        "t"
      ],
      [
        "t",
        "b"
      ],
      [
        "ti",
        "g"
      ],
      [
        "in",
        "ter"
      ],
      [
        "le",
        "ad"
      ],
      [
        "phy",
        "sic"
      ],
      [
        "sub",
        "sequ"
      ],
      [
        "30",
        "0"
      ],
      [
        "tra",
        "um"
      ],
      [
        "anti",
        "tubercular"
      ],
      [
        "cm",
        "c"
      ],
      [
        "ir",
        "is"
      ],
      [
        "wor",
        "m"
      ],
      [
        "blu",
        "nt"
      ],
      [
        "mid",
        "periphery"
      ],
      [
        "cul",
        "tured"
      ],
      [
        "coloboma",
        "ta"
      ],
      [
        "invol",
        "ving"
      ],
      [
        "fibro",
        "tic"
      ],
      [
        "regres",
        "sed"
      ],
      [
        "sme",
        "ars"
      ],
      [
        "histopath",
        "ology"
      ],
      [
        "flo",
        "ater"
      ],
      [
        "embryon",
        "al"
      ],
      [
        "evid",
        "ence"
      ],
      [
        "bul",
        "b"
      ],
      [
        "lead",
        "ing"
      ],
      [
        "physic",
        "ian"
      ],
      [
        "subsequ",
        "ent"
      ],
      [
        "traum",
        "atic"
      ],
      [
        "8",
        "8"
      ],
      [
        "9",
        "0"
      ],
      [
        "b",
        "ur"
      ],
      [
        "c",
        "le"
      ],
      [
        "c",
        "ting"
      ],
      [
        "f",
        "ill"
      ],
      [
        "t",
        "ren"
      ],
      [
        "w",
        "ill"
      ],
      [
        "ol",
        "len"
      ],
      [
        "in",
        "ity"
      ],
      [
        "us",
        "ive"
      ],
      [
        "id",
        "en"
      ],
      [
        "to",
        "sis"
      ],
      [
        "ter",
        "s"
      ],
      [
        "la",
        "y"
      ],
      [
        "the",
        "ir"
      ],
      [
        "cl",
        "o"
      ],
      [
        "las",
        "t"
      ],
      [
        "po",
        "unding"
      ],
      [
        "occl",
        "usive"
      ],
      [
        "ap",
        "p"
      ],
      [
        "occlusion",
        "s"
      ],
      [
        "man",
        "y"
      ],
      [
        "scar",
        "s"
      ],
      [
        "scar",
        "red"
      ],
      [
        "min",
        "u"
      ],
      [
        "affe",
        "cting"
      ],
      [
        "progres",
        "sed"
      ],
      [
        "pul",
        "ly"
      ],
      [
        "fra",
        "gment"
      ],
      [
        "consangu",
        "inity"
      ],
      [
        "ischae",
        "mia"
      ],
      [
        "bloc",
        "k"
      ],
      [
        "supe",
        "rotemporal"
      ],
      [
        "metal",
        "ic"
      ],
      [
        "pi",
        "pe"
      ],
      [
        "tren",
        "ch"
      ],
      [
        "e",
        "og"
      ],
      [
        "i",
        "um"
      ],
      [
        "l",
        "it"
      ],
      [
        "n",
        "l"
      ],
      [
        "s",
        "well"
      ],
      [
        "z",
        "one"
      ],
      [
        "ro",
        "pic"
      ],
      [
        "in",
        "to"
      ],
      [
        "hi",
        "m"
      ],
      [
        "st",
        "ack"
      ],
      [
        "de",
        "ut"
      ],
      [
        "ch",
        "y"
      ],
      [
        "per",
        "g"
      ],
      [
        "pho",
        "top"
      ],
      [
        "dia",
        "me"
      ],
      [
        "con",
        "ges"
      ],
      [
        "da",
        "ble"
      ],
      [
        "presen",
        "ce"
      ],
      [
        "presen",
        "ile"
      ],
      [
        "mic",
        "ron"
      ],
      [
        "non",
        "recor"
      ],
      [
        "mar",
        "ked"
      ],
      [
        "atu",
        "re"
      ],
      [
        "im",
        "t"
      ],
      [
        "em",
        "mot"
      ],
      [
        "ke",
        "stack"
      ],
      [
        "rup",
        "tured"
      ],
      [
        "fiber",
        "s"
      ],
      [
        "spe",
        "ct"
      ],
      [
        "smo",
        "kestack"
      ],
      [
        "mot",
        "t"
      ],
      [
        "pain",
        "less"
      ],
      [
        "calc",
        "ium"
      ],
      [
        "defin",
        "ed"
      ],
      [
        "shun",
        "t"
      ],
      [
        "cen",
        "tered"
      ],
      [
        "depos",
        "its"
      ],
      [
        "swell",
        "ing"
      ],
      [
        "deut",
        "an"
      ],
      [
        "micron",
        "s"
      ],
      [
        "nonrecor",
        "dable"
      ],
      [
        "emmot",
        "ropic"
      ],
      [
        "c",
        "op"
      ],
      [
        "f",
        "ace"
      ],
      [
        "i",
        "te"
      ],
      [
        "m",
        "un"
      ],
      [
        "w",
        "th"
      ],
      [
        "ar",
        "row"
      ],
      [
        "in",
        "di"
      ],
      [
        "de",
        "positi"
      ],
      [
        "gener",
        "al"
      ],
      [
        "li",
        "ed"
      ],
      [
        "gro",
        "wth"
      ],
      [
        "arteri",
        "ole"
      ],
      [
        "mid",
        "peripheral"
      ],
      [
        "im",
        "mun"
      ],
      [
        "obser",
        "vation"
      ],
      [
        "coun",
        "ting"
      ],
      [
        "fra",
        "me"
      ],
      [
        "inc",
        "idental"
      ],
      [
        "throu",
        "gh"
      ],
      [
        "syphil",
        "is"
      ],
      [
        "iden",
        "tical"
      ],
      [
        "app",
        "lied"
      ],
      [
        "depositi",
        "on"
      ],
      [
        "+",
        "."
      ],
      [
        "a",
        "pergillus"
      ],
      [
        "f",
        "las"
      ],
      [
        "h",
        "al"
      ],
      [
        "n",
        "ous"
      ],
      [
        "o",
        "tic"
      ],
      [
        "r",
        "th"
      ],
      [
        "t",
        "ri"
      ],
      [
        "re",
        "us"
      ],
      [
        "en",
        "e"
      ],
      [
        "in",
        "tr"
      ],
      [
        "tin",
        "al"
      ],
      [
        "ati",
        "tis"
      ],
      [
        "st",
        "asis"
      ],
      [
        "de",
        "laye"
      ],
      [
        "ter",
        "reus"
      ],
      [
        "di",
        "lated"
      ],
      [
        "central",
        "ly"
      ],
      [
        "sub",
        "hyaloid"
      ],
      [
        "con",
        "j"
      ],
      [
        "lo",
        "macular"
      ],
      [
        "bi",
        "rth"
      ],
      [
        "papil",
        "lomacular"
      ],
      [
        "ver",
        "sic"
      ],
      [
        "ver",
        "nous"
      ],
      [
        "are",
        "tinal"
      ],
      [
        "injection",
        "s"
      ],
      [
        "ca",
        "vernous"
      ],
      [
        "ball",
        "s"
      ],
      [
        "coun",
        "t"
      ],
      [
        "quadrant",
        "s"
      ],
      [
        "fun",
        "gal"
      ],
      [
        "medi",
        "cal"
      ],
      [
        "vh",
        "l"
      ],
      [
        "diffic",
        "ul"
      ],
      [
        "clo",
        "sed"
      ],
      [
        "spect",
        "ral"
      ],
      [
        "flas",
        "h"
      ],
      [
        "intr",
        "aretinal"
      ],
      [
        "delaye",
        "d"
      ],
      [
        "versic",
        "olor"
      ],
      [
        "g",
        "mus"
      ],
      [
        "n",
        "y"
      ],
      [
        "p",
        "in"
      ],
      [
        "s",
        "of"
      ],
      [
        "ro",
        "tic"
      ],
      [
        "ac",
        "ity"
      ],
      [
        "is",
        "t"
      ],
      [
        "op",
        "acity"
      ],
      [
        "ra",
        "quet"
      ],
      [
        "dyst",
        "rophic"
      ],
      [
        "flu",
        "ent"
      ],
      [
        "con",
        "fluent"
      ],
      [
        "ble",
        "ed"
      ],
      [
        "tes",
        "ting"
      ],
      [
        "pro",
        "b"
      ],
      [
        "pro",
        "cess"
      ],
      [
        "sta",
        "gmus"
      ],
      [
        "sel",
        "f"
      ],
      [
        "boy",
        "s"
      ],
      [
        "intra",
        "venous"
      ],
      [
        "ker",
        "atitis"
      ],
      [
        "tw",
        "in"
      ],
      [
        "cre",
        "amy"
      ],
      [
        "cle",
        "ared"
      ],
      [
        "diame",
        "ters"
      ],
      [
        "conges",
        "tion"
      ],
      [
        "hal",
        "f"
      ],
      [
        "ny",
        "stagmus"
      ],
      [
        "sof",
        "t"
      ],
      [
        "raquet",
        "ball"
      ],
      [
        "b",
        "reaks"
      ],
      [
        "k",
        "oc"
      ],
      [
        "l",
        "oph"
      ],
      [
        "o",
        "mp"
      ],
      [
        "s",
        "on"
      ],
      [
        "u",
        "ted"
      ],
      [
        "u",
        "koc"
      ],
      [
        "ti",
        "d"
      ],
      [
        "re",
        "le"
      ],
      [
        "se",
        "eding"
      ],
      [
        "tin",
        "e"
      ],
      [
        "le",
        "ukoc"
      ],
      [
        "with",
        "in"
      ],
      [
        "or",
        "t"
      ],
      [
        "or",
        "ia"
      ],
      [
        "fe",
        "w"
      ],
      [
        "oc",
        "omp"
      ],
      [
        "sc",
        "es"
      ],
      [
        "his",
        "to"
      ],
      [
        "sen",
        "ile"
      ],
      [
        "co",
        "bacteri"
      ],
      [
        "am",
        "or"
      ],
      [
        "my",
        "cobacteri"
      ],
      [
        "un",
        "treated"
      ],
      [
        "papil",
        "loph"
      ],
      [
        "rom",
        "ised"
      ],
      [
        "ab",
        "sces"
      ],
      [
        "par",
        "ac"
      ],
      [
        "gro",
        "wn"
      ],
      [
        "tor",
        "tu"
      ],
      [
        "met",
        "amor"
      ],
      [
        "syphi",
        "litis"
      ],
      [
        "hyp",
        "op"
      ],
      [
        "tw",
        "enty"
      ],
      [
        "spic",
        "ule"
      ],
      [
        "control",
        "led"
      ],
      [
        "anomal",
        "y"
      ],
      [
        "hypofluoresc",
        "ence"
      ],
      [
        "neph",
        "rotic"
      ],
      [
        "thy",
        "roid"
      ],
      [
        "immun",
        "ocomp"
      ],
      [
        "leukoc",
        "oria"
      ],
      [
        "mycobacteri",
        "um"
      ],
      [
        "papilloph",
        "lebitis"
      ],
      [
        "absces",
        "s"
      ],
      [
        "immunocomp",
        "romised"
      ],
      [
        "8",
        "4"
      ],
      [
        "g",
        "n"
      ],
      [
        "g",
        "lo"
      ],
      [
        "i",
        "p"
      ],
      [
        "k",
        "able"
      ],
      [
        "l",
        "ocal"
      ],
      [
        "s",
        "w"
      ],
      [
        "re",
        "mar"
      ],
      [
        "en",
        "ing"
      ],
      [
        "in",
        "ves"
      ],
      [
        "us",
        "ting"
      ],
      [
        "st",
        "age"
      ],
      [
        "la",
        "be"
      ],
      [
        "la",
        "mp"
      ],
      [
        "di",
        "min"
      ],
      [
        "show",
        "n"
      ],
      [
        "am",
        "n"
      ],
      [
        "am",
        "er"
      ],
      [
        "un",
        "remar"
      ],
      [
        "har",
        "d"
      ],
      [
        "neuro",
        "path"
      ],
      [
        "sl",
        "it"
      ],
      [
        "thick",
        "ening"
      ],
      [
        "rou",
        "tine"
      ],
      [
        "bor",
        "der"
      ],
      [
        "adj",
        "usting"
      ],
      [
        "correspon",
        "ds"
      ],
      [
        "fill",
        "ing"
      ],
      [
        "sw",
        "ollen"
      ],
      [
        "inves",
        "tig"
      ],
      [
        "labe",
        "led"
      ],
      [
        "unremar",
        "kable"
      ],
      [
        "neuropath",
        "y"
      ],
      [
        "border",
        "s"
      ],
      [
        "b",
        "2"
      ],
      [
        "b",
        "un"
      ],
      [
        "b",
        "reak"
      ],
      [
        "c",
        "our"
      ],
      [
        "d",
        "b2"
      ],
      [
        "g",
        "lu"
      ],
      [
        "m",
        "h"
      ],
      [
        "p",
        "p"
      ],
      [
        "p",
        "ene"
      ],
      [
        "r",
        "u"
      ],
      [
        "s",
        "f"
      ],
      [
        "s",
        "sive"
      ],
      [
        "u",
        "ated"
      ],
      [
        "ol",
        "er"
      ],
      [
        "de",
        "cl"
      ],
      [
        "ma",
        "g"
      ],
      [
        "il",
        "ities"
      ],
      [
        "con",
        "fir"
      ],
      [
        "co",
        "se"
      ],
      [
        "no",
        "tic"
      ],
      [
        "ct",
        "s"
      ],
      [
        "un",
        "cti"
      ],
      [
        "ver",
        "ted"
      ],
      [
        "melan",
        "otic"
      ],
      [
        "ophthalm",
        "ologic"
      ],
      [
        "mo",
        "st"
      ],
      [
        "respon",
        "sive"
      ],
      [
        "com",
        "orb"
      ],
      [
        "juxta",
        "fove"
      ],
      [
        "ll",
        "is"
      ],
      [
        "surger",
        "ies"
      ],
      [
        "ca",
        "ting"
      ],
      [
        "198",
        "2"
      ],
      [
        "metast",
        "atic"
      ],
      [
        "micro",
        "vascular"
      ],
      [
        "syphi",
        "llis"
      ],
      [
        "val",
        "s"
      ],
      [
        "smo",
        "ker"
      ],
      [
        "sequ",
        "ence"
      ],
      [
        "calc",
        "ific"
      ],
      [
        "rece",
        "ssive"
      ],
      [
        "gho",
        "st"
      ],
      [
        "int",
        "oler"
      ],
      [
        "block",
        "age"
      ],
      [
        "conj",
        "uncti"
      ],
      [
        "glu",
        "cose"
      ],
      [
        "ru",
        "be"
      ],
      [
        "decl",
        "ining"
      ],
      [
        "comorb",
        "ilities"
      ],
      [
        "juxtafove",
        "olar"
      ],
      [
        "intoler",
        "ance"
      ],
      [
        "8",
        "7"
      ],
      [
        "b",
        "ro"
      ],
      [
        "c",
        "ross"
      ],
      [
        "d",
        "ar"
      ],
      [
        "d",
        "ou"
      ],
      [
        "f",
        "ac"
      ],
      [
        "n",
        "op"
      ],
      [
        "p",
        "all"
      ],
      [
        "t",
        "le"
      ],
      [
        "u",
        "ded"
      ],
      [
        "20",
        "14"
      ],
      [
        "ma",
        "tory"
      ],
      [
        "os",
        "cop"
      ],
      [
        "sc",
        "at"
      ],
      [
        "ex",
        "tra"
      ],
      [
        "si",
        "te"
      ],
      [
        "acu",
        "ities"
      ],
      [
        "tox",
        "o"
      ],
      [
        "visual",
        "ly"
      ],
      [
        "tear",
        "s"
      ],
      [
        "exud",
        "ation"
      ],
      [
        "inflam",
        "matory"
      ],
      [
        "chem",
        "otherapy"
      ],
      [
        "time",
        "s"
      ],
      [
        "affe",
        "rent"
      ],
      [
        "invol",
        "uted"
      ],
      [
        "clinical",
        "ly"
      ],
      [
        "oxal",
        "ate"
      ],
      [
        "bor",
        "n"
      ],
      [
        "oper",
        "ative"
      ],
      [
        "loc",
        "ated"
      ],
      [
        "marg",
        "ins"
      ],
      [
        "minu",
        "tes"
      ],
      [
        "glo",
        "be"
      ],
      [
        "amer",
        "ican"
      ],
      [
        "dar",
        "k"
      ],
      [
        "dou",
        "ble"
      ],
      [
        "pall",
        "or"
      ],
      [
        "a",
        "mp"
      ],
      [
        "a",
        "melanotic"
      ],
      [
        "c",
        "d"
      ],
      [
        "c",
        "il"
      ],
      [
        "c",
        "sf"
      ],
      [
        "e",
        "ith"
      ],
      [
        "f",
        "fa"
      ],
      [
        "i",
        "fe"
      ],
      [
        "i",
        "oretinal"
      ],
      [
        "o",
        "tid"
      ],
      [
        "r",
        "ia"
      ],
      [
        "s",
        "pr"
      ],
      [
        "v",
        "f"
      ],
      [
        "w",
        "here"
      ],
      [
        "x",
        "t"
      ],
      [
        "ol",
        "ving"
      ],
      [
        "an",
        "a"
      ],
      [
        "an",
        "cy"
      ],
      [
        "on",
        "h"
      ],
      [
        "ho",
        "t"
      ],
      [
        "fe",
        "br"
      ],
      [
        "oc",
        "cur"
      ],
      [
        "the",
        "sia"
      ],
      [
        "ne",
        "xt"
      ],
      [
        "pre",
        "gn"
      ],
      [
        "occl",
        "uded"
      ],
      [
        "ane",
        "mia"
      ],
      [
        "ple",
        "ocy"
      ],
      [
        "ble",
        "eding"
      ],
      [
        "tr",
        "ation"
      ],
      [
        "vascul",
        "ature"
      ],
      [
        "ev",
        "olving"
      ],
      [
        "ine",
        "ous"
      ],
      [
        "pl",
        "us"
      ],
      [
        "radi",
        "otherapy"
      ],
      [
        "iv",
        "da"
      ],
      [
        "mar",
        "ria"
      ],
      [
        "34",
        "yr"
      ],
      [
        "off",
        "spr"
      ],
      [
        "car",
        "otid"
      ],
      [
        "infar",
        "cts"
      ],
      [
        "consangu",
        "ineous"
      ],
      [
        "character",
        "ized"
      ],
      [
        ".,,",
        "-"
      ],
      [
        "floater",
        "s"
      ],
      [
        "local",
        "ized"
      ],
      [
        "pene",
        "tration"
      ],
      [
        "cd",
        "4"
      ],
      [
        "cil",
        "ioretinal"
      ],
      [
        "eith",
        "er"
      ],
      [
        "febr",
        "ile"
      ],
      [
        "pleocy",
        "tosis"
      ],
      [
        "marria",
        "ge"
      ],
      [
        "offspr",
        "ing"
      ],
      [
        "c",
        "as"
      ],
      [
        "e",
        "f"
      ],
      [
        "i",
        "op"
      ],
      [
        "m",
        "mh"
      ],
      [
        "s",
        "k"
      ],
      [
        "s",
        "ing"
      ],
      [
        "u",
        "red"
      ],
      [
        "v",
        "ant"
      ],
      [
        "w",
        "h"
      ],
      [
        "re",
        "l"
      ],
      [
        "re",
        "t"
      ],
      [
        "re",
        "tur"
      ],
      [
        "en",
        "s"
      ],
      [
        "is",
        "tic"
      ],
      [
        "is",
        "he"
      ],
      [
        "is",
        "sion"
      ],
      [
        "st",
        "and"
      ],
      [
        "srnv",
        "m"
      ],
      [
        "per",
        "fused"
      ],
      [
        "vo",
        "mi"
      ],
      [
        "ou",
        "gh"
      ],
      [
        "do",
        "wn"
      ],
      [
        "co",
        "me"
      ],
      [
        "pr",
        "p"
      ],
      [
        "pat",
        "chy"
      ],
      [
        "dis",
        "tor"
      ],
      [
        "sm",
        "ission"
      ],
      [
        "ophthalm",
        "olog"
      ],
      [
        "li",
        "pid"
      ],
      [
        "par",
        "tial"
      ],
      [
        "ache",
        "d"
      ],
      [
        "ama",
        "zing"
      ],
      [
        "superior",
        "ly"
      ],
      [
        "loop",
        "s"
      ],
      [
        "cell",
        "s"
      ],
      [
        "ischae",
        "mic"
      ],
      [
        "surro",
        "unding"
      ],
      [
        "tran",
        "smission"
      ],
      [
        "character",
        "istic"
      ],
      [
        "demonst",
        "ra"
      ],
      [
        "pin",
        "hole"
      ],
      [
        "rele",
        "vant"
      ],
      [
        "investig",
        "ations"
      ],
      [
        "scat",
        "tered"
      ],
      [
        "mmh",
        "g"
      ],
      [
        "retur",
        "ned"
      ],
      [
        "ishe",
        "d"
      ],
      [
        "stand",
        "ing"
      ],
      [
        "vomi",
        "ting"
      ],
      [
        "distor",
        "tion"
      ],
      [
        "ophthalmolog",
        "ist"
      ],
      [
        ")",
        ";"
      ],
      [
        "b",
        "ol"
      ],
      [
        "b",
        "ulation"
      ],
      [
        "b",
        "uck"
      ],
      [
        "c",
        "row"
      ],
      [
        "d",
        "le"
      ],
      [
        "f",
        "ul"
      ],
      [
        "g",
        "ree"
      ],
      [
        "h",
        "and"
      ],
      [
        "i",
        "ted"
      ],
      [
        "l",
        "ac"
      ],
      [
        "n",
        "uc"
      ],
      [
        "r",
        "ac"
      ],
      [
        "r",
        "ace"
      ],
      [
        "r",
        "fl"
      ],
      [
        "s",
        "par"
      ],
      [
        "s",
        "ha"
      ],
      [
        "s",
        "ler"
      ],
      [
        "al",
        "be"
      ],
      [
        "al",
        "va"
      ],
      [
        "an",
        "tic"
      ],
      [
        "in",
        "ad"
      ],
      [
        "ac",
        "ent"
      ],
      [
        "le",
        "vel"
      ],
      [
        "me",
        "as"
      ],
      [
        "me",
        "ta"
      ],
      [
        "de",
        "gree"
      ],
      [
        "oc",
        "cas"
      ],
      [
        "white",
        "ning"
      ],
      [
        "ne",
        "ed"
      ],
      [
        "ne",
        "mato"
      ],
      [
        "at",
        "a"
      ],
      [
        "sc",
        "ens"
      ],
      [
        "ion",
        "al"
      ],
      [
        "il",
        "m"
      ],
      [
        "con",
        "dition"
      ],
      [
        "am",
        "sler"
      ],
      [
        "man",
        "ife"
      ],
      [
        "peri",
        "bulb"
      ],
      [
        "hyper",
        "met"
      ],
      [
        "ver",
        "tent"
      ],
      [
        "tu",
        "bulation"
      ],
      [
        "va",
        "ble"
      ],
      [
        "ven",
        "ules"
      ],
      [
        "es",
        "thesia"
      ],
      [
        "tr",
        "ic"
      ],
      [
        "mo",
        "se"
      ],
      [
        "unilateral",
        "ly"
      ],
      [
        "impro",
        "vable"
      ],
      [
        "mid",
        "dle"
      ],
      [
        "punct",
        "ata"
      ],
      [
        "em",
        "bol"
      ],
      [
        "scler",
        "a"
      ],
      [
        "invol",
        "vement"
      ],
      [
        "defin",
        "ite"
      ],
      [
        "orb",
        "it"
      ],
      [
        "oper",
        "ated"
      ],
      [
        "adj",
        "acent"
      ],
      [
        "indi",
        "cating"
      ],
      [
        "prob",
        "able"
      ],
      [
        "cour",
        "se"
      ],
      [
        "vals",
        "alva"
      ],
      [
        "rube",
        "osis"
      ],
      [
        "ana",
        "esthesia"
      ],
      [
        "occur",
        "s"
      ],
      [
        "buck",
        "le"
      ],
      [
        "crow",
        "ded"
      ],
      [
        "race",
        "mose"
      ],
      [
        "albe",
        "scens"
      ],
      [
        "inad",
        "vertent"
      ],
      [
        "occas",
        "ional"
      ],
      [
        "need",
        "le"
      ],
      [
        "nemato",
        "de"
      ],
      [
        "peribulb",
        "ar"
      ],
      [
        "hypermet",
        "ropia"
      ],
      [
        "embol",
        "us"
      ],
      [
        "(",
        ">"
      ],
      [
        "c",
        "idental"
      ],
      [
        "c",
        "cess"
      ],
      [
        "i",
        "mented"
      ],
      [
        "j",
        "us"
      ],
      [
        "l",
        "id"
      ],
      [
        "l",
        "itus"
      ],
      [
        "n",
        "arrow"
      ],
      [
        "o",
        "imented"
      ],
      [
        "u",
        "pon"
      ],
      [
        "re",
        "com"
      ],
      [
        "ac",
        "cidental"
      ],
      [
        "id",
        "el"
      ],
      [
        "os",
        "ure"
      ],
      [
        "su",
        "f"
      ],
      [
        "su",
        "ccess"
      ],
      [
        "he",
        "ar"
      ],
      [
        "he",
        "idel"
      ],
      [
        "cl",
        "osure"
      ],
      [
        "sen",
        "ce"
      ],
      [
        "pre",
        "retinal"
      ],
      [
        "col",
        "le"
      ],
      [
        "mel",
        "litus"
      ],
      [
        "end",
        "ocar"
      ],
      [
        "men",
        "ded"
      ],
      [
        "sl",
        "ide"
      ],
      [
        "sti",
        "tial"
      ],
      [
        "shun",
        "ts"
      ],
      [
        "inter",
        "stitial"
      ],
      [
        "bur",
        "n"
      ],
      [
        "difficul",
        "ty"
      ],
      [
        "hypop",
        "ig"
      ],
      [
        "dimin",
        "ished"
      ],
      [
        "notic",
        "ed"
      ],
      [
        "sk",
        "in"
      ],
      [
        "ful",
        "ly"
      ],
      [
        "manife",
        "st"
      ],
      [
        "jus",
        "t"
      ],
      [
        "oimented",
        "macular"
      ],
      [
        "recom",
        "mended"
      ],
      [
        "success",
        "fully"
      ],
      [
        "endocar",
        "di"
      ],
      [
        "a",
        "bo"
      ],
      [
        "c",
        "n"
      ],
      [
        "f",
        "res"
      ],
      [
        "i",
        "ved"
      ],
      [
        "p",
        "up"
      ],
      [
        "in",
        "ternal"
      ],
      [
        "ho",
        "we"
      ],
      [
        "ma",
        "tri"
      ],
      [
        "be",
        "come"
      ],
      [
        "ch",
        "am"
      ],
      [
        "sub",
        "tle"
      ],
      [
        "pre",
        "ad"
      ],
      [
        "det",
        "ached"
      ],
      [
        "iz",
        "e"
      ],
      [
        "ex",
        "pos"
      ],
      [
        "si",
        "as"
      ],
      [
        "un",
        "changed"
      ],
      [
        "red",
        "uc"
      ],
      [
        "sis",
        "ter"
      ],
      [
        "mon",
        "ary"
      ],
      [
        "follow",
        "ed"
      ],
      [
        "ab",
        "sence"
      ],
      [
        "fu",
        "ture"
      ],
      [
        "temporal",
        "ly"
      ],
      [
        "tom",
        "as"
      ],
      [
        "pun",
        "che"
      ],
      [
        "spo",
        "ke"
      ],
      [
        "inher",
        "ited"
      ],
      [
        "ele",
        "vation"
      ],
      [
        "main",
        "ly"
      ],
      [
        "pul",
        "monary"
      ],
      [
        "inc",
        "rease"
      ],
      [
        "surro",
        "und"
      ],
      [
        "rece",
        "ived"
      ],
      [
        "else",
        "where"
      ],
      [
[...]
