{
  "version": "1.0",
  "truncation": null,
  "padding": null,
  "added_tokens": [
    {
      "id": 0,
      "content": "<PAD>",
      "single_word": false,
      "lstrip": false,
      "rstrip": false,
      "normalized": false,
      "special": true
    },
    {
      "id": 1,
      "content": "<UNK>",
      "single_word": false,
      "lstrip": false,
      "rstrip": false,
      "normalized": false,
      "special": true
    },
    {
      "id": 2,
      "content": "<BOS>",
      "single_word": false,
      "lstrip": false,
      "rstrip": false,
      "normalized": false,
      "special": true
    },
    {
      "id": 3,
      "content": "<EOS>",
      "single_word": false,
      "lstrip": false,
      "rstrip": false,
      "normalized": false,
      "special": true
    }
  ],
  "normalizer": {
    "type": "Sequence",
    "normalizers": [
      {
        "type": "NFD"
      },
      {
        "type": "Lowercase"
      },
      {
        "type": "StripAccents"
      }
    ]
  },
  "pre_tokenizer": {
    "type": "Whitespace"
  },
  "post_processor": {
    "type": "TemplateProcessing",
    "single": [
      {
        "SpecialToken": {
          "id": "<BOS>",
          "type_id": 0
        }
      },
      {
        "Sequence": {
          "id": "A",
          "type_id": 0
        }
      },
      {
        "SpecialToken": {
          "id": "<EOS>",
          "type_id": 0
        }
      }
    ],
    "pair": [
      {
        "SpecialToken": {
          "id": "<BOS>",
          "type_id": 0
        }
      },
      {
        "Sequence": {
          "id": "A",
          "type_id": 0
        }
      },
      {
        "SpecialToken": {
          "id": "<EOS>",
          "type_id": 0
        }
      },
      {
        "Sequence": {
          "id": "B",
          "type_id": 1
        }
      },
      {
        "SpecialToken": {
          "id": "<EOS>",
          "type_id": 1
        }
      }
    ],
    "special_tokens": {
      "<BOS>": {
        "id": "<BOS>",
        "ids": [
          2
        ],
        "tokens": [
          "<BOS>"
        ]
      },
      "<EOS>": {
        "id": "<EOS>",
        "ids": [
          3
        ],
        "tokens": [
          "<EOS>"
        ]
      }
    }
  },
  "decoder": null,
  "model": {
    "type": "BPE",
    "dropout": null,
    "unk_token": null,
    "continuing_subword_prefix": null,
    "end_of_word_suffix": null,
    "fuse_unk": false,
    "byte_fallback": false,
    "ignore_merges": false,
    "vocab": {
      "<PAD>": 0,
      "<UNK>": 1,
      "<BOS>": 2,
      "<EOS>": 3,
      "0": 4,
      "1": 5,
      "2": 6,
      "3": 7,
      "4": 8,
      "5": 9,
      "6": 10,
      "7": 11,
      "8": 12,
      "9": 13,
      "a": 14,
      "b": 15,
      "c": 16,
      "d": 17,
      "e": 18,
      "f": 19,
      "g": 20,
      "h": 21,
      "i": 22,
      "j": 23,
      "k": 24,
      "l": 25,
      "m": 26,
      "n": 27,
      "o": 28,
      "p": 29,
      "q": 30,
      "r": 31,
      "s": 32,
      "t": 33,
      "u": 34,
      "v": 35,
      "w": 36,
      "x": 37,
      "y": 38,
      "z": 39,
      "th": 40,
      "in": 41,
      "ra": 42,
      "on": 43,
      "te": 44,
      "the": 45,
      "al": 46,
      "an": 47,
      "ar": 48,
      "ti": 49,
      "en": 50,
      "re": 51,
      "of": 52,
      "ow": 53,
      "le": 54,
      "ri": 55,
      "ing": 56,
      "st": 57,
      "or": 58,
      "om": 59,
      "si": 60,
      "di": 61,
      "se": 62,
      "ma": 63,
      "er": 64,
      "sh": 65,
      "la": 66,
      "tion": 67,
      "ph": 68,
      "and": 69,
      "ed": 70,
      "ic": 71,
      "og": 72,
      "show": 73,
      "ent": 74,
      "wi": 75,
      "ct": 76,
      "ter": 77,
      "with": 78,
      "ve": 79,
      "ogra": 80,
      "de": 81,
      "ch": 82,
      "ul": 83,
      "tra": 84,
      "gh": 85,
      "ge": 86,
      "ted": 87,
      "ce": 88,
      "ou": 89,
      "ol": 90,
      "as": 91,
      "pe": 92,
      "at": 93,
      "ograph": 94,
      "is": 95,
      "row": 96,
      "arrow": 97,
      "ral": 98,
      "po": 99,
      "sc": 100,
      "showing": 101,
      "um": 102,
      "ro": 103,
      "pa": 104,
      "su": 105,
      "ght": 106,
      "ft": 107,
      "tic": 108,
      "to": 109,
      "con": 110,
      "left": 111,
      "right": 112,
      "ima": 113,
      "sion": 114,
      "id": 115,
      "me": 116,
      "com": 117,
      "ne": 118,
      "it": 119,
      "ten": 120,
      "ca": 121,
      "ss": 122,
      "teri": 123,
      "mon": 124,
      "res": 125,
      "lo": 126,
      "ab": 127,
      "ography": 128,
      "ad": 129,
      "ly": 130,
      "comp": 131,
      "he": 132,
      "image": 133,
      "ation": 134,
      "us": 135,
      "no": 136,
      "il": 137,
      "be": 138,
      "mal": 139,
      "radi": 140,
      "tom": 141,
      "vi": 142,
      "ment": 143,
      "we": 144,
      "lu": 145,
      "ction": 146,
      "scan": 147,
      "ary": 148,
      "cor": 149,
      "ular": 150,
      "ver": 151,
      "xi": 152,
      "ure": 153,
      "late": 154,
      "per": 155,
      "du": 156,
      "che": 157,
      "terior": 158,
      "ta": 159,
      "li": 160,
      "tive": 161,
      "inal": 162,
      "low": 163,
      "fe": 164,
      "shows": 165,
      "ine": 166,
      "ous": 167,
      "ac": 168,
      "fi": 169,
      "sis": 170,
      "hi": 171,
      "sp": 172,
      "tal": 173,
      "ex": 174,
      "oc": 175,
      "rom": 176,
      "lateral": 177,
      "compu": 178,
      "stra": 179,
      "tomography": 180,
      "op": 181,
      "nd": 182,
      "anc": 183,
      "radiograph": 184,
      "gi": 185,
      "dom": 186,
      "ur": 187,
      "ye": 188,
      "contra": 189,
      "one": 190,
      "mass": 191,
      "pro": 192,
      "computed": 193,
      "ric": 194,
      "ap": 195,
      "mo": 196,
      "af": 197,
      "ag": 198,
      "chest": 199,
      "vie": 200,
      "ci": 201,
      "hy": 202,
      "xial": 203,
      "axial": 204,
      "view": 205,
      "abdom": 206,
      "lesion": 207,
      "bi": 208,
      "up": 209,
      "demon": 210,
      "demonstra": 211,
      "are": 212,
      "ora": 213,
      "for": 214,
      "after": 215,
      "es": 216,
      "ple": 217,
      "was": 218,
      "lar": 219,
      "peri": 220,
      "pati": 221,
      "tery": 222,
      "ope": 223,
      "ance": 224,
      "pos": 225,
      "artery": 226,
      "patient": 227,
      "ray": 228,
      "ound": 229,
      "coron": 230,
      "ting": 231,
      "opera": 232,
      "ys": 233,
      "year": 234,
      "qu": 235,
      "gn": 236,
      "ical": 237,
      "from": 238,
      "un": 239,
      "contrast": 240,
      "mri": 241,
      "xray": 242,
      "operative": 243,
      "rea": 244,
      "post": 245,
      "od": 246,
      "tran": 247,
      "ty": 248,
      "arrows": 249,
      "pre": 250,
      "all": 251,
      "ir": 252,
      "bra": 253,
      "posterior": 254,
      "ob": 255,
      "cal": 256,
      "ck": 257,
      "tis": 258,
      "old": 259,
      "dia": 260,
      "tes": 261,
      "ence": 262,
      "sed": 263,
      "pres": 264,
      "hanc": 265,
      "ogram": 266,
      "anterior": 267,
      "ane": 268,
      "sten": 269,
      "ding": 270,
      "sub": 271,
      "ru": 272,
      "vent": 273,
      "whi": 274,
      "col": 275,
      "line": 276,
      "head": 277,
      "ff": 278,
      "car": 279,
      "par": 280,
      "angi": 281,
      "am": 282,
      "ll": 283,
      "tum": 284,
      "os": 285,
      "by": 286,
      "ant": 287,
      "igh": 288,
      "inter": 289,
      "white": 290,
      "pla": 291,
      "sign": 292,
      "ity": 293,
      "ventric": 294,
      "coronal": 295,
      "ech": 296,
      "thora": 297,
      "bla": 298,
      "veal": 299,
      "lv": 300,
      "large": 301,
      "reveal": 302,
      "intra": 303,
      "weigh": 304,
      "weighted": 305,
      "abdominal": 306,
      "dist": 307,
      "yearold": 308,
      "ultra": 309,
      "fic": 310,
      "demonstrating": 311,
      "ultras": 312,
      "cm": 313,
      "ron": 314,
      "ging": 315,
      "t2": 316,
      "der": 317,
      "flu": 318,
      "fra": 319,
      "sag": 320,
      "pl": 321,
      "oma": 322,
      "int": 323,
      "mul": 324,
      "age": 325,
      "nor": 326,
      "hanced": 327,
      "stru": 328,
      "cy": 329,
      "sagit": 330,
      "sur": 331,
      "ran": 332,
      "normal": 333,
      "trans": 334,
      "ula": 335,
      "ble": 336,
      "ng": 337,
      "gne": 338,
      "mi": 339,
      "bo": 340,
      "ven": 341,
      "sagittal": 342,
      "co": 343,
      "pul": 344,
      "magne": 345,
      "wall": 346,
      "magnetic": 347,
      "mm": 348,
      "imaging": 349,
      "ick": 350,
      "ined": 351,
      "reson": 352,
      "lobe": 353,
      "resonance": 354,
      "multi": 355,
      "cture": 356,
      "bilateral": 357,
      "val": 358,
      "den": 359,
      "red": 360,
      "ogen": 361,
      "lung": 362,
      "ong": 363,
      "thick": 364,
      "man": 365,
      "out": 366,
      "our": 367,
      "wh": 368,
      "bone": 369,
      "ardi": 370,
      "mar": 371,
      "mu": 372,
      "inten": 373,
      "t1": 374,
      "abdomen": 375,
      "ill": 376,
      "aor": 377,
      "do": 378,
      "ffu": 379,
      "exten": 380,
      "side": 381,
      "pelv": 382,
      "smal": 383,
      "el": 384,
      "im": 385,
      "inf": 386,
      "ase": 387,
      "sity": 388,
      "pulmon": 389,
      "so": 390,
      "seen": 391,
      "mid": 392,
      "opa": 393,
      "showed": 394,
      "ut": 395,
      "ren": 396,
      "vel": 397,
      "month": 398,
      "nal": 399,
      "section": 400,
      "tumor": 401,
      "pulmonary": 402,
      "lower": 403,
      "ini": 404,
      "ga": 405,
      "hypo": 406,
      "level": 407,
      "small": 408,
      "meas": 409,
      "postoperative": 410,
      "tu": 411,
      "tissu": 412,
      "vol": 413,
      "je": 414,
      "upper": 415,
      "regi": 416,
      "hyper": 417,
      "this": 418,
      "region": 419,
      "da": 420,
      "ultrasound": 421,
      "vein": 422,
      "les": 423,
      "mic": 424,
      "fo": 425,
      "fa": 426,
      "tero": 427,
      "ated": 428,
      "cent": 429,
      "ang": 430,
      "inc": 431,
      "present": 432,
      "can": 433,
      "well": 434,
      "posi": 435,
      "multiple": 436,
      "por": 437,
      "tial": 438,
      "em": 439,
      "fol": 440,
      "indi": 441,
      "gment": 442,
      "atri": 443,
      "renal": 444,
      "brain": 445,
      "cular": 446,
      "tissue": 447,
      "que": 448,
      "form": 449,
      "fracture": 450,
      "rou": 451,
      "follow": 452,
      "into": 453,
      "case": 454,
      "ser": 455,
      "cav": 456,
      "sy": 457,
      "dila": 458,
      "cted": 459,
      "para": 460,
      "distal": 461,
      "medi": 462,
      "iz": 463,
      "bral": 464,
      "ocardi": 465,
      "cer": 466,
      "panc": 467,
      "ret": 468,
      "bet": 469,
      "that": 470,
      "within": 471,
      "tem": 472,
      "phy": 473,
      "ural": 474,
      "fication": 475,
      "liver": 476,
      "cyst": 477,
      "ke": 478,
      "media": 479,
      "area": 480,
      "ening": 481,
      "cess": 482,
      "verte": 483,
      "ween": 484,
      "months": 485,
      "between": 486,
      "ced": 487,
      "sin": 488,
      "ich": 489,
      "len": 490,
      "fluid": 491,
      "pan": 492,
      "ital": 493,
      "cys": 494,
      "ber": 495,
      "round": 496,
      "ud": 497,
      "rior": 498,
      "cle": 499,
      "preoperative": 500,
      "ventricle": 501,
      "osis": 502,
      "which": 503,
      "scle": 504,
      "ili": 505,
      "demonstrates": 506,
      "sse": 507,
      "infe": 508,
      "there": 509,
      "gra": 510,
      "arrowhead": 511,
      "appe": 512,
      "ial": 513,
      "ree": 514,
      "ximal": 515,
      "ot": 516,
      "sol": 517,
      "black": 518,
      "ges": 519,
      "cystic": 520,
      "signal": 521,
      "calci": 522,
      "air": 523,
      "vas": 524,
      "tw": 525,
      "ved": 526,
      "duct": 527,
      "superi": 528,
      "fir": 529,
      "high": 530,
      "cic": 531,
      "male": 532,
      "lum": 533,
      "loca": 534,
      "dder": 535,
      "segment": 536,
      "bladder": 537,
      "measure": 538,
      "sof": 539,
      "sive": 540,
      "contrasten": 541,
      "pelvis": 542,
      "ded": 543,
      "cond": 544,
      "long": 545,
      "proximal": 546,
      "rough": 547,
      "coronary": 548,
      "note": 549,
      "pace": 550,
      "fat": 551,
      "angiography": 552,
      "comple": 553,
      "contrastenhanced": 554,
      "sta": 555,
      "superior": 556,
      "sa": 557,
      "both": 558,
      "mis": 559,
      "through": 560,
      "mph": 561,
      "oid": 562,
      "struction": 563,
      "scop": 564,
      "pi": 565,
      "thoracic": 566,
      "hance": 567,
      "ori": 568,
      "enhance": 569,
      "patic": 570,
      "lymph": 571,
      "non": 572,
      "arteri": 573,
      "echocardi": 574,
      "soft": 575,
      "indica": 576,
      "rect": 577,
      "mark": 578,
      "tical": 579,
      "oph": 580,
      "enhancement": 581,
      "ffusion": 582,
      "fect": 583,
      "tent": 584,
      "thorax": 585,
      "men": 586,
      "sk": 587,
      "kid": 588,
      "space": 589,
      "kidne": 590,
      "moral": 591,
      "ogene": 592,
      "jo": 593,
      "end": 594,
      "hepatic": 595,
      "reat": 596,
      "solid": 597,
      "abs": 598,
      "not": 599,
      "def": 600,
      "oste": 601,
      "invol": 602,
      "aneur": 603,
      "sup": 604,
      "aneurys": 605,
      "bow": 606,
      "gin": 607,
      "position": 608,
      "enhanced": 609,
      "thy": 610,
      "occ": 611,
      "inferior": 612,
      "cro": 613,
      "ody": 614,
      "t2weighted": 615,
      "meta": 616,
      "bar": 617,
      "antero": 618,
      "ogeneous": 619,
      "body": 620,
      "pleural": 621,
      "two": 622,
      "femoral": 623,
      "ax": 624,
      "ome": 625,
      "illary": 626,
      "chan": 627,
      "sep": 628,
      "atrium": 629,
      "were": 630,
      "olu": 631,
      "ner": 632,
      "revealed": 633,
      "ring": 634,
      "bular": 635,
      "transver": 636,
      "cen": 637,
      "ventricular": 638,
      "vid": 639,
      "spla": 640,
      "mat": 641,
      "reg": 642,
      "cir": 643,
      "aneurysm": 644,
      "cere": 645,
      "spine": 646,
      "jection": 647,
      "joint": 648,
      "internal": 649,
      "cerv": 650,
      "dis": 651,
      "mandi": 652,
      "also": 653,
      "ie": 654,
      "10": 655,
      "sinus": 656,
      "surg": 657,
      "cement": 658,
      "fig": 659,
      "angiogram": 660,
      "neck": 661,
      "pne": 662,
      "angle": 663,
      "ographic": 664,
      "gast": 665,
      "cathe": 666,
      "venous": 667,
      "20": 668,
      "flow": 669,
      "rib": 670,
      "thickening": 671,
      "kidney": 672,
      "ni": 673,
      "lesions": 674,
      "max": 675,
      "effusion": 676,
      "olog": 677,
      "cervical": 678,
      "intensity": 679,
      "aortic": 680,
      "point": 681,
      "pect": 682,
      "ema": 683,
      "medial": 684,
      "transverse": 685,
      "ory": 686,
      "tid": 687,
      "throm": 688,
      "stinal": 689,
      "pse": 690,
      "ving": 691,
      "images": 692,
      "olar": 693,
      "apical": 694,
      "defined": 695,
      "tr": 696,
      "hip": 697,
      "bowel": 698,
      "echo": 699,
      "mr": 700,
      "tation": 701,
      "without": 702,
      "cut": 703,
      "ass": 704,
      "intense": 705,
      "anteroposterior": 706,
      "pancrea": 707,
      "und": 708,
      "vertebral": 709,
      "sug": 710,
      "complete": 711,
      "heter": 712,
      "second": 713,
      "ate": 714,
      "ating": 715,
      "ts": 716,
      "catheter": 717,
      "aorta": 718,
      "using": 719,
      "panora": 720,
      "perit": 721,
      "cla": 722,
      "muscle": 723,
      "meter": 724,
      "fore": 725,
      "treat": 726,
      "formed": 727,
      "cur": 728,
      "pneum": 729,
      "foc": 730,
      "diffu": 731,
      "calcification": 732,
      "panoramic": 733,
      "rance": 734,
      "treatment": 735,
      "lic": 736,
      "nodu": 737,
      "vascular": 738,
      "diffuse": 739,
      "reased": 740,
      "ration": 741,
      "led": 742,
      "fron": 743,
      "peritone": 744,
      "otid": 745,
      "toma": 746,
      "t1weighted": 747,
      "phal": 748,
      "sac": 749,
      "displa": 750,
      "face": 751,
      "exam": 752,
      "node": 753,
      "ture": 754,
      "ties": 755,
      "defect": 756,
      "extra": 757,
      "dilated": 758,
      "arance": 759,
      "fied": 760,
      "scopic": 761,
      "cin": 762,
      "pic": 763,
      "density": 764,
      "sal": 765,
      "her": 766,
      "siz": 767,
      "inte": 768,
      "mation": 769,
      "chy": 770,
      "ternal": 771,
      "appearance": 772,
      "esoph": 773,
      "pancreatic": 774,
      "dle": 775,
      "seve": 776,
      "aneous": 777,
      "central": 778,
      "gen": 779,
      "impl": 780,
      "ronch": 781,
      "spinal": 782,
      "ures": 783,
      "ery": 784,
      "hancing": 785,
      "cavity": 786,
      "pat": 787,
      "shor": 788,
      "yel": 789,
      "fin": 790,
      "main": 791,
      "ged": 792,
      "axis": 793,
      "omy": 794,
      "plain": 795,
      "tained": 796,
      "reveals": 797,
      "ageal": 798,
      "valve": 799,
      "py": 800,
      "tri": 801,
      "over": 802,
      "cardi": 803,
      "min": 804,
      "diameter": 805,
      "ek": 806,
      "ull": 807,
      "oden": 808,
      "dra": 809,
      "areas": 810,
      "middle": 811,
      "compres": 812,
      "sti": 813,
      "ual": 814,
      "mil": 815,
      "ther": 816,
      "followup": 817,
      "enhancing": 818,
      "sistent": 819,
      "bronch": 820,
      "ultrason": 821,
      "plane": 822,
      "evid": 823,
      "performed": 824,
      "shown": 825,
      "ind": 826,
      "edema": 827,
      "cum": 828,
      "12": 829,
      "phe": 830,
      "colon": 831,
      "common": 832,
      "infil": 833,
      "marked": 834,
      "heterogeneous": 835,
      "infiltra": 836,
      "part": 837,
      "tibi": 838,
      "adj": 839,
      "measurement": 840,
      "pelvic": 841,
      "first": 842,
      "canal": 843,
      "diag": 844,
      "week": 845,
      "mission": 846,
      "ole": 847,
      "asal": 848,
      "carotid": 849,
      "cran": 850,
      "ep": 851,
      "revealing": 852,
      "initial": 853,
      "pr": 854,
      "finding": 855,
      "ha": 856,
      "regular": 857,
      "years": 858,
      "obli": 859,
      "sible": 860,
      "abnormal": 861,
      "sequ": 862,
      "va": 863,
      "ds": 864,
      "ization": 865,
      "ume": 866,
      "iliac": 867,
      "recon": 868,
      "stent": 869,
      "frontal": 870,
      "pon": 871,
      "acent": 872,
      "due": 873,
      "dense": 874,
      "ctive": 875,
      "surgery": 876,
      "ii": 877,
      "adjacent": 878,
      "represent": 879,
      "land": 880,
      "fil": 881,
      "ign": 882,
      "colle": 883,
      "surround": 884,
      "vesse": 885,
      "vessel": 886,
      "implant": 887,
      "disc": 888,
      "extending": 889,
      "along": 890,
      "increased": 891,
      "enti": 892,
      "involving": 893,
      "brea": 894,
      "tern": 895,
      "maxillary": 896,
      "med": 897,
      "ses": 898,
      "figure": 899,
      "location": 900,
      "endo": 901,
      "nerve": 902,
      "vic": 903,
      "mor": 904,
      "aspect": 905,
      "tab": 906,
      "ps": 907,
      "diagno": 908,
      "used": 909,
      "pen": 910,
      "root": 911,
      "ulated": 912,
      "sen": 913,
      "teric": 914,
      "iv": 915,
      "rela": 916,
      "ub": 917,
      "enlar": 918,
      "severe": 919,
      "bol": 920,
      "blo": 921,
      "cutaneous": 922,
      "bran": 923,
      "opaci": 924,
      "irregular": 925,
      "desc": 926,
      "ized": 927,
      "plate": 928,
      "retro": 929,
      "fib": 930,
      "enlarged": 931,
      "cell": 932,
      "peritoneal": 933,
      "occlu": 934,
      "art": 935,
      "oman": 936,
      "cham": 937,
      "oci": 938,
      "rh": 939,
      "its": 940,
      "vis": 941,
      "ken": 942,
      "15": 943,
      "blu": 944,
      "consistent": 945,
      "fill": 946,
      "uter": 947,
      "oro": 948,
      "type": 949,
      "hom": 950,
      "thin": 951,
      "chamber": 952,
      "four": 953,
      "aden": 954,
      "short": 955,
      "stoma": 956,
      "jun": 957,
      "formation": 958,
      "ogenic": 959,
      "associ": 960,
      "located": 961,
      "duoden": 962,
      "trache": 963,
      "ju": 964,
      "collection": 965,
      "mandibular": 966,
      "during": 967,
      "woman": 968,
      "presence": 969,
      "llar": 970,
      "gest": 971,
      "splen": 972,
      "molar": 973,
      "ination": 974,
      "thera": 975,
      "mediastinal": 976,
      "rosis": 977,
      "under": 978,
      "cinoma": 979,
      "obser": 980,
      "bor": 981,
      "female": 982,
      "metasta": 983,
      "cortical": 984,
      "size": 985,
      "phase": 986,
      "day": 987,
      "gu": 988,
      "reas": 989,
      "redu": 990,
      "fist": 991,
      "olution": 992,
      "obtained": 993,
      "same": 994,
      "et": 995,
      "pal": 996,
      "dise": 997,
      "au": 998,
      "resolution": 999,
      "mode": 1000,
      "compression": 1001,
      "fora": 1002,
      "following": 1003,
      "sided": 1004,
      "stic": 1005,
      "paren": 1006,
      "therapy": 1007,
      "tro": 1008,
      "three": 1009,
      "bile": 1010,
      "parenchy": 1011,
      "fla": 1012,
      "uring": 1013,
      "abscess": 1014,
      "echoic": 1015,
      "bus": 1016,
      "disease": 1017,
      "18": 1018,
      "portion": 1019,
      "hema": 1020,
      "gastric": 1021,
      "tempo": 1022,
      "sing": 1023,
      "orb": 1024,
      "sugges": 1025,
      "tenu": 1026,
      "ending": 1027,
      "cord": 1028,
      "stenosis": 1029,
      "filling": 1030,
      "has": 1031,
      "pler": 1032,
      "associated": 1033,
      "signi": 1034,
      "fle": 1035,
      "lay": 1036,
      "gland": 1037,
      "oppler": 1038,
      "echocardiography": 1039,
      "injection": 1040,
      "ak": 1041,
      "doppler": 1042,
      "tric": 1043,
      "ulation": 1044,
      "cont": 1045,
      "breast": 1046,
      "margin": 1047,
      "son": 1048,
      "signific": 1049,
      "rup": 1050,
      "confir": 1051,
      "arrowheads": 1052,
      "oblique": 1053,
      "thir": 1054,
      "sus": 1055,
      "acu": 1056,
      "yellow": 1057,
      "sequence": 1058,
      "ari": 1059,
      "significant": 1060,
      "ining": 1061,
      "dy": 1062,
      "bul": 1063,
      "admission": 1064,
      "measuring": 1065,
      "mild": 1066,
      "evidence": 1067,
      "oral": 1068,
      "mesen": 1069,
      "oth": 1070,
      "oly": 1071,
      "reconstruction": 1072,
      "temporal": 1073,
      "gall": 1074,
      "cerebral": 1075,
      "ness": 1076,
      "noted": 1077,
      "loop": 1078,
      "tube": 1079,
      "focal": 1080,
      "fluoro": 1081,
      "attenu": 1082,
      "weeks": 1083,
      "visible": 1084,
      "gre": 1085,
      "demonstrated": 1086,
      "descending": 1087,
      "city": 1088,
      "taken": 1089,
      "dilatation": 1090,
      "clo": 1091,
      "aly": 1092,
      "herni": 1093,
      "stomach": 1094,
      "kne": 1095,
      "ach": 1096,
      "don": 1097,
      "changes": 1098,
      "observed": 1099,
      "clear": 1100,
      "vement": 1101,
      "embol": 1102,
      "indicates": 1103,
      "narrow": 1104,
      "free": 1105,
      "rest": 1106,
      "site": 1107,
      "pet": 1108,
      "rag": 1109,
      "surrounding": 1110,
      "ight": 1111,
      "ctures": 1112,
      "peric": 1113,
      "zed": 1114,
      "radiography": 1115,
      "placement": 1116,
      "suggestive": 1117,
      "orth": 1118,
      "before": 1119,
      "rim": 1120,
      "roid": 1121,
      "cho": 1122,
      "border": 1123,
      "portal": 1124,
      "knee": 1125,
      "vena": 1126,
      "but": 1127,
      "appear": 1128,
      "tral": 1129,
      "third": 1130,
      "like": 1131,
      "mur": 1132,
      "scre": 1133,
      "dro": 1134,
      "infla": 1135,
      "pseu": 1136,
      "extensive": 1137,
      "findings": 1138,
      "thrombus": 1139,
      "hematoma": 1140,
      "around": 1141,
      "fu": 1142,
      "my": 1143,
      "fix": 1144,
      "wa": 1145,
      "able": 1146,
      "ultrasonography": 1147,
      "pancreas": 1148,
      "ia": 1149,
      "cranial": 1150,
      "blue": 1151,
      "surface": 1152,
      "cava": 1153,
      "11": 1154,
      "cta": 1155,
      "take": 1156,
      "wind": 1157,
      "hypoechoic": 1158,
      "phrag": 1159,
      "femur": 1160,
      "arth": 1161,
      "consolid": 1162,
      "ard": 1163,
      "stin": 1164,
      "patients": 1165,
      "ape": 1166,
      "acute": 1167,
      "rv": 1168,
      "circum": 1169,
      "examination": 1170,
      "cardiac": 1171,
      "window": 1172,
      "na": 1173,
      "oul": 1174,
      "uni": 1175,
      "distance": 1176,
      "inser": 1177,
      "sia": 1178,
      "visual": 1179,
      "most": 1180,
      "diaphrag": 1181,
      "fistula": 1182,
      "moid": 1183,
      "pseudo": 1184,
      "hemi": 1185,
      "need": 1186,
      "supra": 1187,
      "plan": 1188,
      "uptake": 1189,
      "eth": 1190,
      "fiel": 1191,
      "measured": 1192,
      "radiolu": 1193,
      "vertebra": 1194,
      "pericardi": 1195,
      "ba": 1196,
      "hyperintense": 1197,
      "ticular": 1198,
      "calc": 1199,
      "pneumo": 1200,
      "dor": 1201,
      "esophag": 1202,
      "carcinoma": 1203,
      "mini": 1204,
      "cl": 1205,
      "stinum": 1206,
      "lumbar": 1207,
      "base": 1208,
      "gad": 1209,
      "thyroid": 1210,
      "consolidation": 1211,
      "vious": 1212,
      "tely": 1213,
      "tor": 1214,
      "musc": 1215,
      "ning": 1216,
      "projection": 1217,
      "sses": 1218,
      "ara": 1219,
      "soph": 1220,
      "origin": 1221,
      "fer": 1222,
      "light": 1223,
      "nodule": 1224,
      "slic": 1225,
      "conta": 1226,
      "dimen": 1227,
      "respon": 1228,
      "shad": 1229,
      "ele": 1230,
      "heart": 1231,
      "total": 1232,
      "arterial": 1233,
      "stud": 1234,
      "appro": 1235,
      "splenic": 1236,
      "diff": 1237,
      "valu": 1238,
      "pattern": 1239,
      "mesenteric": 1240,
      "screw": 1241,
      "dimension": 1242,
      "ile": 1243,
      "nodes": 1244,
      "had": 1245,
      "aryn": 1246,
      "welldefined": 1247,
      "tex": 1248,
      "periphe": 1249,
      "tract": 1250,
      "color": 1251,
      "lumen": 1252,
      "physe": 1253,
      "shadow": 1254,
      "echocardiogram": 1255,
      "peripheral": 1256,
      "bon": 1257,
      "study": 1258,
      "zone": 1259,
      "partial": 1260,
      "13": 1261,
      "cephal": 1262,
      "thickness": 1263,
      "leng": 1264,
      "extension": 1265,
      "sym": 1266,
      "sophageal": 1267,
      "subcutaneous": 1268,
      "arch": 1269,
      "time": 1270,
      "periapical": 1271,
      "14": 1272,
      "ium": 1273,
      "ological": 1274,
      "vag": 1275,
      "tendon": 1276,
      "arteries": 1277,
      "itary": 1278,
      "blood": 1279,
      "tip": 1280,
      "atrial": 1281,
      "asteri": 1282,
      "vessels": 1283,
      "morrh": 1284,
      "echogenic": 1285,
      "curr": 1286,
      "olini": 1287,
      "cap": 1288,
      "mitral": 1289,
      "hemorrh": 1290,
      "nodules": 1291,
      "gadolini": 1292,
      "mandible": 1293,
      "tumour": 1294,
      "cross": 1295,
      "shoul": 1296,
      "gadolinium": 1297,
      "geal": 1298,
      "junction": 1299,
      "sys": 1300,
      "needle": 1301,
      "ying": 1302,
      "obstruction": 1303,
      "graft": 1304,
      "orthop": 1305,
      "25": 1306,
      "loss": 1307,
      "des": 1308,
      "uma": 1309,
      "lines": 1310,
      "rum": 1311,
      "aris": 1312,
      "gas": 1313,
      "gla": 1314,
      "volume": 1315,
      "depic": 1316,
      "necro": 1317,
      "nod": 1318,
      "fusion": 1319,
      "resul": 1320,
      "ry": 1321,
      "let": 1322,
      "velo": 1323,
      "septal": 1324,
      "length": 1325,
      "local": 1326,
      "external": 1327,
      "sternal": 1328,
      "liga": 1329,
      "occlusion": 1330,
      "hil": 1331,
      "dual": 1332,
      "cerebe": 1333,
      "placed": 1334,
      "ented": 1335,
      "occi": 1336,
      "pendi": 1337,
      "ped": 1338,
      "ligament": 1339,
      "allo": 1340,
      "opacity": 1341,
      "hist": 1342,
      "ground": 1343,
      "adrenal": 1344,
      "more": 1345,
      "asterisk": 1346,
      "go": 1347,
      "she": 1348,
      "shi": 1349,
      "sure": 1350,
      "process": 1351,
      "infar": 1352,
      "branch": 1353,
      "resi": 1354,
      "30": 1355,
      "pical": 1356,
      "gallbladder": 1357,
      "sty": 1358,
      "ov": 1359,
      "rant": 1360,
      "epi": 1361,
      "computeri": 1362,
      "ancer": 1363,
      "path": 1364,
      "orthopan": 1365,
      "dg": 1366,
      "compon": 1367,
      "radiographic": 1368,
      "slice": 1369,
      "component": 1370,
      "cancer": 1371,
      "ove": 1372,
      "ogenous": 1373,
      "glass": 1374,
      "days": 1375,
      "osteo": 1376,
      "endoscopic": 1377,
      "cou": 1378,
      "rate": 1379,
      "recurr": 1380,
      "ace": 1381,
      "pital": 1382,
      "lying": 1383,
      "ms": 1384,
      "other": 1385,
      "drain": 1386,
      "layer": 1387,
      "tail": 1388,
      "quad": 1389,
      "cting": 1390,
      "tomographic": 1391,
      "eye": 1392,
      "intravenous": 1393,
      "transthoracic": 1394,
      "grade": 1395,
      "bony": 1396,
      "50": 1397,
      "inj": 1398,
      "dec": 1399,
      "asci": 1400,
      "xim": 1401,
      "opacities": 1402,
      "reduction": 1403,
      "parenchyma": 1404,
      "iliary": 1405,
      "fur": 1406,
      "vian": 1407,
      "ssa": 1408,
      "oli": 1409,
      "leak": 1410,
      "leen": 1411,
      "shap": 1412,
      "tooth": 1413,
      "ureth": 1414,
      "spleen": 1415,
      "gene": 1416,
      "than": 1417,
      "parie": 1418,
      "pseudoaneurysm": 1419,
      "shaped": 1420,
      "ress": 1421,
      "cau": 1422,
      "hype": 1423,
      "hypodense": 1424,
      "suggest": 1425,
      "une": 1426,
      "near": 1427,
      "skull": 1428,
      "stone": 1429,
      "micro": 1430,
      "scopy": 1431,
      "inva": 1432,
      "itud": 1433,
      "esophageal": 1434,
      "dorsal": 1435,
      "ontal": 1436,
      "dete": 1437,
      "itudinal": 1438,
      "tru": 1439,
      "inflam": 1440,
      "ureter": 1441,
      "thrombo": 1442,
      "shoulder": 1443,
      "very": 1444,
      "pericardial": 1445,
      "system": 1446,
      "midline": 1447,
      "fossa": 1448,
      "differ": 1449,
      "occipital": 1450,
      "identi": 1451,
      "opathy": 1452,
      "longitudinal": 1453,
      "attenuation": 1454,
      "dep": 1455,
      "structure": 1456,
      "ast": 1457,
      "ces": 1458,
      "postero": 1459,
      "transe": 1460,
      "homogeneous": 1461,
      "nodular": 1462,
      "septum": 1463,
      "cating": 1464,
      "ened": 1465,
      "acetab": 1466,
      "esophagus": 1467,
      "choic": 1468,
      "computerized": 1469,
      "rated": 1470,
      "lob": 1471,
      "chol": 1472,
      "mediastinum": 1473,
      "ury": 1474,
      "presentation": 1475,
      "remo": 1476,
      "wire": 1477,
      "biop": 1478,
      "trant": 1479,
      "previous": 1480,
      "injury": 1481,
      "ond": 1482,
      "super": 1483,
      "indicated": 1484,
      "single": 1485,
      "correspon": 1486,
      "absence": 1487,
      "typical": 1488,
      "muc": 1489,
      "dou": 1490,
      "lla": 1491,
      "mas": 1492,
      "montrant": 1493,
      "condy": 1494,
      "stri": 1495,
      "tach": 1496,
      "ption": 1497,
      "olic": 1498,
      "intestinal": 1499,
      "uterine": 1500,
      "hemorrhage": 1501,
      "expan": 1502,
      "linear": 1503,
      "rogra": 1504,
      "caud": 1505,
      "narrowing": 1506,
      "gital": 1507,
      "ale": 1508,
      "pole": 1509,
      "indicating": 1510,
      "gastro": 1511,
      "transesophageal": 1512,
      "viation": 1513,
      "calcifications": 1514,
      "infiltration": 1515,
      "dural": 1516,
      "surgical": 1517,
      "involvement": 1518,
      "arising": 1519,
      "filled": 1520,
      "green": 1521,
      "subcla": 1522,
      "sthe": 1523,
      "tuber": 1524,
      "oun": 1525,
      "residual": 1526,
      "ascen": 1527,
      "cortex": 1528,
      "loops": 1529,
      "cour": 1530,
      "ho": 1531,
      "ental": 1532,
      "noncontrast": 1533,
      "16": 1534,
      "tional": 1535,
      "diaphragm": 1536,
      "rupture": 1537,
      "fixation": 1538,
      "open": 1539,
      "presented": 1540,
      "tibial": 1541,
      "ascending": 1542,
      "ear": 1543,
      "maxim": 1544,
      "thickened": 1545,
      "pain": 1546,
      "physis": 1547,
      "duodenum": 1548,
      "ping": 1549,
      "enlarge": 1550,
      "contr": 1551,
      "pneumothorax": 1552,
      "subclavian": 1553,
      "matter": 1554,
      "ste": 1555,
      "thal": 1556,
      "caudal": 1557,
      "av": 1558,
      "flex": 1559,
      "enlargement": 1560,
      "ling": 1561,
      "prom": 1562,
      "pate": 1563,
      "who": 1564,
      "hypere": 1565,
      "45": 1566,
      "ulum": 1567,
      "lead": 1568,
      "ef": 1569,
      "illu": 1570,
      "regions": 1571,
      "oriz": 1572,
      "mb": 1573,
      "cu": 1574,
      "clavic": 1575,
      "illustra": 1576,
      "ology": 1577,
      "points": 1578,
      "arge": 1579,
      "double": 1580,
      "anat": 1581,
      "example": 1582,
      "horiz": 1583,
      "lobes": 1584,
      "horizontal": 1585,
      "ches": 1586,
      "mucos": 1587,
      "unic": 1588,
      "metastasis": 1589,
      "ross": 1590,
      "heal": 1591,
      "biopsy": 1592,
      "19": 1593,
      "postcontrast": 1594,
      "tibia": 1595,
      "terial": 1596,
      "diagnosis": 1597,
      "itis": 1598,
      "pid": 1599,
      "calcified": 1600,
      "cing": 1601,
      "inu": 1602,
      "ire": 1603,
      "spin": 1604,
      "orthopantom": 1605,
      "basal": 1606,
      "stal": 1607,
      "disten": 1608,
      "teeth": 1609,
      "set": 1610,
      "maximum": 1611,
      "ero": 1612,
      "ath": 1613,
      "parasternal": 1614,
      "circle": 1615,
      "tracheal": 1616,
      "ank": 1617,
      "structures": 1618,
      "inclu": 1619,
      "parietal": 1620,
      "ave": 1621,
      "nu": 1622,
      "umer": 1623,
      "nasal": 1624,
      "rectal": 1625,
      "wal": 1626,
      "retroperitoneal": 1627,
      "slight": 1628,
      "radio": 1629,
      "traction": 1630,
      "field": 1631,
      "hu": 1632,
      "ide": 1633,
      "yg": 1634,
      "fluoroscopic": 1635,
      "colla": 1636,
      "illa": 1637,
      "apex": 1638,
      "control": 1639,
      "cp": 1640,
      "sat": 1641,
      "sig": 1642,
      "ctomy": 1643,
      "200": 1644,
      "35": 1645,
      "here": 1646,
      "proced": 1647,
      "uterus": 1648,
      "prior": 1649,
      "tila": 1650,
      "optic": 1651,
      "cysts": 1652,
      "orbital": 1653,
      "metastatic": 1654,
      "dimensional": 1655,
      "promin": 1656,
      "spe": 1657,
      "displacement": 1658,
      "fact": 1659,
      "dislocation": 1660,
      "prosthe": 1661,
      "emphyse": 1662,
      "ful": 1663,
      "urin": 1664,
      "mem": 1665,
      "ribu": 1666,
      "confirmed": 1667,
      "qui": 1668,
      "develo": 1669,
      "alloon": 1670,
      "lungs": 1671,
      "immedia": 1672,
      "petct": 1673,
      "aryngeal": 1674,
      "balloon": 1675,
      "dr": 1676,
      "fdg": 1677,
      "pt": 1678,
      "prim": 1679,
      "material": 1680,
      "metal": 1681,
      "radiographs": 1682,
      "center": 1683,
      "sele": 1684,
      "vertical": 1685,
      "ribed": 1686,
      "bre": 1687,
      "conne": 1688,
      "rome": 1689,
      "insertion": 1690,
      "40": 1691,
      "mus": 1692,
      "ronic": 1693,
      "later": 1694,
      "sigmoid": 1695,
      "galy": 1696,
      "hand": 1697,
      "pass": 1698,
      "cency": 1699,
      "ene": 1700,
      "opaque": 1701,
      "bro": 1702,
      "masses": 1703,
      "massive": 1704,
      "primary": 1705,
      "ox": 1706,
      "oval": 1707,
      "tiv": 1708,
      "term": 1709,
      "destruction": 1710,
      "comm": 1711,
      "welling": 1712,
      "pus": 1713,
      "intraoperative": 1714,
      "ctasis": 1715,
      "lip": 1716,
      "urinary": 1717,
      "cul": 1718,
      "eding": 1719,
      "cerebellar": 1720,
      "causing": 1721,
      "jug": 1722,
      "flair": 1723,
      "suggesting": 1724,
      "quadrant": 1725,
      "version": 1726,
      "perfora": 1727,
      "retrogra": 1728,
      "chi": 1729,
      "omegaly": 1730,
      "extravas": 1731,
      "duodenal": 1732,
      "retrograde": 1733,
      "biliary": 1734,
      "otic": 1735,
      "tered": 1736,
      "new": 1737,
      "barium": 1738,
      "vaginal": 1739,
      "some": 1740,
      "xima": 1741,
      "ared": 1742,
      "shed": 1743,
      "deep": 1744,
      "arthro": 1745,
      "six": 1746,
      "digital": 1747,
      "swelling": 1748,
      "collateral": 1749,
      "ulus": 1750,
      "contour": 1751,
      "17": 1752,
      "arac": 1753,
      "charac": 1754,
      "sinu": 1755,
      "ton": 1756,
      "ina": 1757,
      "pit": 1758,
      "coil": 1759,
      "film": 1760,
      "relation": 1761,
      "read": 1762,
      "own": 1763,
      "phen": 1764,
      "alve": 1765,
      "lad": 1766,
      "guid": 1767,
      "ore": 1768,
      "diagnosed": 1769,
      "bri": 1770,
      "grea": 1771,
      "hr": 1772,
      "posit": 1773,
      "pap": 1774,
      "spl": 1775,
      "veins": 1776,
      "hilar": 1777,
      "been": 1778,
      "displaced": 1779,
      "foramen": 1780,
      "procedure": 1781,
      "communic": 1782,
      "ont": 1783,
      "2yearold": 1784,
      "domin": 1785,
      "thrombosis": 1786,
      "diver": 1787,
      "necrosis": 1788,
      "signs": 1789,
      "capsu": 1790,
      "dome": 1791,
      "approxima": 1792,
      "jugular": 1793,
      "muscles": 1794,
      "characteri": 1795,
      "edge": 1796,
      "reated": 1797,
      "ases": 1798,
      "shift": 1799,
      "extravasation": 1800,
      "tory": 1801,
      "tomy": 1802,
      "opla": 1803,
      "incis": 1804,
      "secondary": 1805,
      "moderate": 1806,
      "prominent": 1807,
      "24": 1808,
      "phalan": 1809,
      "ullary": 1810,
      "corresponding": 1811,
      "bil": 1812,
      "ventral": 1813,
      "addi": 1814,
      "hernia": 1815,
      "chronic": 1816,
      "iso": 1817,
      "ocy": 1818,
      "cartila": 1819,
      "synd": 1820,
      "adenopathy": 1821,
      "star": 1822,
      "stand": 1823,
      "trauma": 1824,
      "ici": 1825,
      "l5": 1826,
      "poly": 1827,
      "targe": 1828,
      "separa": 1829,
      "atro": 1830,
      "fragment": 1831,
      "00": 1832,
      "cs": 1833,
      "trachea": 1834,
      "via": 1835,
      "emis": 1836,
      "retinal": 1837,
      "above": 1838,
      "distribu": 1839,
      "impa": 1840,
      "hypointense": 1841,
      "suppres": 1842,
      "visualized": 1843,
      "chond": 1844,
      "rightsided": 1845,
      "format": 1846,
      "t2w": 1847,
      "clin": 1848,
      "emission": 1849,
      "any": 1850,
      "stases": 1851,
      "syndrome": 1852,
      "ivc": 1853,
      "occup": 1854,
      "emphysema": 1855,
      "grou": 1856,
      "tre": 1857,
      "reformat": 1858,
      "embolization": 1859,
      "incisor": 1860,
      "fun": 1861,
      "rotic": 1862,
      "indicate": 1863,
      "clearly": 1864,
      "coupe": 1865,
      "membra": 1866,
      "operation": 1867,
      "ossi": 1868,
      "3d": 1869,
      "gy": 1870,
      "situ": 1871,
      "metric": 1872,
      "mamm": 1873,
      "radiolucent": 1874,
      "bac": 1875,
      "metastases": 1876,
      "these": 1877,
      "matic": 1878,
      "chor": 1879,
      "scale": 1880,
      "23": 1881,
      "cx": 1882,
      "ite": 1883,
      "stem": 1884,
      "greater": 1885,
      "amoun": 1886,
      "alveolar": 1887,
      "state": 1888,
      "hemis": 1889,
      "identified": 1890,
      "pitu": 1891,
      "hal": 1892,
      "height": 1893,
      "oneph": 1894,
      "hydro": 1895,
      "containing": 1896,
      "hyperechoic": 1897,
      "attach": 1898,
      "uspid": 1899,
      "below": 1900,
      "complex": 1901,
      "homogenous": 1902,
      "lobulated": 1903,
      "effect": 1904,
      "cus": 1905,
      "tus": 1906,
      "detected": 1907,
      "pituitary": 1908,
      "ative": 1909,
      "tur": 1910,
      "foci": 1911,
      "satu": 1912,
      "resection": 1913,
      "shun": 1914,
      "intersti": 1915,
      "foot": 1916,
      "flo": 1917,
      "dex": 1918,
      "dissection": 1919,
      "appendi": 1920,
      "final": 1921,
      "cation": 1922,
      "compared": 1923,
      "c5": 1924,
      "rl": 1925,
      "only": 1926,
      "peritoneum": 1927,
      "opacification": 1928,
      "gestation": 1929,
      "drainage": 1930,
      "group": 1931,
      "pli": 1932,
      "ator": 1933,
      "osteoly": 1934,
      "history": 1935,
      "erosion": 1936,
      "positron": 1937,
      "ao": 1938,
      "ger": 1939,
      "smo": 1940,
      "stage": 1941,
      "itation": 1942,
      "unk": 1943,
      "whole": 1944,
      "impro": 1945,
      "foreign": 1946,
      "minimal": 1947,
      "invasion": 1948,
      "membrane": 1949,
      "bu": 1950,
      "atus": 1951,
      "patent": 1952,
      "trial": 1953,
      "tow": 1954,
      "uro": 1955,
      "bilaterally": 1956,
      "medium": 1957,
      "continu": 1958,
      "vertebrae": 1959,
      "prog": 1960,
      "appears": 1961,
      "articular": 1962,
      "branches": 1963,
      "ans": 1964,
      "scribed": 1965,
      "osse": 1966,
      "bronchus": 1967,
      "hemisphe": 1968,
      "spital": 1969,
      "divertic": 1970,
      "approximately": 1971,
      "amount": 1972,
      "c2": 1973,
      "evalu": 1974,
      "active": 1975,
      "dot": 1976,
      "tech": 1977,
      "devic": 1978,
      "epid": 1979,
      "hospital": 1980,
      "ip": 1981,
      "tear": 1982,
      "produ": 1983,
      "dose": 1984,
      "gang": 1985,
      "lytic": 1986,
      "rectum": 1987,
      "pu": 1988,
      "leaf": 1989,
      "rease": 1990,
      "8yearold": 1991,
      "reco": 1992,
      "cect": 1993,
      "lobular": 1994,
      "stration": 1995,
      "thalam": 1996,
      "ins": 1997,
      "recurrence": 1998,
      "ler": 1999,
      "sities": 2000,
      "radial": 2001,
      "represents": 2002,
      "interstitial": 2003,
      "refer": 2004,
      "outer": 2005,
      "levels": 2006,
      "hrct": 2007,
      "segmental": 2008,
      "posteroanterior": 2009,
      "avec": 2010,
      "dominant": 2011,
      "found": 2012,
      "ose": 2013,
      "nel": 2014,
      "draw": 2015,
      "orbit": 2016,
      "removal": 2017,
      "fetal": 2018,
      "boy": 2019,
      "picture": 2020,
      "way": 2021,
      "infra": 2022,
      "inside": 2023,
      "locular": 2024,
      "malign": 2025,
      "hypopla": 2026,
      "margins": 2027,
      "pub": 2028,
      "ficial": 2029,
      "mix": 2030,
      "skin": 2031,
      "guide": 2032,
      "elect": 2033,
      "anatom": 2034,
      "coma": 2035,
      "entire": 2036,
      "cartilage": 2037,
      "treated": 2038,
      "ential": 2039,
      "meth": 2040,
      "breviation": 2041,
      "sclerosis": 2042,
      "myocardi": 2043,
      "ressing": 2044,
      "bur": 2045,
      "illdefined": 2046,
      "port": 2047,
      "trunk": 2048,
      "acetabular": 2049,
      "ost": 2050,
      "bub": 2051,
      "hume": 2052,
      "vari": 2053,
      "pedi": 2054,
      "luminal": 2055,
      "target": 2056,
      "cb": 2057,
      "lation": 2058,
      "lymphadenopathy": 2059,
      "depicting": 2060,
      "good": 2061,
      "22": 2062,
      "arm": 2063,
      "close": 2064,
      "herniation": 2065,
      "distribution": 2066,
      "pri": 2067,
      "where": 2068,
      "infiltrates": 2069,
      "tricuspid": 2070,
      "gangli": 2071,
      "carpal": 2072,
      "pneumon": 2073,
      "hemithorax": 2074,
      "27": 2075,
      "sheath": 2076,
      "condyle": 2077,
      "wor": 2078,
      "off": 2079,
      "leg": 2080,
      "rist": 2081,
      "may": 2082,
      "just": 2083,
      "parenchymal": 2084,
      "decreased": 2085,
      "orthopantomogram": 2086,
      "atrophy": 2087,
      "device": 2088,
      "bubble": 2089,
      "block": 2090,
      "fund": 2091,
      "circumscribed": 2092,
      "radiolucency": 2093,
      "evident": 2094,
      "ascites": 2095,
      "pun": 2096,
      "ancy": 2097,
      "bones": 2098,
      "36": 2099,
      "oct": 2100,
      "structed": 2101,
      "measurements": 2102,
      "rection": 2103,
      "intrahepatic": 2104,
      "medullary": 2105,
      "humeral": 2106,
      "ards": 2107,
      "wide": 2108,
      "change": 2109,
      "ctively": 2110,
      "reduced": 2111,
      "early": 2112,
      "shunt": 2113,
      "recovery": 2114,
      "cc": 2115,
      "ctscan": 2116,
      "relative": 2117,
      "trochan": 2118,
      "ann": 2119,
      "suc": 2120,
      "fractures": 2121,
      "infarction": 2122,
      "ginal": 2123,
      "caver": 2124,
      "feat": 2125,
      "rca": 2126,
      "mural": 2127,
      "collapse": 2128,
      "wrist": 2129,
      "opg": 2130,
      "protru": 2131,
      "hypertro": 2132,
      "sized": 2133,
      "c6": 2134,
      "arcoma": 2135,
      "crosssection": 2136,
      "4yearold": 2137,
      "sum": 2138,
      "ject": 2139,
      "each": 2140,
      "ssi": 2141,
      "ym": 2142,
      "dth": 2143,
      "fl": 2144,
      "s1": 2145,
      "dies": 2146,
      "limb": 2147,
      "sinuses": 2148,
      "anti": 2149,
      "compressing": 2150,
      "reformatted": 2151,
      "hor": 2152,
      "chemo": 2153,
      "plasty": 2154,
      "matory": 2155,
      "curved": 2156,
      "nucle": 2157,
      "marrow": 2158,
      "paral": 2159,
      "soas": 2160,
      "infarct": 2161,
      "expansion": 2162,
      "ers": 2163,
      "width": 2164,
      "percutaneous": 2165,
      "perforation": 2166,
      "nas": 2167,
      "abbreviation": 2168,
      "inflammatory": 2169,
      "capsule": 2170,
      "9yearold": 2171,
      "king": 2172,
      "less": 2173,
      "ritis": 2174,
      "maxilla": 2175,
      "urethra": 2176,
      "papillary": 2177,
      "clinical": 2178,
      "26": 2179,
      "band": 2180,
      "mening": 2181,
      "atal": 2182,
      "jejun": 2183,
      "segments": 2184,
      "iii": 2185,
      "mucosal": 2186,
      "occupying": 2187,
      "epidural": 2188,
      "diffusion": 2189,
      "result": 2190,
      "onephrosis": 2191,
      "method": 2192,
      "md": 2193,
      "respe": 2194,
      "tissues": 2195,
      "selective": 2196,
      "characteristic": 2197,
      "anast": 2198,
      "gau": 2199,
      "have": 2200,
      "success": 2201,
      "anastom": 2202,
      "ingu": 2203,
      "scap": 2204,
      "costal": 2205,
      "classi": 2206,
      "interest": 2207,
      "superficial": 2208,
      "speci": 2209,
      "21": 2210,
      "inversion": 2211,
      "shape": 2212,
      "hyperintensity": 2213,
      "cholangi": 2214,
      "ramus": 2215,
      "ally": 2216,
      "vision": 2217,
      "odon": 2218,
      "subtraction": 2219,
      "sacral": 2220,
      "fal": 2221,
      "sphen": 2222,
      "inner": 2223,
      "magn": 2224,
      "pharyngeal": 2225,
      "hydr": 2226,
      "transpl": 2227,
      "furcation": 2228,
      "including": 2229,
      "back": 2230,
      "activ": 2231,
      "humer": 2232,
      "widen": 2233,
      "caps": 2234,
      "sonogram": 2235,
      "function": 2236,
      "3yearold": 2237,
      "c3": 2238,
      "rati": 2239,
      "pair": 2240,
      "leftsided": 2241,
      "ression": 2242,
      "scans": 2243,
      "corpus": 2244,
      "culated": 2245,
      "while": 2246,
      "inserted": 2247,
      "2d": 2248,
      "thigh": 2249,
      "omal": 2250,
      "roi": 2251,
      "fields": 2252,
      "ankle": 2253,
      "humerus": 2254,
      "arti": 2255,
      "sim": 2256,
      "t1w": 2257,
      "pseud": 2258,
      "groundglass": 2259,
      "impacted": 2260,
      "60": 2261,
      "axillary": 2262,
      "slightly": 2263,
      "c7": 2264,
      "adv": 2265,
      "spread": 2266,
      "rectus": 2267,
      "pendicular": 2268,
      "mixed": 2269,
      "cles": 2270,
      "how": 2271,
      "his": 2272,
      "sha": 2273,
      "top": 2274,
      "strand": 2275,
      "dyspla": 2276,
      "ovari": 2277,
      "ns": 2278,
      "use": 2279,
      "perpendicular": 2280,
      "syst": 2281,
      "chole": 2282,
      "paralle": 2283,
      "chial": 2284,
      "asym": 2285,
      "echocardiographic": 2286,
      "cause": 2287,
      "prosthesis": 2288,
      "guided": 2289,
      "smooth": 2290,
      "chil": 2291,
      "representative": 2292,
      "based": 2293,
      "course": 2294,
      "fundus": 2295,
      "37": 2296,
      "analy": 2297,
      "repe": 2298,
      "radiation": 2299,
      "drawn": 2300,
      "successful": 2301,
      "fac": 2302,
      "recurrent": 2303,
      "inflammation": 2304,
      "respectively": 2305,
      "parallel": 2306,
      "aring": 2307,
      "chno": 2308,
      "ism": 2309,
      "representing": 2310,
      "arachno": 2311,
      "leakage": 2312,
      "ain": 2313,
      "dm": 2314,
      "ouch": 2315,
      "comb": 2316,
      "oran": 2317,
      "premolar": 2318,
      "kidneys": 2319,
      "distended": 2320,
      "titis": 2321,
      "endome": 2322,
      "obtu": 2323,
      "plic": 2324,
      "outflow": 2325,
      "patchy": 2326,
      "anteriorly": 2327,
      "sclerotic": 2328,
      "elev": 2329,
      "lated": 2330,
      "luco": 2331,
      "access": 2332,
      "predominant": 2333,
      "hour": 2334,
      "ward": 2335,
      "pected": 2336,
      "ocar": 2337,
      "presenting": 2338,
      "susce": 2339,
      "anted": 2340,
      "rie": 2341,
      "vesi": 2342,
      "delay": 2343,
      "girl": 2344,
      "urg": 2345,
      "plex": 2346,
      "migra": 2347,
      "septa": 2348,
      "implantation": 2349,
      "attached": 2350,
      "ml": 2351,
      "ming": 2352,
      "stab": 2353,
      "admini": 2354,
      "ologic": 2355,
      "stricture": 2356,
      "shaft": 2357,
      "lucose": 2358,
      "administration": 2359,
      "var": 2360,
      "poor": 2361,
      "across": 2362,
      "basi": 2363,
      "cavern": 2364,
      "sv": 2365,
      "when": 2366,
      "child": 2367,
      "teal": 2368,
      "cele": 2369,
      "about": 2370,
      "cells": 2371,
      "fourchamber": 2372,
      "capsular": 2373,
      "arachnoid": 2374,
      "ec": 2375,
      "ptom": 2376,
      "enter": 2377,
      "ency": 2378,
      "met": 2379,
      "hyperdense": 2380,
      "tubercul": 2381,
      "ae": 2382,
      "ster": 2383,
      "acqui": 2384,
      "colum": 2385,
      "union": 2386,
      "eus": 2387,
      "susp": 2388,
      "features": 2389,
      "75": 2390,
      "cre": 2391,
      "yed": 2392,
      "align": 2393,
      "lamin": 2394,
      "related": 2395,
      "dotted": 2396,
      "sphenoid": 2397,
      "fasci": 2398,
      "gray": 2399,
      "ky": 2400,
      "bodies": 2401,
      "sacro": 2402,
      "partially": 2403,
      "suppressed": 2404,
      "techni": 2405,
      "direct": 2406,
      "degene": 2407,
      "posed": 2408,
      "dilation": 2409,
      "patellar": 2410,
      "chemotherapy": 2411,
      "perine": 2412,
      "further": 2413,
      "huge": 2414,
      "immediately": 2415,
      "osseous": 2416,
      "hydronephrosis": 2417,
      "cis": 2418,
      "inta": 2419,
      "intraoral": 2420,
      "completely": 2421,
      "adenoma": 2422,
      "pneumonia": 2423,
      "ratio": 2424,
      "glo": 2425,
      "scar": 2426,
      "beam": 2427,
      "anced": 2428,
      "emp": 2429,
      "flap": 2430,
      "repair": 2431,
      "bifurcation": 2432,
      "arterio": 2433,
      "screws": 2434,
      "pedicle": 2435,
      "down": 2436,
      "ue": 2437,
      "orption": 2438,
      "deox": 2439,
      "giant": 2440,
      "encephal": 2441,
      "several": 2442,
      "surrounded": 2443,
      "intact": 2444,
      "postoperatively": 2445,
      "ect": 2446,
      "grow": 2447,
      "theli": 2448,
      "see": 2449,
      "deform": 2450,
      "positive": 2451,
      "stir": 2452,
      "circumflex": 2453,
      "clavicle": 2454,
      "saturated": 2455,
      "sm": 2456,
      "caused": 2457,
      "transvaginal": 2458,
      "done": 2459,
      "glen": 2460,
      "pin": 2461,
      "zyg": 2462,
      "org": 2463,
      "ata": 2464,
      "intus": 2465,
      "bleeding": 2466,
      "joints": 2467,
      "100": 2468,
      "fluoroscopy": 2469,
      "evaluation": 2470,
      "suspici": 2471,
      "l4": 2472,
      "fetus": 2473,
      "extent": 2474,
      "incid": 2475,
      "bronchial": 2476,
      "cr": 2477,
      "highresolution": 2478,
      "regurg": 2479,
      "crani": 2480,
      "muscular": 2481,
      "deplo": 2482,
      "illustrating": 2483,
      "46": 2484,
      "l3": 2485,
      "ura": 2486,
      "vege": 2487,
      "radius": 2488,
      "radiopaque": 2489,
      "extre": 2490,
      "probe": 2491,
      "fourth": 2492,
      "choroid": 2493,
      "delayed": 2494,
      "1yearold": 2495,
      "fused": 2496,
      "mit": 2497,
      "ores": 2498,
      "spect": 2499,
      "positioned": 2500,
      "oblite": 2501,
      "ileum": 2502,
      "ossification": 2503,
      "technique": 2504,
      "ica": 2505,
      "metab": 2506,
      "malformation": 2507,
      "pregn": 2508,
      "callo": 2509,
      "artifact": 2510,
      "7yearold": 2511,
      "content": 2512,
      "neph": 2513,
      "mia": 2514,
      "ducts": 2515,
      "originating": 2516,
      "arynx": 2517,
      "physeal": 2518,
      "leaflet": 2519,
      "ker": 2520,
      "tle": 2521,
      "til": 2522,
      "roma": 2523,
      "prostate": 2524,
      "parotid": 2525,
      "arthroplasty": 2526,
      "ries": 2527,
      "sil": 2528,
      "aspi": 2529,
      "optical": 2530,
      "parent": 2531,
      "mip": 2532,
      "dashed": 2533,
      "ethmoid": 2534,
      "osteolytic": 2535,
      "diverticulum": 2536,
      "vegetation": 2537,
      "hemo": 2538,
      "nar": 2539,
      "cesses": 2540,
      "compati": 2541,
      "diast": 2542,
      "additional": 2543,
      "gross": 2544,
      "index": 2545,
      "almost": 2546,
      "neuro": 2547,
      "radiographie": 2548,
      "paro": 2549,
      "roots": 2550,
      "transplant": 2551,
      "intussusce": 2552,
      "compatible": 2553,
      "cula": 2554,
      "lan": 2555,
      "simil": 2556,
      "cali": 2557,
      "infection": 2558,
      "gauche": 2559,
      "deformity": 2560,
      "similar": 2561,
      "ever": 2562,
      "ies": 2563,
      "tdm": 2564,
      "resorption": 2565,
      "abdomin": 2566,
      "opath": 2567,
      "18ff": 2568,
      "ocarcinoma": 2569,
      "55": 2570,
      "liac": 2571,
      "heterogeneously": 2572,
      "inguinal": 2573,
      "num": 2574,
      "sit": 2575,
      "nex": 2576,
      "walls": 2577,
      "minu": 2578,
      "table": 2579,
      "confirming": 2580,
      "c1": 2581,
      "entation": 2582,
      "trabe": 2583,
      "radiological": 2584,
      "persistent": 2585,
      "cking": 2586,
      "cri": 2587,
      "refle": 2588,
      "phot": 2589,
      "atar": 2590,
      "computer": 2591,
      "bronchie": 2592,
      "ultrasonographic": 2593,
      "previously": 2594,
      "ovarian": 2595,
      "28": 2596,
      "ities": 2597,
      "sitis": 2598,
      "maj": 2599,
      "ult": 2600,
      "asse": 2601,
      "approach": 2602,
      "ectop": 2603,
      "oedema": 2604,
      "perfusion": 2605,
      "opanc": 2606,
      "contact": 2607,
      "different": 2608,
      "predominantly": 2609,
      "cavernous": 2610,
      "apparent": 2611,
      "heads": 2612,
      "jected": 2613,
      "heterogenous": 2614,
      "healing": 2615,
      "advanced": 2616,
      "omat": 2617,
      "map": 2618,
      "mesi": 2619,
      "cam": 2620,
      "hepat": 2621,
      "novi": 2622,
      "intracranial": 2623,
      "canine": 2624,
      "c4": 2625,
      "rt": 2626,
      "stine": 2627,
      "uld": 2628,
      "ature": 2629,
      "acral": 2630,
      "could": 2631,
      "softtissue": 2632,
      "cardiomegaly": 2633,
      "symmetric": 2634,
      "dental": 2635,
      "abut": 2636,
      "accum": 2637,
      "cision": 2638,
      "possible": 2639,
      "subdural": 2640,
      "curv": 2641,
      "echogenicity": 2642,
      "stranding": 2643,
      "culation": 2644,
      "pow": 2645,
      "straight": 2646,
      "ventricles": 2647,
      "intestine": 2648,
      "diaphragmatic": 2649,
      "phic": 2650,
      "anteriorposterior": 2651,
      "structive": 2652,
      "centric": 2653,
      "throughout": 2654,
      "attenuated": 2655,
      "clavicular": 2656,
      "walled": 2657,
      "electro": 2658,
      "bright": 2659,
      "fis": 2660,
      "glu": 2661,
      "pand": 2662,
      "sch": 2663,
      "ablation": 2664,
      "date": 2665,
      "ribs": 2666,
      "suspected": 2667,
      "yglucose": 2668,
      "chondral": 2669,
      "bed": 2670,
      "demar": 2671,
      "increase": 2672,
      "cann": 2673,
      "matous": 2674,
      "abnormality": 2675,
      "malignant": 2676,
      "pubic": 2677,
      "70": 2678,
      "full": 2679,
      "usal": 2680,
      "atele": 2681,
      "sequent": 2682,
      "ocyst": 2683,
      "floor": 2684,
      "deoxyglucose": 2685,
      "regurgitation": 2686,
      "pho": 2687,
      "ves": 2688,
      "ading": 2689,
      "permission": 2690,
      "herence": 2691,
      "however": 2692,
      "ied": 2693,
      "went": 2694,
      "requ": 2695,
      "sile": 2696,
      "suv": 2697,
      "posteriorly": 2698,
      "pathological": 2699,
      "communication": 2700,
      "improvement": 2701,
      "cholangiopanc": 2702,
      "modi": 2703,
      "reatography": 2704,
      "fibrosis": 2705,
      "value": 2706,
      "99": 2707,
      "spo": 2708,
      "inti": 2709,
      "hem": 2710,
      "ductal": 2711,
      "lymphoma": 2712,
      "defects": 2713,
      "markedly": 2714,
      "reconstructed": 2715,
      "stones": 2716,
      "anatomical": 2717,
      "nucleus": 2718,
      "direction": 2719,
      "mented": 2720,
      "necrotic": 2721,
      "intussusception": 2722,
      "pouch": 2723,
      "ondy": 2724,
      "sellar": 2725,
      "deline": 2726,
      "analysis": 2727,
      "ben": 2728,
      "psoas": 2729,
      "sma": 2730,
      "anomal": 2731,
      "cein": 2732,
      "median": 2733,
      "omedia": 2734,
      "implanted": 2735,
      "hilum": 2736,
      "number": 2737,
      "bronchiectasis": 2738,
      "power": 2739,
      "minal": 2740,
      "pv": 2741,
      "conflu": 2742,
      "compressed": 2743,
      "underwent": 2744,
      "circumfer": 2745,
      "immediate": 2746,
      "cxr": 2747,
      "crosssectional": 2748,
      "metatar": 2749,
      "alignment": 2750,
      "bound": 2751,
      "squ": 2752,
      "replacement": 2753,
      "ctor": 2754,
      "determ": 2755,
      "fatty": 2756,
      "absent": 2757,
      "fibr": 2758,
      "metallic": 2759,
      "oresc": 2760,
      "anastomosis": 2761,
      "stabil": 2762,
      "basilar": 2763,
      "aspiration": 2764,
      "ok": 2765,
      "rs": 2766,
      "rative": 2767,
      "deviation": 2768,
      "coherence": 2769,
      "genital": 2770,
      "symptom": 2771,
      "gastrointestinal": 2772,
      "developed": 2773,
      "32": 2774,
      "hind": 2775,
      "loculated": 2776,
      "brachial": 2777,
      "prof": 2778,
      "made": 2779,
      "fected": 2780,
      "place": 2781,
      "borders": 2782,
      "nail": 2783,
      "cephalus": 2784,
      "patella": 2785,
      "mucosa": 2786,
      "major": 2787,
      "ised": 2788,
      "inv": 2789,
      "ris": 2790,
      "sella": 2791,
      "masse": 2792,
      "agent": 2793,
      "xrays": 2794,
      "defini": 2795,
      "suspicious": 2796,
      "callosum": 2797,
      "cine": 2798,
      "mine": 2799,
      "sul": 2800,
      "ante": 2801,
      "tium": 2802,
      "isation": 2803,
      "because": 2804,
      "cording": 2805,
      "subcortical": 2806,
      "synovi": 2807,
      "arthritis": 2808,
      "depth": 2809,
      "acetabulum": 2810,
      "l2": 2811,
      "zation": 2812,
      "umbil": 2813,
      "fluores": 2814,
      "airfluid": 2815,
      "spaces": 2816,
      "myocardial": 2817,
      "assess": 2818,
      "being": 2819,
      "pressure": 2820,
      "ventional": 2821,
      "fluorescein": 2822,
      "bic": 2823,
      "nam": 2824,
      "pd": 2825,
      "remain": 2826,
      "poin": 2827,
      "tosis": 2828,
      "angiographic": 2829,
      "placent": 2830,
      "occl": 2831,
      "facet": 2832,
      "oplasty": 2833,
      "pregnancy": 2834,
      "cli": 2835,
      "fing": 2836,
      "l1": 2837,
      "pment": 2838,
      "tin": 2839,
      "sting": 2840,
      "stoid": 2841,
      "sition": 2842,
      "celiac": 2843,
      "tension": 2844,
      "acrom": 2845,
      "hyda": 2846,
      "pleura": 2847,
      "subarachnoid": 2848,
      "smaller": 2849,
      "osteal": 2850,
      "haema": 2851,
      "appeared": 2852,
      "terminal": 2853,
      "widening": 2854,
      "atelectasis": 2855,
      "myel": 2856,
      "pneumomedia": 2857,
      "reference": 2858,
      "cholangiopancreatography": 2859,
      "occlusal": 2860,
      "pyel": 2861,
      "toid": 2862,
      "acous": 2863,
      "affected": 2864,
      "multilocular": 2865,
      "wallow": 2866,
      "clu": 2867,
      "dar": 2868,
      "swallow": 2869,
      "chle": 2870,
      "scro": 2871,
      "cone": 2872,
      "lux": 2873,
      "yeli": 2874,
      "osteotomy": 2875,
      "towards": 2876,
      "activity": 2877,
      "xis": 2878,
      "rese": 2879,
      "ump": 2880,
      "demonstrate": 2881,
      "thoraci": 2882,
      "fatsuppressed": 2883,
      "ruptured": 2884,
      "acoustic": 2885,
      "48": 2886,
      "rd": 2887,
      "rogram": 2888,
      "tun": 2889,
      "laterally": 2890,
      "obvious": 2891,
      "subsequent": 2892,
      "elbow": 2893,
      "emer": 2894,
      "morph": 2895,
      "dysplasia": 2896,
      "plication": 2897,
      "ectopic": 2898,
      "thoracique": 2899,
      "ade": 2900,
      "ccal": 2901,
      "ulnar": 2902,
      "sides": 2903,
      "renic": 2904,
      "sonography": 2905,
      "growth": 2906,
      "90": 2907,
      "mn": 2908,
      "stable": 2909,
      "cated": 2910,
      "extended": 2911,
      "marks": 2912,
      "still": 2913,
      "occluded": 2914,
      "adenocarcinoma": 2915,
      "sonographic": 2916,
      "pseudocyst": 2917,
      "hours": 2918,
      "pneumomediastinum": 2919,
      "teral": 2920,
      "ogast": 2921,
      "simple": 2922,
      "cistern": 2923,
      "few": 2924,
      "fiber": 2925,
      "ruption": 2926,
      "visualization": 2927,
      "planar": 2928,
      "calcane": 2929,
      "urethral": 2930,
      "fail": 2931,
      "metacarpal": 2932,
      "localized": 2933,
      "brid": 2934,
      "appendix": 2935,
      "crow": 2936,
      "numer": 2937,
      "pas": 2938,
      "isod": 2939,
      "wellcircumscribed": 2940,
      "endplate": 2941,
      "dynam": 2942,
      "general": 2943,
      "plexus": 2944,
      "numerous": 2945,
      "rotation": 2946,
      "pretreatment": 2947,
      "supp": 2948,
      "focus": 2949,
      "photograph": 2950,
      "symptoms": 2951,
      "lab": 2952,
      "complic": 2953,
      "vide": 2954,
      "five": 2955,
      "contralateral": 2956,
      "anechoic": 2957,
      "twodimensional": 2958,
      "cephalic": 2959,
      "invasive": 2960,
      "repeat": 2961,
      "gran": 2962,
      "void": 2963,
      "ices": 2964,
      "unenhanced": 2965,
      "intermedia": 2966,
      "fatsaturated": 2967,
      "false": 2968,
      "etra": 2969,
      "ned": 2970,
      "enne": 2971,
      "ercp": 2972,
      "popli": 2973,
      "neur": 2974,
      "accumulation": 2975,
      "metatarsal": 2976,
      "lor": 2977,
      "tree": 2978,
      "vs": 2979,
      "omas": 2980,
      "scoli": 2981,
      "conside": 2982,
      "outline": 2983,
      "longaxis": 2984,
      "mrcp": 2985,
      "calculated": 2986,
      "hypoplasia": 2987,
      "scanner": 2988,
      "interval": 2989,
      "implants": 2990,
      "planning": 2991,
      "expansile": 2992,
      "communicating": 2993,
      "hemisphere": 2994,
      "glenoid": 2995,
      "modified": 2996,
      "bos": 2997,
      "ion": 2998,
      "ique": 2999,
      "lin": 3000,
      "wing": 3001,
      "cortic": 3002,
      "cove": 3003,
      "sacrum": 3004,
      "dynamic": 3005,
      "sn": 3006,
      "test": 3007,
      "outl": 3008,
      "menis": 3009,
      "artment": 3010,
      "underlying": 3011,
      "mdct": 3012,
      "facial": 3013,
      "svc": 3014,
      "fascia": 3015,
      "haematoma": 3016,
      "oesophageal": 3017,
      "sam": 3018,
      "retained": 3019,
      "sca": 3020,
      "compartment": 3021,
      "lide": 3022,
      "intervertebral": 3023,
      "intera": 3024,
      "penetra": 3025,
      "symphysis": 3026,
      "gestational": 3027,
      "hypertrophy": 3028,
      "isodose": 3029,
      "34": 3030,
      "stomy": 3031,
      "lesser": 3032,
      "fixed": 3033,
      "true": 3034,
      "half": 3035,
      "bubbles": 3036,
      "choroidal": 3037,
      "metabolic": 3038,
      "failure": 3039,
      "intermediate": 3040,
      "popliteal": 3041,
      "ching": 3042,
      "congenital": 3043,
      "limi": 3044,
      "again": 3045,
      "original": 3046,
      "overlying": 3047,
      "likely": 3048,
      "migration": 3049,
      "tuberculosis": 3050,
      "doc": 3051,
      "gro": 3052,
      "ja": 3053,
      "tong": 3054,
      "rece": 3055,
      "omyeli": 3056,
      "preser": 3057,
      "frame": 3058,
      "depicts": 3059,
      "orthopantomograph": 3060,
      "orange": 3061,
      "another": 3062,
      "dial": 3063,
      "detach": 3064,
      "perman": 3065,
      "opening": 3066,
      "agic": 3067,
      "fistul": 3068,
      "threedimensional": 3069,
      "resulting": 3070,
      "standard": 3071,
      "arteriovenous": 3072,
      "scat": 3073,
      "umb": 3074,
      "ques": 3075,
      "abnormalities": 3076,
      "calculus": 3077,
      "permanent": 3078,
      "38": 3079,
      "65": 3080,
      "6yearold": 3081,
      "fth": 3082,
      "mou": 3083,
      "labe": 3084,
      "ceration": 3085,
      "tomographycomputed": 3086,
      "proton": 3087,
      "period": 3088,
      "periosteal": 3089,
      "mide": 3090,
      "airway": 3091,
      "pneuma": 3092,
      "try": 3093,
      "tortu": 3094,
      "development": 3095,
      "dent": 3096,
      "thesis": 3097,
      "revision": 3098,
      "conventional": 3099,
      "usg": 3100,
      "reaction": 3101,
      "intensities": 3102,
      "cavitary": 3103,
      "rounded": 3104,
      "minor": 3105,
      "draining": 3106,
      "shadowing": 3107,
      "differenti": 3108,
      "cbd": 3109,
      "anomalous": 3110,
      "dark": 3111,
      "tunnel": 3112,
      "epic": 3113,
      "then": 3114,
      "anal": 3115,
      "according": 3116,
      "tesy": 3117,
      "colour": 3118,
      "extends": 3119,
      "shorta": 3120,
      "courtesy": 3121,
      "anatomy": 3122,
      "sacroiliac": 3123,
      "gal": 3124,
      "mh": 3125,
      "inate": 3126,
      "rever": 3127,
      "uli": 3128,
      "mechan": 3129,
      "ressive": 3130,
      "spont": 3131,
      "colonic": 3132,
      "ipsi": 3133,
      "protruding": 3134,
      "hydatid": 3135,
      "tongue": 3136,
      "shortaxis": 3137,
      "33": 3138,
      "data": 3139,
      "thou": 3140,
      "enema": 3141,
      "series": 3142,
      "ische": 3143,
      "resol": 3144,
      "behind": 3145,
      "interven": 3146,
      "hypervascular": 3147,
      "caudate": 3148,
      "condylar": 3149,
      "prosthetic": 3150,
      "incidental": 3151,
      "sarcoma": 3152,
      "rected": 3153,
      "pocam": 3154,
      "ducer": 3155,
      "llum": 3156,
      "hippocam": 3157,
      "haem": 3158,
      "hemidiaphragm": 3159,
      "removed": 3160,
      "ganglia": 3161,
      "cranio": 3162,
      "docum": 3163,
      "crest": 3164,
      "gree": 3165,
      "tee": 3166,
      "loid": 3167,
      "tomogram": 3168,
      "views": 3169,
      "interventricular": 3170,
      "ventricul": 3171,
      "intraluminal": 3172,
      "thinning": 3173,
      "embolism": 3174,
      "passing": 3175,
      "endometrial": 3176,
      "acquired": 3177,
      "benign": 3178,
      "ame": 3179,
      "slide": 3180,
      "tc": 3181,
      "allow": 3182,
      "did": 3183,
      "roent": 3184,
      "distin": 3185,
      "bot": 3186,
      "grey": 3187,
      "components": 3188,
      "addition": 3189,
      "buccal": 3190,
      "trochanter": 3191,
      "circumferential": 3192,
      "equ": 3193,
      "iled": 3194,
      "lack": 3195,
      "scope": 3196,
      "involved": 3197,
      "positioning": 3198,
      "toward": 3199,
      "thalamus": 3200,
      "horn": 3201,
      "mp": 3202,
      "onal": 3203,
      "tracer": 3204,
      "conve": 3205,
      "correct": 3206,
      "larger": 3207,
      "fibula": 3208,
      "values": 3209,
      "produced": 3210,
      "puncture": 3211,
      "abbreviations": 3212,
      "glot": 3213,
      "80": 3214,
      "cti": 3215,
      "sl": 3216,
      "vo": 3217,
      "ratory": 3218,
      "feeding": 3219,
      "exhi": 3220,
      "densities": 3221,
      "pancreatitis": 3222,
      "trium": 3223,
      "zones": 3224,
      "chio": 3225,
      "hypoplastic": 3226,
      "guidewire": 3227,
      "jejunal": 3228,
      "systolic": 3229,
      "midesophageal": 3230,
      "fine": 3231,
      "tine": 3232,
      "phery": 3233,
      "vesti": 3234,
      "largest": 3235,
      "fibro": 3236,
      "collaterals": 3237,
      "phalangeal": 3238,
      "abutting": 3239,
      "ogastric": 3240,
      "scoliosis": 3241,
      "ipsilateral": 3242,
      "31": 3243,
      "cru": 3244,
      "eal": 3245,
      "ograft": 3246,
      "scanning": 3247,
      "aged": 3248,
      "testis": 3249,
      "cardia": 3250,
      "angioma": 3251,
      "intercostal": 3252,
      "tubular": 3253,
      "solitary": 3254,
      "traumatic": 3255,
      "empty": 3256,
      "demarcated": 3257,
      "roentgen": 3258,
      "pped": 3259,
      "ske": 3260,
      "termin": 3261,
      "expand": 3262,
      "ocular": 3263,
      "periphery": 3264,
      "does": 3265,
      "occur": 3266,
      "velocity": 3267,
      "phalanx": 3268,
      "trochanteric": 3269,
      "dsa": 3270,
      "vit": 3271,
      "scal": 3272,
      "tori": 3273,
      "neopla": 3274,
      "spondy": 3275,
      "coar": 3276,
      "deno": 3277,
      "outside": 3278,
      "static": 3279,
      "molars": 3280,
      "ovary": 3281,
      "relatively": 3282,
      "invading": 3283,
      "spontaneous": 3284,
      "kn": 3285,
      "nume": 3286,
      "psed": 3287,
      "injected": 3288,
      "retic": 3289,
      "sec": 3290,
      "tend": 3291,
      "ations": 3292,
      "mental": 3293,
      "spi": 3294,
      "irm": 3295,
      "intramedullary": 3296,
      "t12": 3297,
      "gative": 3298,
      "displacing": 3299,
      "flat": 3300,
      "distension": 3301,
      "distinct": 3302,
      "mca": 3303,
      "osity": 3304,
      "laparo": 3305,
      "score": 3306,
      "parts": 3307,
      "aort": 3308,
      "forearm": 3309,
      "canals": 3310,
      "posterolateral": 3311,
      "determined": 3312,
      "assessment": 3313,
      "aut": 3314,
      "aire": 3315,
      "ocele": 3316,
      "rary": 3317,
      "degree": 3318,
      "angular": 3319,
      "effusions": 3320,
      "tomatic": 3321,
      "ultrasonogram": 3322,
      "closure": 3323,
      "droite": 3324,
      "water": 3325,
      "scapular": 3326,
      "fissure": 3327,
      "orescence": 3328,
      "hou": 3329,
      "ram": 3330,
      "negative": 3331,
      "cae": 3332,
      "periventricular": 3333,
      "volum": 3334,
      "highly": 3335,
      "lumbos": 3336,
      "diagnostic": 3337,
      "incisors": 3338,
      "plied": 3339,
      "pointing": 3340,
      "omyelitis": 3341,
      "convex": 3342,
      "47": 3343,
      "sor": 3344,
      "ons": 3345,
      "mobile": 3346,
      "intraperitoneal": 3347,
      "fractured": 3348,
      "pontine": 3349,
      "medul": 3350,
      "pericardium": 3351,
      "cerebellum": 3352,
      "specific": 3353,
      "luxation": 3354,
      "scattered": 3355,
      "fold": 3356,
      "recess": 3357,
      "multiplanar": 3358,
      "monthold": 3359,
      "fast": 3360,
      "catheteri": 3361,
      "results": 3362,
      "coils": 3363,
      "umbilical": 3364,
      "lumbosacral": 3365,
      "eff": 3366,
      "iopa": 3367,
      "pur": 3368,
      "tt": 3369,
      "tv": 3370,
      "fifth": 3371,
      "opelv": 3372,
      "subject": 3373,
      "omedial": 3374,
      "fronto": 3375,
      "unilocular": 3376,
      "lingual": 3377,
      "connection": 3378,
      "connecting": 3379,
      "csf": 3380,
      "magni": 3381,
      "accessory": 3382,
      "organ": 3383,
      "obliteration": 3384,
      "curvature": 3385,
      "finger": 3386,
      "opelvic": 3387,
      "aa": 3388,
      "coc": 3389,
      "fid": 3390,
      "rin": 3391,
      "real": 3392,
      "ofi": 3393,
      "suture": 3394,
      "posttreatment": 3395,
      "venogram": 3396,
      "multifocal": 3397,
      "opharynx": 3398,
      "epitheli": 3399,
      "radiotherapy": 3400,
      "sw": 3401,
      "vix": 3402,
      "closed": 3403,
      "pedun": 3404,
      "spinous": 3405,
      "mesial": 3406,
      "cd": 3407,
      "pend": 3408,
      "run": 3409,
      "onset": 3410,
      "strea": 3411,
      "compan": 3412,
      "axiale": 3413,
      "distor": 3414,
      "flux": 3415,
      "transducer": 3416,
      "ometric": 3417,
      "continuous": 3418,
      "bab": 3419,
      "mity": 3420,
      "rage": 3421,
      "stro": 3422,
      "disse": 3423,
      "adnex": 3424,
      "intraabdominal": 3425,
      "marginal": 3426,
      "angulation": 3427,
      "cervix": 3428,
      "response": 3429,
      "cholangiogram": 3430,
      "progression": 3431,
      "jejunum": 3432,
      "sterno": 3433,
      "column": 3434,
      "photo": 3435,
      "yment": 3436,
      "maximal": 3437,
      "ticle": 3438,
      "tening": 3439,
      "respi": 3440,
      "subpleural": 3441,
      "t2wi": 3442,
      "supine": 3443,
      "disruption": 3444,
      "overla": 3445,
      "requency": 3446,
      "rus": 3447,
      "weight": 3448,
      "quate": 3449,
      "antrum": 3450,
      "tumors": 3451,
      "regression": 3452,
      "medially": 3453,
      "mammogram": 3454,
      "hydrocephalus": 3455,
      "deployment": 3456,
      "considered": 3457,
      "cob": 3458,
      "tice": 3459,
      "lock": 3460,
      "osteomyelitis": 3461,
      "displaying": 3462,
      "infiltrating": 3463,
      "vicular": 3464,
      "myome": 3465,
      "lamina": 3466,
      "extremity": 3467,
      "mechanical": 3468,
      "roentgenogram": 3469,
      "cup": 3470,
      "idi": 3471,
      "mra": 3472,
      "ede": 3473,
      "decompression": 3474,
      "cha": 3475,
      "ureteral": 3476,
      "preci": 3477,
      "infant": 3478,
      "midsagittal": 3479,
      "micr": 3480,
      "angles": 3481,
      "orific": 3482,
      "vascularity": 3483,
      "pathology": 3484,
      "scapula": 3485,
      "3rd": 3486,
      "44": 3487,
      "act": 3488,
      "est": 3489,
      "gradi": 3490,
      "if": 3491,
      "strum": 3492,
      "orrh": 3493,
      "phric": 3494,
      "debri": 3495,
      "ceal": 3496,
      "scent": 3497,
      "corne": 3498,
      "pig": 3499,
      "disappearance": 3500,
      "bulb": 3501,
      "droit": 3502,
      "passage": 3503,
      "bility": 3504,
      "elevated": 3505,
      "silhou": 3506,
      "limited": 3507,
      "intervention": 3508,
      "hard": 3509,
      "olateral": 3510,
      "stron": 3511,
      "erup": 3512,
      "brachio": 3513,
      "transabdominal": 3514,
      "syn": 3515,
      "septation": 3516,
      "hemorrhagic": 3517,
      "electrode": 3518,
      "silhouet": 3519,
      "cry": 3520,
      "inver": 3521,
      "reticular": 3522,
      "oure": 3523,
      "accompan": 3524,
      "subchondral": 3525,
      "ostium": 3526,
      "cost": 3527,
      "mildly": 3528,
      "suppression": 3529,
      "fibrous": 3530,
      "sample": 3531,
      "haemorrh": 3532,
      "usu": 3533,
      "last": 3534,
      "exclu": 3535,
      "motion": 3536,
      "agene": 3537,
      "postop": 3538,
      "submandibular": 3539,
      "lens": 3540,
      "cerebro": 3541,
      "gency": 3542,
      "pons": 3543,
      "shadows": 3544,
      "spinatus": 3545,
      "punct": 3546,
      "annulus": 3547,
      "perinephric": 3548,
      "18ffdg": 3549,
      "covered": 3550,
      "fse": 3551,
      "tique": 3552,
      "reflux": 3553,
      "rid": 3554,
      "sic": 3555,
      "meters": 3556,
      "visce": 3557,
      "mesentery": 3558,
      "appearing": 3559,
      "degenerative": 3560,
      "crown": 3561,
      "brachiocephalic": 3562,
      "bit": 3563,
      "gut": 3564,
      "ise": 3565,
      "stress": 3566,
      "pel": 3567,
      "hel": 3568,
      "talar": 3569,
      "esthe": 3570,
      "coid": 3571,
      "notch": 3572,
      "palate": 3573,
      "planes": 3574,
      "crossing": 3575,
      "separate": 3576,
      "placenta": 3577,
      "scrotal": 3578,
      "outlined": 3579,
      "catheterization": 3580,
      "agenesis": 3581,
      "29": 3582,
      "43": 3583,
      "ball": 3584,
      "ls": 3585,
      "inhomogeneous": 3586,
      "semi": 3587,
      "seven": 3588,
      "suff": 3589,
      "sions": 3590,
      "mean": 3591,
      "lowdensity": 3592,
      "spic": 3593,
      "submucosal": 3594,
      "tumoral": 3595,
      "indicative": 3596,
      "flexi": 3597,
      "confirms": 3598,
      "decrease": 3599,
      "kyph": 3600,
      "respiratory": 3601,
      "plaque": 3602,
      "dimensions": 3603,
      "avul": 3604,
      "collapsed": 3605,
      "standing": 3606,
      "polypo": 3607,
      "symmetrical": 3608,
      "synovial": 3609,
      "tortuous": 3610,
      "mhz": 3611,
      "known": 3612,
      "4th": 3613,
      "4chamber": 3614,
      "bal": 3615,
      "fr": 3616,
      "ist": 3617,
      "stern": 3618,
      "uration": 3619,
      "yond": 3620,
      "repor": 3621,
      "order": 3622,
      "del": 3623,
      "tracking": 3624,
      "notice": 3625,
      "beyond": 3626,
      "lucency": 3627,
      "duced": 3628,
      "centre": 3629,
      "anterolateral": 3630,
      "2nd": 3631,
      "gap": 3632,
      "ovascular": 3633,
      "lets": 3634,
      "paran": 3635,
      "odular": 3636,
      "sections": 3637,
      "jet": 3638,
      "physi": 3639,
      "pectoral": 3640,
      "bronchi": 3641,
      "splenomegaly": 3642,
      "depicted": 3643,
      "l5s1": 3644,
      "asymmetric": 3645,
      "85": 3646,
      "pping": 3647,
      "ux": 3648,
      "entry": 3649,
      "aber": 3650,
      "ments": 3651,
      "aprs": 3652,
      "stenting": 3653,
      "interpre": 3654,
      "abscesses": 3655,
      "irregularity": 3656,
      "diffic": 3657,
      "layers": 3658,
      "saturation": 3659,
      "osteolysis": 3660,
      "poorly": 3661,
      "emergency": 3662,
      "azyg": 3663,
      "omental": 3664,
      "ulna": 3665,
      "ceps": 3666,
      "tency": 3667,
      "ocal": 3668,
      "subcapsular": 3669,
      "intramural": 3670,
      "ardial": 3671,
      "tware": 3672,
      "gadoliniumenhanced": 3673,
      "anatomic": 3674,
      "nephro": 3675,
      "hepato": 3676,
      "powerpoint": 3677,
      "paranasal": 3678,
      "dys": 3679,
      "lt": 3680,
      "ptery": 3681,
      "ptomatic": 3682,
      "ule": 3683,
      "rator": 3684,
      "sparing": 3685,
      "oration": 3686,
      "posteri": 3687,
      "software": 3688,
      "pacema": 3689,
      "histopath": 3690,
      "healthy": 3691,
      "relationshi": 3692,
      "eccentric": 3693,
      "diastole": 3694,
      "confluence": 3695,
      "jaw": 3696,
      "vitre": 3697,
      "edematous": 3698,
      "silhouette": 3699,
      "pteryg": 3700,
      "42": 3701,
      "bs": 3702,
      "gon": 3703,
      "globe": 3704,
      "pm": 3705,
      "tera": 3706,
      "their": 3707,
      "oment": 3708,
      "sel": 3709,
      "pose": 3710,
      "visit": 3711,
      "ically": 3712,
      "subtle": 3713,
      "t1wi": 3714,
      "calcific": 3715,
      "marking": 3716,
      "haz": 3717,
      "having": 3718,
      "wave": 3719,
      "baseline": 3720,
      "depend": 3721,
      "setting": 3722,
      "improved": 3723,
      "thalamic": 3724,
      "mnant": 3725,
      "95": 3726,
      "fying": 3727,
      "tang": 3728,
      "remnant": 3729,
      "letal": 3730,
      "sites": 3731,
      "will": 3732,
      "losis": 3733,
      "tam": 3734,
      "thoraco": 3735,
      "plates": 3736,
      "asterisks": 3737,
      "ovoid": 3738,
      "osteophy": 3739,
      "difference": 3740,
      "radioopaque": 3741,
      "puta": 3742,
      "meningi": 3743,
      "elevation": 3744,
      "99m": 3745,
      "video": 3746,
      "detachment": 3747,
      "strong": 3748,
      "cerebrospinal": 3749,
      "call": 3750,
      "iod": 3751,
      "sar": 3752,
      "vation": 3753,
      "macular": 3754,
      "ographique": 3755,
      "opti": 3756,
      "hyperintensities": 3757,
      "arteriography": 3758,
      "osteos": 3759,
      "circulation": 3760,
      "disch": 3761,
      "discre": 3762,
      "suprasellar": 3763,
      "cephalometric": 3764,
      "progressive": 3765,
      "bottom": 3766,
      "pacemaker": 3767,
      "cas": 3768,
      "hol": 3769,
      "onic": 3770,
      "phoid": 3771,
      "config": 3772,
      "dens": 3773,
      "teroid": 3774,
      "paraspinal": 3775,
      "distally": 3776,
      "tempor": 3777,
      "missing": 3778,
      "orientation": 3779,
      "hips": 3780,
      "salva": 3781,
      "cellular": 3782,
      "bullet": 3783,
      "flexure": 3784,
      "systole": 3785,
      "cat": 3786,
      "gb": 3787,
      "riform": 3788,
      "shar": 3789,
      "rois": 3790,
      "plant": 3791,
      "initi": 3792,
      "fluorodeoxyglucose": 3793,
      "healed": 3794,
      "cbct": 3795,
      "morphology": 3796,
      "adequate": 3797,
      "though": 3798,
      "aberrant": 3799,
      "configuration": 3800,
      "gl": 3801,
      "lcx": 3802,
      "thumb": 3803,
      "neu": 3804,
      "hetero": 3805,
      "corpo": 3806,
      "obstructive": 3807,
      "saggital": 3808,
      "elong": 3809,
      "brainstem": 3810,
      "ophthal": 3811,
      "endocardi": 3812,
      "aneurysmal": 3813,
      "odense": 3814,
      "sequences": 3815,
      "significantly": 3816,
      "bulging": 3817,
      "broken": 3818,
      "isointense": 3819,
      "cusp": 3820,
      "myocardium": 3821,
      "delineated": 3822,
      "interatrial": 3823,
      "orifice": 3824,
      "gradient": 3825,
      "polypoid": 3826,
      "cra": 3827,
      "great": 3828,
      "ither": 3829,
      "tte": 3830,
      "stance": 3831,
      "macro": 3832,
      "lobar": 3833,
      "lies": 3834,
      "proper": 3835,
      "testicular": 3836,
      "sagital": 3837,
      "core": 3838,
      "measures": 3839,
      "channel": 3840,
      "ileal": 3841,
      "malignancy": 3842,
      "combined": 3843,
      "cannula": 3844,
      "sternum": 3845,
      "dependent": 3846,
      "adi": 3847,
      "wedge": 3848,
      "rat": 3849,
      "eng": 3850,
      "oflu": 3851,
      "ulitis": 3852,
      "isth": 3853,
      "lesional": 3854,
      "interface": 3855,
      "manual": 3856,
      "superim": 3857,
      "vided": 3858,
      "discont": 3859,
      "narrowed": 3860,
      "vagina": 3861,
      "contours": 3862,
      "obturation": 3863,
      "zygoma": 3864,
      "groove": 3865,
      "recei": 3866,
      "document": 3867,
      "oureth": 3868,
      "discontinu": 3869,
      "05": 3870,
      "67": 3871,
      "cid": 3872,
      "kin": 3873,
      "nt": 3874,
      "ored": 3875,
      "shing": 3876,
      "las": 3877,
      "cecum": 3878,
      "pock": 3879,
      "patency": 3880,
      "proven": 3881,
      "unilateral": 3882,
      "suvmax": 3883,
      "bl": 3884,
      "nom": 3885,
      "mastoid": 3886,
      "hypermetabolic": 3887,
      "curve": 3888,
      "cholangiography": 3889,
      "tuberosity": 3890,
      "cuff": 3891,
      "vesical": 3892,
      "relationship": 3893,
      "meningioma": 3894,
      "ates": 3895,
      "fp": 3896,
      "now": 3897,
      "sour": 3898,
      "asm": 3899,
      "contu": 3900,
      "neural": 3901,
      "cage": 3902,
      "adhe": 3903,
      "subluxation": 3904,
      "aorto": 3905,
      "transversal": 3906,
      "trous": 3907,
      "plateau": 3908,
      "fully": 3909,
      "odontic": 3910,
      "degeneration": 3911,
      "generalized": 3912,
      "supply": 3913,
      "41": 3914,
      "atic": 3915,
      "ctiv": 3916,
      "erect": 3917,
      "hum": 3918,
      "plo": 3919,
      "sche": 3920,
      "ulate": 3921,
      "zo": 3922,
      "ley": 3923,
      "stump": 3924,
      "petrous": 3925,
      "pack": 3926,
      "idus": 3927,
      "correction": 3928,
      "urography": 3929,
      "stents": 3930,
      "posite": 3931,
      "higher": 3932,
      "marker": 3933,
      "ostomy": 3934,
      "skeletal": 3935,
      "avid": 3936,
      "dri": 3937,
      "hole": 3938,
      "spa": 3939,
      "terri": 3940,
      "illes": 3941,
      "vities": 3942,
      "affect": 3943,
      "partic": 3944,
      "interlobular": 3945,
      "nonenhancing": 3946,
      "inferiorly": 3947,
      "collections": 3948,
      "audi": 3949,
      "myx": 3950,
      "pneumoperitoneum": 3951,
      "slices": 3952,
      "leading": 3953,
      "varices": 3954,
      "spectral": 3955,
      "diastolic": 3956,
      "resolved": 3957,
      "39": 3958,
      "bund": 3959,
      "mpr": 3960,
      "sph": 3961,
      "ens": 3962,
      "reproduced": 3963,
      "chal": 3964,
      "contraste": 3965,
      "centri": 3966,
      "forming": 3967,
      "gastrogra": 3968,
      "diffusely": 3969,
      "mainly": 3970,
      "bronchogram": 3971,
      "nerves": 3972,
      "cephalogram": 3973,
      "olith": 3974,
      "omentum": 3975,
      "sharp": 3976,
      "eight": 3977,
      "gus": 3978,
      "incomplete": 3979,
      "lao": 3980,
      "such": 3981,
      "liqu": 3982,
      "excision": 3983,
      "cover": 3984,
      "ophrenic": 3985,
      "displayed": 3986,
      "model": 3987,
      "herniated": 3988,
      "achilles": 3989,
      "supraspinatus": 3990,
      "should": 3991,
      "flexor": 3992,
      "lipoma": 3993,
      "chlear": 3994,
      "fibers": 3995,
      "visceral": 3996,
      "discharge": 3997,
      "bru": 3998,
      "clip": 3999,
      "metry": 4000,
      "cavities": 4001,
      "ligh": 4002,
      "prostatic": 4003,
      "peripancreatic": 4004,
      "obla": 4005,
      "angio": 4006,
      "bypass": 4007,
      "plat": 4008,
      "struct": 4009,
      "valsalva": 4010,
      "physes": 4011,
      "graphy": 4012,
      "front": 4013,
      "stitu": 4014,
      "prin": 4015,
      "iasis": 4016,
      "supernume": 4017,
      "illustration": 4018,
      "bursa": 4019,
      "spot": 4020,
      "epicardial": 4021,
      "iris": 4022,
      "polar": 4023,
      "status": 4024,
      "dition": 4025,
      "laceration": 4026,
      "oge": 4027,
      "mesh": 4028,
      "notes": 4029,
      "append": 4030,
      "appreci": 4031,
      "cies": 4032,
      "pression": 4033,
      "angioplasty": 4034,
      "iliop": 4035,
      "arteriogram": 4036,
      "achie": 4037,
      "supraclavicular": 4038,
      "calculi": 4039,
      "localization": 4040,
      "broad": 4041,
      "guidance": 4042,
      "hemispheres": 4043,
      "omatous": 4044,
      "meniscus": 4045,
      "preserved": 4046,
      "fistulous": 4047,
      "vitreous": 4048,
      "auditory": 4049,
      "appendage": 4050,
      "cv": 4051,
      "dye": 4052,
      "fs": 4053,
      "imm": 4054,
      "pha": 4055,
      "deposi": 4056,
      "cemented": 4057,
      "rot": 4058,
      "tentori": 4059,
      "prola": 4060,
      "fraction": 4061,
      "parasagittal": 4062,
      "paraaortic": 4063,
      "airspace": 4064,
      "tically": 4065,
      "opharyngeal": 4066,
      "ends": 4067,
      "nive": 4068,
      "infiltrative": 4069,
      "severely": 4070,
      "clus": 4071,
      "syste": 4072,
      "isolated": 4073,
      "stability": 4074,
      "tendin": 4075,
      "haemorrhage": 4076,
      "superimposed": 4077,
      "supernumerary": 4078,
      "cn": 4079,
      "instrum": 4080,
      "ality": 4081,
      "ogne": 4082,
      "conges": 4083,
      "mes": 4084,
      "corrected": 4085,
      "movement": 4086,
      "intro": 4087,
      "paravertebral": 4088,
      "cystogram": 4089,
      "described": 4090,
      "ganglion": 4091,
      "specimen": 4092,
      "choledo": 4093,
      "entering": 4094,
      "minutes": 4095,
      "flexion": 4096,
      "niveau": 4097,
      "cleft": 4098,
      "sted": 4099,
      "tan": 4100,
      "ched": 4101,
      "opar": 4102,
      "hyp": 4103,
      "quanti": 4104,
      "postgadolinium": 4105,
      "rupted": 4106,
      "epiphysis": 4107,
      "pathologic": 4108,
      "factory": 4109,
      "ovale": 4110,
      "sinusitis": 4111,
      "acquisition": 4112,
      "deployed": 4113,
      "transplantation": 4114,
      "trabecular": 4115,
      "boundary": 4116,
      "tiny": 4117,
      "granul": 4118,
      "lordo": 4119,
      "avulsion": 4120,
      "azygos": 4121,
      "posterioran": 4122,
      "ks": 4123,
      "anesthe": 4124,
      "tima": 4125,
      "medical": 4126,
      "completion": 4127,
      "centered": 4128,
      "matri": 4129,
      "olip": 4130,
      "stead": 4131,
      "fragments": 4132,
      "grayscale": 4133,
      "remaining": 4134,
      "medulla": 4135,
      "posterioranterior": 4136,
      "gli": 4137,
      "antibi": 4138,
      "tips": 4139,
      "ofe": 4140,
      "risk": 4141,
      "mage": 4142,
      "laire": 4143,
      "depart": 4144,
      "meso": 4145,
      "comparis": 4146,
      "tain": 4147,
      "application": 4148,
      "hyoid": 4149,
      "plasia": 4150,
      "els": 4151,
      "portable": 4152,
      "infected": 4153,
      "signals": 4154,
      "rectomy": 4155,
      "endovascular": 4156,
      "parieto": 4157,
      "selected": 4158,
      "mammary": 4159,
      "dextro": 4160,
      "contents": 4161,
      "glottic": 4162,
      "septations": 4163,
      "systemic": 4164,
      "bmode": 4165,
      "t4": 4166,
      "they": 4167,
      "tia": 4168,
      "tition": 4169,
      "aded": 4170,
      "dura": 4171,
      "limit": 4172,
      "spite": 4173,
      "oney": 4174,
      "proces": 4175,
      "intraventricular": 4176,
      "structing": 4177,
      "highlight": 4178,
      "superiorly": 4179,
      "2013": 4180,
      "chambers": 4181,
      "odontoid": 4182,
      "hemangioma": 4183,
      "iliopsoas": 4184,
      "bscan": 4185,
      "gation": 4186,
      "honey": 4187,
      "kys": 4188,
      "tm": 4189,
      "ente": 4190,
      "distra": 4191,
      "determin": 4192,
      "atlas": 4193,
      "fever": 4194,
      "romal": 4195,
      "prote": 4196,
      "carcin": 4197,
      "thoracolum": 4198,
      "range": 4199,
      "venography": 4200,
      "multiloculated": 4201,
      "mucin": 4202,
      "cervic": 4203,
      "restoration": 4204,
      "continuity": 4205,
      "debris": 4206,
      "ofemoral": 4207,
      "ham": 4208,
      "nine": 4209,
      "invag": 4210,
      "incision": 4211,
      "rele": 4212,
      "shot": 4213,
      "adult": 4214,
      "transition": 4215,
      "jecting": 4216,
      "cencies": 4217,
      "going": 4218,
      "branching": 4219,
      "quadri": 4220,
      "ptv": 4221,
      "halo": 4222,
      "floating": 4223,
      "protrusion": 4224,
      "infarcts": 4225,
      "myometrium": 4226,
      "discrete": 4227,
      "department": 4228,
      "yn": 4229,
      "ano": 4230,
      "recent": 4231,
      "peci": 4232,
      "peak": 4233,
      "concentric": 4234,
      "bearing": 4235,
      "exce": 4236,
      "obstructing": 4237,
      "subcostal": 4238,
      "paratracheal": 4239,
      "solu": 4240,
      "nonenhanced": 4241,
      "triangle": 4242,
      "aries": 4243,
      "native": 4244,
      "uniform": 4245,
      "separated": 4246,
      "attachment": 4247,
      "muscularis": 4248,
      "abdominis": 4249,
      "abdominopelvic": 4250,
      "18fflu": 4251,
      "craniocaudal": 4252,
      "reported": 4253,
      "source": 4254,
      "antibiotic": 4255,
      "rao": 4256,
      "tracted": 4257,
      "atlan": 4258,
      "scinti": 4259,
      "loos": 4260,
      "ured": 4261,
      "lier": 4262,
      "unit": 4263,
      "allograft": 4264,
      "phytic": 4265,
      "2011": 4266,
      "glands": 4267,
      "styloid": 4268,
      "diffusionweighted": 4269,
      "pneumatosis": 4270,
      "neoplasm": 4271,
      "zygomatic": 4272,
      "centrilobular": 4273,
      "thoracolumbar": 4274,
      "asi": 4275,
      "care": 4276,
      "dog": 4277,
      "ets": 4278,
      "gd": 4279,
      "gmented": 4280,
      "mpan": 4281,
      "oscopy": 4282,
      "plu": 4283,
      "rpa": 4284,
      "whe": 4285,
      "zer": 4286,
      "rato": 4287,
      "tectomy": 4288,
      "disk": 4289,
      "desis": 4290,
      "detail": 4291,
      "pathy": 4292,
      "condition": 4293,
      "femo": 4294,
      "hyd": 4295,
      "upon": 4296,
      "import": 4297,
      "individ": 4298,
      "cavitation": 4299,
      "parapharyngeal": 4300,
      "disappeared": 4301,
      "extraction": 4302,
      "landmarks": 4303,
      "retropharyngeal": 4304,
      "clot": 4305,
      "45yearold": 4306,
      "mineral": 4307,
      "labeled": 4308,
      "laparoscopic": 4309,
      "distortion": 4310,
      "adipose": 4311,
      "liquid": 4312,
      "matrix": 4313,
      "comparison": 4314,
      "individual": 4315,
      "rol": 4316,
      "t3": 4317,
      "anchor": 4318,
      "represented": 4319,
      "ria": 4320,
      "teromedial": 4321,
      "despite": 4322,
      "roof": 4323,
      "tention": 4324,
      "tened": 4325,
      "caval": 4326,
      "talus": 4327,
      "oclock": 4328,
      "particular": 4329,
      "atrio": 4330,
      "segmentation": 4331,
      "circled": 4332,
      "caliber": 4333,
      "schw": 4334,
      "calcaneus": 4335,
      "ischemic": 4336,
      "elongated": 4337,
      "64": 4338,
      "vus": 4339,
      "vulus": 4340,
      "stromal": 4341,
      "wise": 4342,
      "destructive": 4343,
      "scia": 4344,
      "best": 4345,
      "exo": 4346,
      "probab": 4347,
      "motor": 4348,
      "ystic": 4349,
      "prevertebral": 4350,
      "obje": 4351,
      "carina": 4352,
      "fluorescence": 4353,
      "pulp": 4354,
      "hypodensity": 4355,
      "regional": 4356,
      "cystoureth": 4357,
      "vascula": 4358,
      "eps": 4359,
      "filter": 4360,
      "60yearold": 4361,
      "accompanied": 4362,
      "markings": 4363,
      "deposits": 4364,
      "honeycomb": 4365,
      "ev": 4366,
      "usion": 4367,
      "vox": 4368,
      "although": 4369,
      "ofrequency": 4370,
      "dig": 4371,
      "edullary": 4372,
      "cecal": 4373,
      "opor": 4374,
      "applied": 4375,
      "reaching": 4376,
      "tympan": 4377,
      "intrauterine": 4378,
      "cycles": 4379,
      "many": 4380,
      "volvulus": 4381,
      "fluidattenuated": 4382,
      "infiltrate": 4383,
      "osteoarthritis": 4384,
      "included": 4385,
      "hands": 4386,
      "separation": 4387,
      "asymptomatic": 4388,
      "ophthalmic": 4389,
      "sphinc": 4390,
      "atrioventricular": 4391,
      "bly": 4392,
      "fall": 4393,
      "gg": 4394,
      "uv": 4395,
      "you": 4396,
      "thus": 4397,
      "rable": 4398,
      "ondro": 4399,
      "ani": 4400,
      "degre": 4401,
      "ographie": 4402,
      "radiolog": 4403,
      "radiologic": 4404,
      "radiofrequency": 4405,
      "giving": 4406,
      "t11": 4407,
      "circular": 4408,
      "circles": 4409,
      "dislocated": 4410,
      "inflation": 4411,
      "starting": 4412,
      "leaflets": 4413,
      "dysplastic": 4414,
      "directly": 4415,
      "definite": 4416,
      "labrum": 4417,
      "penetrating": 4418,
      "mouth": 4419,
      "corneal": 4420,
      "punctate": 4421,
      "callus": 4422,
      "territory": 4423,
      "degrees": 4424,
      "1st": 4425,
      "68": 4426,
      "athe": 4427,
      "bud": 4428,
      "bry": 4429,
      "dal": 4430,
      "ka": 4431,
      "lit": 4432,
      "nm": 4433,
      "sphe": 4434,
      "steroid": 4435,
      "xy": 4436,
      "rapid": 4437,
      "wires": 4438,
      "deliver": 4439,
      "perone": 4440,
      "strain": 4441,
      "quality": 4442,
      "obronch": 4443,
      "caly": 4444,
      "omastoid": 4445,
      "intub": 4446,
      "valv": 4447,
      "hypointensity": 4448,
      "welldemarcated": 4449,
      "syl": 4450,
      "fluidfilled": 4451,
      "cirrh": 4452,
      "portions": 4453,
      "text": 4454,
      "suggests": 4455,
      "homogeneously": 4456,
      "turb": 4457,
      "nuclei": 4458,
      "amel": 4459,
      "expanded": 4460,
      "pigtail": 4461,
      "suffici": 4462,
      "affecting": 4463,
      "schwann": 4464,
      "sciatic": 4465,
      "2cm": 4466,
      "dwi": 4467,
      "kub": 4468,
      "pol": 4469,
      "tse": 4470,
      "rately": 4471,
      "thecal": 4472,
      "enamel": 4473,
      "phrenic": 4474,
      "consi": 4475,
      "propri": 4476,
      "big": 4477,
      "normally": 4478,
      "icking": 4479,
      "staining": 4480,
      "ginous": 4481,
      "fibrotic": 4482,
      "occluder": 4483,
      "palpa": 4484,
      "palatal": 4485,
      "stalk": 4486,
      "2008": 4487,
      "erupted": 4488,
      "bas": 4489,
      "cora": 4490,
      "mer": 4491,
      "mber": 4492,
      "oesophagus": 4493,
      "tb": 4494,
      "uous": 4495,
      "teg": 4496,
      "remark": 4497,
      "report": 4498,
      "pad": 4499,
      "acl": 4500,
      "spur": 4501,
      "ock": 4502,
      "processes": 4503,
      "especi": 4504,
      "possi": 4505,
      "stenotic": 4506,
      "colic": 4507,
      "amplat": 4508,
      "infusion": 4509,
      "followed": 4510,
      "parameters": 4511,
      "mature": 4512,
      "endotracheal": 4513,
      "nodal": 4514,
      "nearly": 4515,
      "anky": 4516,
      "phalanges": 4517,
      "mammography": 4518,
      "appendici": 4519,
      "working": 4520,
      "profile": 4521,
      "biceps": 4522,
      "magnification": 4523,
      "kyphosis": 4524,
      "gastrografin": 4525,
      "18ffluoro": 4526,
      "loosening": 4527,
      "58": 4528,
      "ecta": 4529,
      "fallo": 4530,
      "kes": 4531,
      "pple": 4532,
      "ze": 4533,
      "encapsu": 4534,
      "sitom": 4535,
      "siform": 4536,
      "condu": 4537,
      "contained": 4538,
      "fibular": 4539,
      "urogram": 4540,
      "perihilar": 4541,
      "carinal": 4542,
      "outlet": 4543,
      "abdomenpelvis": 4544,
      "inflow": 4545,
      "midbrain": 4546,
      "embry": 4547,
      "therefore": 4548,
      "markers": 4549,
      "spinecho": 4550,
      "saccular": 4551,
      "saline": 4552,
      "bulla": 4553,
      "restric": 4554,
      "average": 4555,
      "2009": 4556,
      "rieur": 4557,
      "artifacts": 4558,
      "scalene": 4559,
      "coccy": 4560,
      "epithelium": 4561,
      "adnexal": 4562,
      "initiation": 4563,
      "isthmus": 4564,
      "rotator": 4565,
      "mucinous": 4566,
      "exophytic": 4567,
      "propria": 4568,
      "especially": 4569,
      "49": 4570,
      "54": 4571,
      "har": 4572,
      "arte": 4573,
      "lavicular": 4574,
      "ctation": 4575,
      "traver": 4576,
      "pez": 4577,
      "atine": 4578,
      "topic": 4579,
      "tage": 4580,
      "taper": 4581,
      "iness": 4582,
      "onecro": 4583,
      "mult": 4584,
      "mim": 4585,
      "box": 4586,
      "mani": 4587,
      "imping": 4588,
      "retrie": 4589,
      "longer": 4590,
      "stained": 4591,
      "cinate": 4592,
      "maintained": 4593,
      "breath": 4594,
      "inflated": 4595,
      "illustrates": 4596,
      "35yearold": 4597,
      "40yearold": 4598,
      "classic": 4599,
      "widened": 4600,
      "next": 4601,
      "omatosis": 4602,
      "confluent": 4603,
      "putamen": 4604,
      "lighted": 4605,
      "56": 4606,
      "52yearold": 4607,
      "fy": 4608,
      "mv": 4609,
      "pall": 4610,
      "ali": 4611,
      "titan": 4612,
      "silic": 4613,
      "simult": 4614,
      "ters": 4615,
      "trapez": 4616,
      "conf": 4617,
      "tence": 4618,
      "rical": 4619,
      "perirenal": 4620,
      "intrathoracic": 4621,
      "mm2": 4622,
      "presents": 4623,
      "follic": 4624,
      "retina": 4625,
      "ilia": 4626,
      "highlighted": 4627,
      "metaphysis": 4628,
      "extrahepatic": 4629,
      "opacified": 4630,
      "retroperitoneum": 4631,
      "bulky": 4632,
      "rvot": 4633,
      "500": 4634,
      "connected": 4635,
      "widespread": 4636,
      "nasogastric": 4637,
      "rieure": 4638,
      "l4l5": 4639,
      "tilt": 4640,
      "reflective": 4641,
      "gluteal": 4642,
      "cruci": 4643,
      "contusion": 4644,
      "scintigraphy": 4645,
      "appendicitis": 4646,
      "manife": 4647,
      "3cm": 4648,
      "52": 4649,
      "either": 4650,
      "fit": 4651,
      "mc": 4652,
      "mt": 4653,
      "och": 4654,
      "t8": 4655,
      "toge": 4656,
      "tigu": 4657,
      "leu": 4658,
      "division": 4659,
      "seque": 4660,
      "oured": 4661,
      "came": 4662,
      "lysis": 4663,
      "mentary": 4664,
      "dune": 4665,
      "proxim": 4666,
      "ago": 4667,
      "multic": 4668,
      "hypertension": 4669,
      "hyperplasia": 4670,
      "twin": 4671,
      "longus": 4672,
      "nonspecific": 4673,
      "2012": 4674,
      "centrally": 4675,
      "milli": 4676,
      "fibri": 4677,
      "nuclear": 4678,
      "meningeal": 4679,
      "definition": 4680,
      "chlea": 4681,
      "scaphoid": 4682,
      "mouse": 4683,
      "hippocampus": 4684,
      "aortogram": 4685,
      "caecum": 4686,
      "difficult": 4687,
      "hepatocellular": 4688,
      "processus": 4689,
      "atlanto": 4690,
      "obronchial": 4691,
      "simultaneous": 4692,
      "together": 4693,
      "ila": 4694,
      "xa": 4695,
      "rium": 4696,
      "isthesis": 4697,
      "come": 4698,
      "tomoden": 4699,
      "duplication": 4700,
      "upward": 4701,
      "uncinate": 4702,
      "diaphysis": 4703,
      "anel": 4704,
      "midpoint": 4705,
      "cleid": 4706,
      "ductor": 4707,
      "joining": 4708,
      "collecting": 4709,
      "attenuating": 4710,
      "ostosis": 4711,
      "classification": 4712,
      "obturator": 4713,
      "crescent": 4714,
      "sulcus": 4715,
      "antegrade": 4716,
      "complicated": 4717,
      "vsd": 4718,
      "purple": 4719,
      "package": 4720,
      "achieved": 4721,
      "congestion": 4722,
      "probably": 4723,
      "titanium": 4724,
      "proximity": 4725,
      "tomodensitom": 4726,
      "ked": 4727,
      "l45": 4728,
      "mta": 4729,
      "sb": 4730,
      "swi": 4731,
      "innom": 4732,
      "onodular": 4733,
      "sts": 4734,
      "stag": 4735,
      "diab": 4736,
      "sement": 4737,
      "chondro": 4738,
      "aty": 4739,
      "scallo": 4740,
      "radiopacity": 4741,
      "coronoid": 4742,
      "valgus": 4743,
      "faint": 4744,
      "cases": 4745,
      "nonunion": 4746,
      "2010": 4747,
      "2014": 4748,
      "extradural": 4749,
      "rupt": 4750,
      "bulbar": 4751,
      "detector": 4752,
      "emphysematous": 4753,
      "papilla": 4754,
      "clivus": 4755,
      "reticul": 4756,
      "pectoralis": 4757,
      "plug": 4758,
      "onecrosis": 4759,
      "innominate": 4760,
      "bene": 4761,
      "hd": 4762,
      "lsion": 4763,
      "nic": 4764,
      "t7": 4765,
      "retention": 4766,
      "stu": 4767,
      "omedullary": 4768,
      "lac": 4769,
      "chogenic": 4770,
      "atre": 4771,
      "conus": 4772,
      "compa": 4773,
      "uretero": 4774,
      "obstructed": 4775,
      "angiomy": 4776,
      "retin": 4777,
      "eping": 4778,
      "suggested": 4779,
      "appropri": 4780,
      "peripherally": 4781,
      "decid": 4782,
      "leads": 4783,
      "standardi": 4784,
      "flank": 4785,
      "organs": 4786,
      "periodontal": 4787,
      "coarctation": 4788,
      "costophrenic": 4789,
      "spiculated": 4790,
      "optimal": 4791,
      "myxoma": 4792,
      "olipoma": 4793,
      "dextrocardia": 4794,
      "delivery": 4795,
      "appropriate": 4796,
      "5th": 4797,
      "cop": 4798,
      "exi": 4799,
      "lary": 4800,
      "oe": 4801,
      "zy": 4802,
      "enteric": 4803,
      "seed": 4804,
      "phied": 4805,
      "rod": 4806,
      "cast": 4807,
      "radiogram": 4808,
      "operic": 4809,
      "undi": 4810,
      "mediolateral": 4811,
      "key": 4812,
      "sclero": 4813,
      "orbits": 4814,
      "gallstone": 4815,
      "emboli": 4816,
      "50yearold": 4817,
      "nasopharynx": 4818,
      "boundaries": 4819,
      "clips": 4820,
      "pyelogram": 4821,
      "bridging": 4822,
      "interpreted": 4823,
      "bundle": 4824,
      "lordosis": 4825,
      "steady": 4826,
      "distraction": 4827,
      "remarkable": 4828,
      "encapsulated": 4829,
      "mimicking": 4830,
      "created": 4831,
      "even": 4832,
      "gent": 4833,
      "houn": 4834,
      "oses": 4835,
      "soc": 4836,
      "sfield": 4837,
      "ules": 4838,
      "woul": 4839,
      "teus": 4840,
      "cts": 4841,
      "isch": 4842,
      "ischial": 4843,
      "melan": 4844,
      "cave": 4845,
      "abrupt": 4846,
      "corner": 4847,
      "prop": 4848,
      "estima": 4849,
      "retur": 4850,
      "recto": 4851,
      "axilla": 4852,
      "integra": 4853,
      "moderately": 4854,
      "tubes": 4855,
      "fusiform": 4856,
      "fixator": 4857,
      "current": 4858,
      "referred": 4859,
      "pubis": 4860,
      "flche": 4861,
      "magnum": 4862,
      "cholecys": 4863,
      "subsequently": 4864,
      "supplying": 4865,
      "against": 4866,
      "differentiated": 4867,
      "ischemia": 4868,
      "teratoma": 4869,
      "casing": 4870,
      "parietooccipital": 4871,
      "important": 4872,
      "vasculature": 4873,
      "cruciate": 4874,
      "atypical": 4875,
      "standardized": 4876,
      "hounsfield": 4877,
      "would": 4878,
      "event": 4879,
      "fc": 4880,
      "pron": 4881,
      "put": 4882,
      "tar": 4883,
      "ysis": 4884,
      "artic": 4885,
      "encasing": 4886,
      "replaced": 4887,
      "edges": 4888,
      "ctable": 4889,
      "adc": 4890,
      "compla": 4891,
      "vir": 4892,
      "check": 4893,
      "accid": 4894,
      "extr": 4895,
      "gia": 4896,
      "t10": 4897,
      "pigment": 4898,
      "prone": 4899,
      "locations": 4900,
      "150": 4901,
      "hook": 4902,
      "developing": 4903,
      "hemispheric": 4904,
      "limbs": 4905,
      "background": 4906,
      "functional": 4907,
      "usepackage": 4908,
      "hemothorax": 4909,
      "acromi": 4910,
      "hippocampal": 4911,
      "sternocleid": 4912,
      "inverted": 4913,
      "ridge": 4914,
      "tangent": 4915,
      "cystourethrogram": 4916,
      "little": 4917,
      "53yearold": 4918,
      "avascular": 4919,
      "away": 4920,
      "cca": 4921,
      "nc": 4922,
      "ror": 4923,
      "alte": 4924,
      "remode": 4925,
      "rity": 4926,
      "erv": 4927,
      "lacri": 4928,
      "chang": 4929,
      "track": 4930,
      "atosis": 4931,
      "concer": 4932,
      "meal": 4933,
      "categ": 4934,
      "locking": 4935,
      "file": 4936,
      "brale": 4937,
      "object": 4938,
      "subcarinal": 4939,
      "plastic": 4940,
      "keeping": 4941,
      "2015": 4942,
      "minim": 4943,
      "diameters": 4944,
      "abnormally": 4945,
      "occlusive": 4946,
      "earlier": 4947,
      "hyperechogenic": 4948,
      "situated": 4949,
      "annular": 4950,
      "hypertrophic": 4951,
      "migrated": 4952,
      "septated": 4953,
      "globus": 4954,
      "pink": 4955,
      "incidence": 4956,
      "calcaneal": 4957,
      "spiral": 4958,
      "volumes": 4959,
      "frontoparietal": 4960,
      "ofib": 4961,
      "valvular": 4962,
      "sylvian": 4963,
      "amplatzer": 4964,
      "restricted": 4965,
      "confined": 4966,
      "tomodensitomtri": 4967,
      "diabe": 4968,
      "sternocleidomastoid": 4969,
      "lacrimal": 4970,
      "changed": 4971,
      "ires": 4972,
      "mmode": 4973,
      "othoracic": 4974,
      "rhe": 4975,
      "vocal": 4976,
      "wards": 4977,
      "resh": 4978,
      "latra": 4979,
      "lamine": 4980,
      "defic": 4981,
      "wel": 4982,
      "excre": 4983,
      "upright": 4984,
      "abdominale": 4985,
      "fove": 4986,
      "roure": 4987,
      "medius": 4988,
      "since": 4989,
      "preoperatively": 4990,
      "endoc": 4991,
      "osteonecrosis": 4992,
      "triangular": 4993,
      "esophagogram": 4994,
      "elements": 4995,
      "ileo": 4996,
      "tracts": 4997,
      "corresponds": 4998,
      "impaction": 4999,
      "classified": 5000,
      "55yearold": 5001,
      "reverse": 5002,
      "coarse": 5003,
      "sarcoid": 5004,
      "appreciated": 5005,
      "young": 5006,
      "reticulonodular": 5007,
      "beneath": 5008,
      "melanoma": 5009,
      "32yearold": 5010,
      "61": 5011,
      "lli": 5012,
      "reformation": 5013,
      "station": 5014,
      "ord": 5015,
      "erod": 5016,
      "ollen": 5017,
      "lun": 5018,
      "scann": 5019,
      "gist": 5020,
      "projecting": 5021,
      "transhe": 5022,
      "ckle": 5023,
      "diaphyseal": 5024,
      "testicle": 5025,
      "amous": 5026,
      "parathyroid": 5027,
      "better": 5028,
      "ilium": 5029,
      "calcium": 5030,
      "satis": 5031,
      "supple": 5032,
      "thrombol": 5033,
      "reasing": 5034,
      "texture": 5035,
      "infrarenal": 5036,
      "ethmoidal": 5037,
      "hemoperitoneum": 5038,
      "opathic": 5039,
      "remains": 5040,
      "resected": 5041,
      "swollen": 5042,
      "human": 5043,
      "whereas": 5044,
      "palpable": 5045,
      "alteration": 5046,
      "ervical": 5047,
      "transhepatic": 5048,
      "78": 5049,
      "cog": 5050,
      "glob": 5051,
      "pc": 5052,
      "sd": 5053,
      "insic": 5054,
      "rema": 5055,
      "phos": 5056,
      "ghter": 5057,
      "pes": 5058,
      "scout": 5059,
      "itant": 5060,
      "oclavicular": 5061,
      "opposite": 5062,
      "yelo": 5063,
      "intersection": 5064,
      "intracardiac": 5065,
      "cmr": 5066,
      "transaxial": 5067,
      "transoesophageal": 5068,
      "ultrasoundguided": 5069,
      "micron": 5070,
      "ductus": 5071,
      "proximally": 5072,
      "metaphyseal": 5073,
      "vascularization": 5074,
      "shortening": 5075,
      "thinwalled": 5076,
      "donor": 5077,
      "epigastric": 5078,
      "erosions": 5079,
      "work": 5080,
      "denotes": 5081,
      "usual": 5082,
      "plantar": 5083,
      "endocardial": 5084,
      "tympanic": 5085,
      "schwannoma": 5086,
      "apo": 5087,
      "acement": 5088,
      "ava": 5089,
      "ement": 5090,
      "lon": 5091,
      "instability": 5092,
      "comminu": 5093,
      "itor": 5094,
      "ssfp": 5095,
      "lod": 5096,
      "beak": 5097,
      "lucent": 5098,
      "ureteric": 5099,
      "inear": 5100,
      "opal": 5101,
      "arean": 5102,
      "pressed": 5103,
      "pulse": 5104,
      "inib": 5105,
      "damage": 5106,
      "cannot": 5107,
      "lene": 5108,
      "lymphatic": 5109,
      "aneurysms": 5110,
      "foraminal": 5111,
      "inflamed": 5112,
      "archite": 5113,
      "25yearold": 5114,
      "radiotracer": 5115,
      "c5c6": 5116,
      "produit": 5117,
      "grossly": 5118,
      "gluteus": 5119,
      "intimal": 5120,
      "squamous": 5121,
      "exhibit": 5122,
      "idiopathic": 5123,
      "received": 5124,
      "pocket": 5125,
      "tentorial": 5126,
      "anesthetic": 5127,
      "femoris": 5128,
      "intubation": 5129,
      "atresia": 5130,
      "extrinsic": 5131,
      "09": 5132,
      "120": 5133,
      "4cm": 5134,
      "6cm": 5135,
      "dru": 5136,
      "fd": 5137,
      "lm": 5138,
      "mg": 5139,
      "pti": 5140,
      "pda": 5141,
      "sper": 5142,
      "uno": 5143,
      "zing": 5144,
      "inated": 5145,
      "rab": 5146,
      "onto": 5147,
      "them": 5148,
      "omic": 5149,
      "gel": 5150,
      "asd": 5151,
      "look": 5152,
      "ilinear": 5153,
      "excell": 5154,
      "yema": 5155,
      "subretinal": 5156,
      "ventila": 5157,
      "what": 5158,
      "ardium": 5159,
      "extensor": 5160,
      "hypoechogenic": 5161,
      "tures": 5162,
      "dau": 5163,
      "bowing": 5164,
      "viding": 5165,
      "displays": 5166,
      "sizes": 5167,
      "embolized": 5168,
      "univer": 5169,
      "contains": 5170,
      "avm": 5171,
      "tonsil": 5172,
      "split": 5173,
      "turbul": 5174,
      "thalami": 5175,
      "electron": 5176,
      "variable": 5177,
      "endometri": 5178,
      "empyema": 5179,
      "trabeculation": 5180,
      "differentiation": 5181,
      "incidentally": 5182,
      "effacement": 5183,
      "pterygoid": 5184,
      "manually": 5185,
      "discontinuity": 5186,
      "oparie": 5187,
      "determination": 5188,
      "hydroure": 5189,
      "18ffluorodeoxyglucose": 5190,
      "artefact": 5191,
      "sarcoidosis": 5192,
      "phosph": 5193,
      "excellent": 5194,
      "22yearold": 5195,
      "56yearold": 5196,
      "62yearold": 5197,
      "fted": 5198,
      "htr": 5199,
      "laryngeal": 5200,
      "rine": 5201,
      "rating": 5202,
      "ana": 5203,
      "requi": 5204,
      "lei": 5205,
      "lev": 5206,
      "ription": 5207,
      "omen": 5208,
      "seem": 5209,
      "atum": 5210,
      "contigu": 5211,
      "adher": 5212,
      "comprom": 5213,
      "hepati": 5214,
      "lie": 5215,
      "fies": 5216,
      "sisted": 5217,
      "presacral": 5218,
      "ampul": 5219,
      "intradural": 5220,
      "sagittale": 5221,
      "cavit": 5222,
      "cros": 5223,
      "echoes": 5224,
      "extraaxial": 5225,
      "15yearold": 5226,
      "marginated": 5227,
      "consolidations": 5228,
      "ologically": 5229,
      "arthrodesis": 5230,
      "polyp": 5231,
      "successfully": 5232,
      "crbrale": 5233,
      "curvilinear": 5234,
      "voiding": 5235,
      "haziness": 5236,
      "heterotopic": 5237,
      "fovea": 5238,
      "59": 5239,
      "jv": 5240,
      "llo": 5241,
      "otomy": 5242,
      "t9": 5243,
      "wound": 5244,
      "induced": 5245,
      "sero": 5246,
      "attem": 5247,
      "duction": 5248,
      "tated": 5249,
      "lim": 5250,
      "moy": 5251,
      "calf": 5252,
      "calcin": 5253,
      "intraarticular": 5254,
      "mities": 5255,
      "foley": 5256,
      "highgrade": 5257,
      "positions": 5258,
      "thylene": 5259,
      "stim": 5260,
      "penile": 5261,
      "fibroid": 5262,
      "blush": 5263,
      "14yearold": 5264,
      "300": 5265,
      "thrombosed": 5266,
      "coiling": 5267,
      "distributed": 5268,
      "asymmetry": 5269,
      "facing": 5270,
      "perineal": 5271,
      "46yearold": 5272,
      "acromion": 5273,
      "scrotum": 5274,
      "vestibular": 5275,
      "occurred": 5276,
      "stream": 5277,
      "deltoid": 5278,
      "printed": 5279,
      "turbinate": 5280,
      "impingement": 5281,
      "multicystic": 5282,
      "proptosis": 5283,
      "acromioclavicular": 5284,
      "remained": 5285,
      "48yearold": 5286,
      "bits": 5287,
      "gone": 5288,
      "hs": 5289,
      "miliary": 5290,
      "rm": 5291,
      "rography": 5292,
      "slo": 5293,
      "vary": 5294,
      "inous": 5295,
      "antic": 5296,
      "sto": 5297,
      "edu": 5298,
      "room": 5299,
      "toe": 5300,
      "begin": 5301,
      "experi": 5302,
      "extru": 5303,
      "given": 5304,
      "masslike": 5305,
      "bir": 5306,
      "called": 5307,
      "jeju": 5308,
      "izing": 5309,
      "ket": 5310,
      "highdensity": 5311,
      "pian": 5312,
      "oriented": 5313,
      "diagonal": 5314,
      "endoleak": 5315,
      "screen": 5316,
      "surfaces": 5317,
      "suprarenal": 5318,
      "tendons": 5319,
      "prominence": 5320,
      "appendiceal": 5321,
      "hospitalization": 5322,
      "hypertrophied": 5323,
      "horse": 5324,
      "square": 5325,
      "pyelography": 5326,
      "folds": 5327,
      "cobb": 5328,
      "temporoparie": 5329,
      "fallopian": 5330,
      "fibrilla": 5331,
      "deciduous": 5332,
      "accident": 5333,
      "laminectomy": 5334,
      "lunate": 5335,
      "availa": 5336,
      "hydroureter": 5337,
      "htrogne": 5338,
      "jejuno": 5339,
      "28yearold": 5340,
      "59yearold": 5341,
      "57yearold": 5342,
      "74": 5343,
      "a1": 5344,
      "cne": 5345,
      "ffe": 5346,
      "gru": 5347,
      "gam": 5348,
      "ohumeral": 5349,
      "rog": 5350,
      "anom": 5351,
      "retraction": 5352,
      "reactive": 5353,
      "traject": 5354,
      "olus": 5355,
      "isodense": 5356,
      "conal": 5357,
      "teria": 5358,
      "domain": 5359,
      "bifid": 5360,
      "until": 5361,
      "preop": 5362,
      "interphalangeal": 5363,
      "interrupted": 5364,
      "distant": 5365,
      "gated": 5366,
      "cica": 5367,
      "osteopen": 5368,
      "alysis": 5369,
      "wash": 5370,
      "muscula": 5371,
      "cough": 5372,
      "olife": 5373,
      "gastroduodenal": 5374,
      "fdgpet": 5375,
      "perforated": 5376,
      "gyrus": 5377,
      "metabol": 5378,
      "penetration": 5379,
      "equal": 5380,
      "caecal": 5381,
      "magnified": 5382,
      "hollow": 5383,
      "ctivant": 5384,
      "cluster": 5385,
      "pallidus": 5386,
      "contiguous": 5387,
      "available": 5388,
      "anomaly": 5389,
      "ess": 5390,
      "easi": 5391,
      "gtv": 5392,
      "kine": 5393,
      "nature": 5394,
      "pg": 5395,
      "tha": 5396,
      "arc": 5397,
      "stral": 5398,
      "divided": 5399,
      "lat": 5400,
      "entra": 5401,
      "ctv": 5402,
      "tracing": 5403,
      "sci": 5404,
      "fective": 5405,
      "contrasted": 5406,
      "movie": 5407,
      "brachy": 5408,
      "cycle": 5409,
      "saphen": 5410,
      "appearances": 5411,
      "patch": 5412,
      "pyra": 5413,
      "hae": 5414,
      "branous": 5415,
      "arthrosis": 5416,
      "distances": 5417,
      "grafting": 5418,
      "computerised": 5419,
      "urethrogram": 5420,
      "chiasm": 5421,
      "evaluated": 5422,
      "variant": 5423,
      "vegetations": 5424,
      "critical": 5425,
      "squence": 5426,
      "overlapping": 5427,
      "usually": 5428,
      "osteosyn": 5429,
      "objectivant": 5430,
      "satisfactory": 5431,
      "thrombolysis": 5432,
      "1year": 5433,
      "38yearold": 5434,
      "44yearold": 5435,
      "5cm": 5436,
      "aqu": 5437,
      "cure": 5438,
      "hl": 5439,
      "io": 5440,
      "lpa": 5441,
      "rpe": 5442,
      "t6": 5443,
      "thm": 5444,
      "insuffici": 5445,
      "directed": 5446,
      "geminal": 5447,
      "roscopy": 5448,
      "pacing": 5449,
      "sures": 5450,
      "tocol": 5451,
      "commis": 5452,
      "vienne": 5453,
      "ocolic": 5454,
      "subacute": 5455,
      "plaques": 5456,
      "blastoma": 5457,
      "ulating": 5458,
      "thickwalled": 5459,
      "dots": 5460,
      "incl": 5461,
      "serous": 5462,
      "scleral": 5463,
      "representation": 5464,
      "blun": 5465,
      "orthopantomography": 5466,
      "detection": 5467,
      "differential": 5468,
      "correspond": 5469,
      "atrophic": 5470,
      "paroi": 5471,
      "caliper": 5472,
      "acromial": 5473,
      "bridge": 5474,
      "histopathology": 5475,
      "ofluorescence": 5476,
      "introduced": 5477,
      "quadriceps": 5478,
      "except": 5479,
      "sphincter": 5480,
      "radiologist": 5481,
      "cirrhosis": 5482,
      "calcinosis": 5483,
      "temporoparietal": 5484,
      "1cm": 5485,
      "57": 5486,
      "fb": 5487,
      "ld": 5488,
      "pine": 5489,
      "ptor": 5490,
      "sans": 5491,
      "touch": 5492,
      "enced": 5493,
      "reprinted": 5494,
      "pool": 5495,
      "poten": 5496,
      "neo": 5497,
      "neon": 5498,
      "bezo": 5499,
      "web": 5500,
      "vermis": 5501,
      "viewed": 5502,
      "units": 5503,
      "mius": 5504,
      "multidetector": 5505,
      "infundi": 5506,
      "foveal": 5507,
      "failed": 5508,
      "vasogenic": 5509,
      "pix": 5510,
      "centi": 5511,
      "valves": 5512,
      "initially": 5513,
      "contoured": 5514,
      "windows": 5515,
      "projections": 5516,
      "osteochond": 5517,
      "causes": 5518,
      "microcatheter": 5519,
      "intestinalis": 5520,
      "turcica": 5521,
      "characteristics": 5522,
      "c3c4": 5523,
      "smv": 5524,
      "c1c2": 5525,
      "conebeam": 5526,
      "passed": 5527,
      "athero": 5528,
      "staging": 5529,
      "minimum": 5530,
      "cnemius": 5531,
      "47yearold": 5532,
      "63": 5533,
      "67yearold": 5534,
      "cod": 5535,
      "font": 5536,
      "lis": 5537,
      "n1": 5538,
      "pra": 5539,
      "xpand": 5540,
      "ofac": 5541,
      "stap": 5542,
      "sem": 5543,
      "dered": 5544,
      "deposit": 5545,
      "assi": 5546,
      "rosthe": 5547,
      "lot": 5548,
      "lith": 5549,
      "life": 5550,
      "exer": 5551,
      "expo": 5552,
      "projected": 5553,
      "predomin": 5554,
      "obiliary": 5555,
      "forms": 5556,
      "iety": 5557,
      "figures": 5558,
      "nipple": 5559,
      "cuts": 5560,
      "extracted": 5561,
      "embolus": 5562,
      "drains": 5563,
      "19yearold": 5564,
      "ossified": 5565,
      "horns": 5566,
      "transplanted": 5567,
      "glenohumeral": 5568,
      "extreme": 5569,
      "mitted": 5570,
      "spots": 5571,
      "sulci": 5572,
      "glottis": 5573,
      "adnexa": 5574,
      "osteophyte": 5575,
      "osteophytes": 5576,
      "choledochal": 5577,
      "limiting": 5578,
      "particularly": 5579,
      "ankylosis": 5580,
      "existing": 5581,
      "virtu": 5582,
      "daughter": 5583,
      "leiomy": 5584,
      "varying": 5585,
      "musculature": 5586,
      "saphenous": 5587,
      "potential": 5588,
      "bezoar": 5589,
      "ofacial": 5590,
      "08": 5591,
      "54yearold": 5592,
      "72": 5593,
      "aca": 5594,
      "bare": 5595,
      "ily": 5596,
      "panel": 5597,
      "twi": 5598,
      "inlet": 5599,
      "rare": 5600,
      "rand": 5601,
      "teen": 5602,
      "alg": 5603,
      "tight": 5604,
      "enal": 5605,
      "reci": 5606,
      "leptom": 5607,
      "dialysis": 5608,
      "seal": 5609,
      "seminal": 5610,
      "ice": 5611,
      "dehis": 5612,
      "sube": 5613,
      "neovascular": 5614,
      "duplex": 5615,
      "tau": 5616,
      "acry": 5617,
      "spon": 5618,
      "opll": 5619,
      "perihepatic": 5620,
      "periprosthetic": 5621,
      "odont": 5622,
      "placing": 5623,
      "cm2": 5624,
      "cochlea": 5625,
      "hypersignal": 5626,
      "hyperdensity": 5627,
      "porta": 5628,
      "ize": 5629,
      "twor": 5630,
      "osteopor": 5631,
      "regene": 5632,
      "catheters": 5633,
      "indentation": 5634,
      "mostly": 5635,
      "pneumocephalus": 5636,
      "shell": 5637,
      "gastrocnemius": 5638,
      "illustrated": 5639,
      "newly": 5640,
      "classical": 5641,
      "repeated": 5642,
      "obtuse": 5643,
      "varus": 5644,
      "75yearold": 5645,
      "determine": 5646,
      "stabilization": 5647,
      "allows": 5648,
      "stroke": 5649,
      "dissecting": 5650,
      "covering": 5651,
      "estimated": 5652,
      "category": 5653,
      "required": 5654,
      "adherent": 5655,
      "osteosynthesis": 5656,
      "odontogenic": 5657,
      "osteoporosis": 5658,
      "34yearold": 5659,
      "49yearold": 5660,
      "ased": 5661,
      "cric": 5662,
      "cune": 5663,
      "eb": 5664,
      "fas": 5665,
      "hg": 5666,
      "ired": 5667,
      "lled": 5668,
      "yer": 5669,
      "altered": 5670,
      "recanal": 5671,
      "chori": 5672,
      "ulo": 5673,
      "ulcer": 5674,
      "asper": 5675,
      "networ": 5676,
      "iting": 5677,
      "opne": 5678,
      "demonstration": 5679,
      "perilesional": 5680,
      "transi": 5681,
      "distress": 5682,
      "intensive": 5683,
      "tubal": 5684,
      "endodontic": 5685,
      "endobronchial": 5686,
      "crosses": 5687,
      "pylor": 5688,
      "compressive": 5689,
      "bronchovascular": 5690,
      "penis": 5691,
      "radiolucencies": 5692,
      "calculation": 5693,
      "resulted": 5694,
      "cession": 5695,
      "expansive": 5696,
      "tubercle": 5697,
      "mbling": 5698,
      "distention": 5699,
      "2007": 5700,
      "ballooning": 5701,
      "sixth": 5702,
      "continued": 5703,
      "techne": 5704,
      "premolars": 5705,
      "enteroc": 5706,
      "cannulation": 5707,
      "resembling": 5708,
      "cisterns": 5709,
      "receptor": 5710,
      "aortography": 5711,
      "crystal": 5712,
      "tampon": 5713,
      "osteosarcoma": 5714,
      "wedgeshaped": 5715,
      "spacer": 5716,
      "structural": 5717,
      "ratoire": 5718,
      "silicone": 5719,
      "opericardium": 5720,
      "scannographique": 5721,
      "university": 5722,
      "osteopenia": 5723,
      "easily": 5724,
      "exposure": 5725,
      "53": 5726,
      "63yearold": 5727,
      "bc": 5728,
      "blines": 5729,
      "d1": 5730,
      "dans": 5731,
      "kg": 5732,
      "mpa": 5733,
      "msec": 5734,
      "pren": 5735,
      "sle": 5736,
      "indistinct": 5737,
      "tices": 5738,
      "rein": 5739,
      "rig": 5740,
      "ried": 5741,
      "ulceration": 5742,
      "arrowed": 5743,
      "concha": 5744,
      "itus": 5745,
      "adap": 5746,
      "tomas": 5747,
      "dun": 5748,
      "accu": 5749,
      "fish": 5750,
      "force": 5751,
      "perirectal": 5752,
      "osin": 5753,
      "coronale": 5754,
      "plus": 5755,
      "infero": 5756,
      "stasis": 5757,
      "orithm": 5758,
      "suppor": 5759,
      "thrombi": 5760,
      "mortem": 5761,
      "aspects": 5762,
      "sensi": 5763,
      "association": 5764,
      "aux": 5765,
      "united": 5766,
      "torsion": 5767,
      "199": 5768,
      "producing": 5769,
      "drawing": 5770,
      "nasopharyngeal": 5771,
      "bands": 5772,
      "downward": 5773,
      "encephalopathy": 5774,
      "umbilic": 5775,
      "passes": 5776,
      "exhibits": 5777,
      "iodine": 5778,
      "voxel": 5779,
      "ectasia": 5780,
      "rectosigmoid": 5781,
      "defici": 5782,
      "global": 5783,
      "opalatine": 5784,
      "educt": 5785,
      "algorithm": 5786,
      "leptomening": 5787,
      "asperg": 5788,
      "pylorus": 5789,
      "41yearold": 5790,
      "69": 5791,
      "6month": 5792,
      "68yearold": 5793,
      "72yearold": 5794,
      "avi": 5795,
      "fn": 5796,
      "nis": 5797,
      "vt": 5798,
      "institu": 5799,
      "ala": 5800,
      "arri": 5801,
      "reo": 5802,
      "oropharynx": 5803,
      "ering": 5804,
      "phys": 5805,
      "istered": 5806,
      "umed": 5807,
      "percent": 5808,
      "ines": 5809,
      "acia": 5810,
      "cial": 5811,
      "postsurgical": 5812,
      "subtrochanteric": 5813,
      "osarcoma": 5814,
      "interbody": 5815,
      "intraparenchymal": 5816,
      "intraocular": 5817,
      "distingu": 5818,
      "embed": 5819,
      "disorder": 5820,
      "pneumopericardium": 5821,
      "triple": 5822,
      "splenium": 5823,
      "embolisation": 5824,
      "dorso": 5825,
      "ureters": 5826,
      "16yearold": 5827,
      "avoid": 5828,
      "characterized": 5829,
      "ocytoma": 5830,
      "diverticula": 5831,
      "anastomotic": 5832,
      "activation": 5833,
      "arteriosus": 5834,
      "tility": 5835,
      "convexity": 5836,
      "olithiasis": 5837,
      "oblastoma": 5838,
      "traversing": 5839,
      "inclination": 5840,
      "64yearold": 5841,
      "69yearold": 5842,
      "evol": 5843,
      "frequency": 5844,
      "gr": 5845,
      "htt": 5846,
      "lp": 5847,
      "nus": 5848,
      "ote": 5849,
      "s2": 5850,
      "recog": 5851,
      "ril": 5852,
      "string": 5853,
      "dibular": 5854,
      "laser": 5855,
      "meatus": 5856,
      "loose": 5857,
      "bell": 5858,
      "malle": 5859,
      "lished": 5860,
      "provided": 5861,
      "protocol": 5862,
      "posteromedial": 5863,
      "precontrast": 5864,
      "precession": 5865,
      "subst": 5866,
      "lling": 5867,
      "opac": 5868,
      "tissulaire": 5869,
      "cystography": 5870,
      "piriform": 5871,
      "osteoma": 5872,
      "supplied": 5873,
      "cutoff": 5874,
      "vascularized": 5875,
      "12yearold": 5876,
      "prolife": 5877,
      "augment": 5878,
      "dysp": 5879,
      "capillary": 5880,
      "orthopantam": 5881,
      "generated": 5882,
      "identification": 5883,
      "identify": 5884,
      "cessive": 5885,
      "cesarean": 5886,
      "membranous": 5887,
      "mapping": 5888,
      "glue": 5889,
      "orescent": 5890,
      "preservation": 5891,
      "flattening": 5892,
      "honeycombing": 5893,
      "exhibiting": 5894,
      "distingui": 5895,
      "62": 5896,
      "brow": 5897,
      "ejection": 5898,
      "gs": 5899,
      "hcc": 5900,
      "larynx": 5901,
      "sand": 5902,
      "uri": 5903,
      "vp": 5904,
      "rather": 5905,
      "anteri": 5906,
      "stus": 5907,
      "situs": 5908,
      "macula": 5909,
      "shock": 5910,
      "labral": 5911,
      "veri": 5912,
      "uly": 5913,
      "cep": 5914,
      "olisthesis": 5915,
      "asses": 5916,
      "comet": 5917,
      "nea": 5918,
      "cortices": 5919,
      "chez": 5920,
      "live": 5921,
      "posttraumatic": 5922,
      "obsc": 5923,
      "submucosa": 5924,
      "substance": 5925,
      "heada": 5926,
      "carm": 5927,
      "amy": 5928,
      "ostial": 5929,
      "dering": 5930,
      "bleed": 5931,
      "cosis": 5932,
      "pient": 5933,
      "support": 5934,
      "trte": 5935,
      "trus": 5936,
      "diagram": 5937,
      "episo": 5938,
      "discs": 5939,
      "break": 5940,
      "endoscopy": 5941,
      "endoscope": 5942,
      "coun": 5943,
      "include": 5944,
      "fungal": 5945,
      "wholebody": 5946,
      "pushing": 5947,
      "laminar": 5948,
      "thelial": 5949,
      "obliterated": 5950,
      "electrodes": 5951,
      "70yearold": 5952,
      "intima": 5953,
      "placental": 5954,
      "complications": 5955,
      "spondylo": 5956,
      "epithelial": 5957,
      "schematic": 5958,
      "tmj": 5959,
      "eroding": 5960,
      "aqueduct": 5961,
      "fascic": 5962,
      "umbilicus": 5963,
      "7th": 5964,
      "cence": 5965,
      "fna": 5966,
      "gun": 5967,
      "ious": 5968,
      "lc": 5969,
      "lmca": 5970,
      "myelo": 5971,
      "psa": 5972,
      "pns": 5973,
      "t5": 5974,
      "thening": 5975,
      "timi": 5976,
      "segmented": 5977,
      "shoe": 5978,
      "umo": 5979,
      "comes": 5980,
      "loric": 5981,
      "loading": 5982,
      "nove": 5983,
      "radical": 5984,
      "lipos": 5985,
      "lipse": 5986,
      "spar": 5987,
      "apla": 5988,
      "mosa": 5989,
      "agg": 5990,
      "postem": 5991,
      "operated": 5992,
      "unerupted": 5993,
      "odg": 5994,
      "ober": 5995,
      "much": 5996,
      "fav": 5997,
      "ilio": 5998,
      "stain": 5999,
      "figs": 6000,
      "class": 6001,
      "pyloric": 6002,
      "mina": 6003,
      "125": 6004,
      "disclo": 6005,
      "irregularly": 6006,
      "undergoing": 6007,
      "orthodontic": 6008,
      "ways": 6009,
      "suprapatellar": 6010,
      "cauda": 6011,
      "microcalcifications": 6012,
      "condyles": 6013,
      "infiltrations": 6014,
      "cug": 6015,
      "17yearold": 6016,
      "turbo": 6017,
      "c56": 6018,
      "infratemporal": 6019,
      "vesicou": 6020,
      "tuberculous": 6021,
      "treein": 6022,
      "exclusion": 6023,
      "corporeal": 6024,
      "adhesion": 6025,
      "instrumentation": 6026,
      "kystique": 6027,
      "invagination": 6028,
      "comminuted": 6029,
      "jejunostomy": 6030,
      "trajectory": 6031,
      "random": 6032,
      "tamponade": 6033,
      "embedded": 6034,
      "mosaic": 6035,
      "postembol": 6036,
      "6th": 6037,
      "61yearold": 6038,
      "cil": 6039,
      "c45": 6040,
      "han": 6041,
      "ib": 6042,
      "ig": 6043,
      "pci": 6044,
      "rf": 6045,
      "rcc": 6046,
      "thor": 6047,
      "thresh": 6048,
      "often": 6049,
      "stret": 6050,
      "andor": 6051,
      "ctguided": 6052,
      "dee": 6053,
      "imaged": 6054,
      "abil": 6055,
      "xide": 6056,
      "urine": 6057,
      "proved": 6058,
      "apices": 6059,
      "april": 6060,
      "unchanged": 6061,
      "subdiaphragmatic": 6062,
      "coiled": 6063,
      "march": 6064,
      "intensi": 6065,
      "infer": 6066,
      "utaneous": 6067,
      "volun": 6068,
      "pie": 6069,
      "septic": 6070,
      "intensely": 6071,
      "omyopathy": 6072,
      "trigeminal": 6073,
      "cardiomyopathy": 6074,
      "ivus": 6075,
      "blur": 6076,
      "jux": 6077,
      "augu": 6078,
      "18yearold": 6079,
      "sons": 6080,
      "arises": 6081,
      "lengthening": 6082,
      "coursing": 6083,
      "oxy": 6084,
      "minimally": 6085,
      "ipant": 6086,
      "bursitis": 6087,
      "aligned": 6088,
      "invaded": 6089,
      "pointed": 6090,
      "neurofib": 6091,
      "slit": 6092,
      "pedunculated": 6093,
      "micrograph": 6094,
      "participant": 6095,
      "coccygeal": 6096,
      "atlantoaxial": 6097,
      "turbulent": 6098,
      "levator": 6099,
      "crossed": 6100,
      "pineal": 6101,
      "network": 6102,
      "threshold": 6103,
      "ela": 6104,
      "fam": 6105,
      "hold": 6106,
      "ius": 6107,
      "ijv": 6108,
      "lima": 6109,
      "natal": 6110,
      "oposterior": 6111,
      "rfa": 6112,
      "slu": 6113,
      "usc": 6114,
      "wo": 6115,
      "tele": 6116,
      "array": 6117,
      "recor": 6118,
      "tions": 6119,
      "chs": 6120,
      "char": 6121,
      "ulmon": 6122,
      "page": 6123,
      "conser": 6124,
      "constri": 6125,
      "nose": 6126,
      "persis": 6127,
      "romatosis": 6128,
      "oneyear": 6129,
      "hyal": 6130,
      "transit": 6131,
      "subtracted": 6132,
      "carbon": 6133,
      "intravascular": 6134,
      "transgastric": 6135,
      "transfer": 6136,
      "coxa": 6137,
      "muco": 6138,
      "pulmonaire": 6139,
      "safe": 6140,
      "septem": 6141,
      "echotexture": 6142,
      "periton": 6143,
      "hau": 6144,
      "vastus": 6145,
      "ivs": 6146,
      "palmar": 6147,
      "trochlear": 6148,
      "visualised": 6149,
      "cerebello": 6150,
      "histology": 6151,
      "arthroscopic": 6152,
      "various": 6153,
      "27yearold": 6154,
      "naso": 6155,
      "combination": 6156,
      "septae": 6157,
      "criteria": 6158,
      "masseter": 6159,
      "cortico": 6160,
      "65yearold": 6161,
      "pneumati": 6162,
      "spondyl": 6163,
      "voluminous": 6164,
      "running": 6165,
      "sternoclavicular": 6166,
      "actual": 6167,
      "self": 6168,
      "tangential": 6169,
      "channels": 6170,
      "protein": 6171,
      "animal": 6172,
      "angiomyolipoma": 6173,
      "return": 6174,
      "endocrine": 6175,
      "lodged": 6176,
      "birth": 6177,
      "august": 6178,
      "3mm": 6179,
      "42yearold": 6180,
      "51yearold": 6181,
      "a2": 6182,
      "bold": 6183,
      "creat": 6184,
      "ith": 6185,
      "iform": 6186,
      "july": 6187,
      "ki": 6188,
      "slow": 6189,
      "tas": 6190,
      "stom": 6191,
      "stant": 6192,
      "lame": 6193,
      "dece": 6194,
      "deux": 6195,
      "defibrilla": 6196,
      "traced": 6197,
      "tox": 6198,
      "congru": 6199,
      "respect": 6200,
      "adductor": 6201,
      "tome": 6202,
      "lowattenuation": 6203,
      "exc": 6204,
      "modu": 6205,
      "agulation": 6206,
      "hyster": 6207,
      "laris": 6208,
      "postprocedure": 6209,
      "lvot": 6210,
      "gate": 6211,
      "follows": 6212,
      "retory": 6213,
      "otro": 6214,
      "10mm": 6215,
      "niotic": 6216,
      "lice": 6217,
      "minated": 6218,
      "cranium": 6219,
      "omandibular": 6220,
      "hemato": 6221,
      "olysis": 6222,
      "originated": 6223,
      "ileus": 6224,
      "capital": 6225,
      "30yearold": 6226,
      "epiphyses": 6227,
      "occupied": 6228,
      "hydropneumothorax": 6229,
      "homogenously": 6230,
      "feature": 6231,
      "21yearold": 6232,
      "functioning": 6233,
      "omalacia": 6234,
      "ovaries": 6235,
      "endometrium": 6236,
      "ecmo": 6237,
      "fascial": 6238,
      "extremities": 6239,
      "additionally": 6240,
      "cannulated": 6241,
      "outlining": 6242,
      "settings": 6243,
      "aortopulmonary": 6244,
      "particles": 6245,
      "prolapse": 6246,
      "conduit": 6247,
      "retrieval": 6248,
      "remodeling": 6249,
      "gamma": 6250,
      "curet": 6251,
      "virtual": 6252,
      "recipient": 6253,
      "dehiscence": 6254,
      "leptomeningeal": 6255,
      "november": 6256,
      "treeinbud": 6257,
      "ulmonary": 6258,
      "september": 6259,
      "cerebellopontine": 6260,
      "ciliary": 6261,
      "far": 6262,
      "fene": 6263,
      "kins": 6264,
      "lca": 6265,
      "m1": 6266,
      "oduodenal": 6267,
      "tide": 6268,
      "retracted": 6269,
      "didy": 6270,
      "dimini": 6271,
      "dividing": 6272,
      "pharynx": 6273,
      "devi": 6274,
      "design": 6275,
      "trace": 6276,
      "cej": 6277,
      "asoct": 6278,
      "ticed": 6279,
      "concent": 6280,
      "iding": 6281,
      "ads": 6282,
      "noise": 6283,
      "virus": 6284,
      "vers": 6285,
      "feet": 6286,
      "hiatus": 6287,
      "expected": 6288,
      "excessive": 6289,
      "contraction": 6290,
      "agit": 6291,
      "cia": 6292,
      "bise": 6293,
      "unclear": 6294,
      "postmortem": 6295,
      "rudi": 6296,
      "aml": 6297,
      "tume": 6298,
      "lvleft": 6299,
      "fluor": 6300,
      "multis": 6301,
      "coord": 6302,
      "dentition": 6303,
      "tub": 6304,
      "increasing": 6305,
      "atria": 6306,
      "ogeneity": 6307,
      "ringenhancing": 6308,
      "cemento": 6309,
      "extracranial": 6310,
      "drained": 6311,
      "olecran": 6312,
      "prs": 6313,
      "ivu": 6314,
      "temporary": 6315,
      "restri": 6316,
      "planned": 6317,
      "esophagram": 6318,
      "epididy": 6319,
      "osteochondral": 6320,
      "cartilaginous": 6321,
      "targeted": 6322,
      "clinic": 6323,
      "onephritis": 6324,
      "pneumonitis": 6325,
      "october": 6326,
      "vesicle": 6327,
      "suspicion": 6328,
      "circumference": 6329,
      "metacarpals": 6330,
      "coverage": 6331,
      "thought": 6332,
      "resolving": 6333,
      "documented": 6334,
      "pockets": 6335,
      "immuno": 6336,
      "polye": 6337,
      "embryo": 6338,
      "bullae": 6339,
      "architecture": 6340,
      "rabbit": 6341,
      "horseshoe": 6342,
      "olecranon": 6343,
      "39yearold": 6344,
      "58yearold": 6345,
      "6mm": 6346,
      "77": 6347,
      "8mm": 6348,
      "az": 6349,
      "bull": 6350,
      "d2": 6351,
      "hodg": 6352,
      "nidus": 6353,
      "sous": 6354,
      "sening": 6355,
      "rami": 6356,
      "anu": 6357,
      "deposition": 6358,
      "deformed": 6359,
      "chographique": 6360,
      "cerated": 6361,
      "cable": 6362,
      "ressed": 6363,
      "noticed": 6364,
      "radicular": 6365,
      "tate": 6366,
      "fexpand": 6367,
      "ocervical": 6368,
      "rican": 6369,
      "bira": 6370,
      "plexi": 6371,
      "lartre": 6372,
      "perisplenic": 6373,
      "subtalar": 6374,
      "pars": 6375,
      "transrectal": 6376,
      "imrt": 6377,
      "paragangli": 6378,
      "seconds": 6379,
      "extraluminal": 6380,
      "extracorporeal": 6381,
      "vative": 6382,
      "auto": 6383,
      "confirmation": 6384,
      "pseudom": 6385,
      "capture": 6386,
      "umab": 6387,
      "ligaments": 6388,
      "step": 6389,
      "36yearold": 6390,
      "26yearold": 6391,
      "gauge": 6392,
      "encephalic": 6393,
      "neuroendocrine": 6394,
      "fullthickness": 6395,
      "fibrin": 6396,
      "swallowing": 6397,
      "ventriculogram": 6398,
      "tc99m": 6399,
      "sliding": 6400,
      "flattened": 6401,
      "gutter": 6402,
      "interpretation": 6403,
      "selfexpand": 6404,
      "strongly": 6405,
      "neutral": 6406,
      "carcinoid": 6407,
      "peroneal": 6408,
      "follicular": 6409,
      "ventilation": 6410,
      "beginning": 6411,
      "blunting": 6412,
      "percentage": 6413,
      "dyspnea": 6414,
      "brown": 6415,
      "aggressive": 6416,
      "vesicoure": 6417,
      "persistence": 6418,
      "06": 6419,
      "33yearold": 6420,
      "43yearold": 6421,
      "51": 6422,
      "5yearold": 6423,
      "83": 6424,
      "84": 6425,
      "89": 6426,
      "8cm": 6427,
      "bin": 6428,
      "bica": 6429,
      "eosin": 6430,
      "fren": 6431,
      "gar": 6432,
      "lining": 6433,
      "oscopic": 6434,
      "pw": 6435,
      "pfo": 6436,
      "twel": 6437,
      "vacu": 6438,
      "inju": 6439,
      "investi": 6440,
      "incorpo": 6441,
      "onasal": 6442,
      "altern": 6443,
      "remission": 6444,
      "sie": 6445,
      "seroma": 6446,
      "chron": 6447,
      "att": 6448,
      "paired": 6449,
      "sustained": 6450,
      "usa": 6451,
      "persi": 6452,
      "feed": 6453,
      "exis": 6454,
      "opulmonary": 6455,
      "prevent": 6456,
      "colli": 6457,
      "thoraces": 6458,
      "intramuscular": 6459,
      "cm3": 6460,
      "ellipse": 6461,
      "hyperinflation": 6462,
      "hyperostosis": 6463,
      "syrin": 6464,
      "paration": 6465,
      "nonhomogeneous": 6466,
      "noncompa": 6467,
      "spaceoccupying": 6468,
      "pectomy": 6469,
      "relapse": 6470,
      "blunt": 6471,
      "contribu": 6472,
      "thirds": 6473,
      "ctatic": 6474,
      "ligamentum": 6475,
      "ounced": 6476,
      "erosive": 6477,
      "2006": 6478,
      "chiari": 6479,
      "tonsi": 6480,
      "24yearold": 6481,
      "membranes": 6482,
      "diverticulitis": 6483,
      "advance": 6484,
      "reflection": 6485,
      "fissures": 6486,
      "l2l3": 6487,
      "fingers": 6488,
      "voids": 6489,
      "groin": 6490,
      "epicondy": 6491,
      "cornea": 6492,
      "inversus": 6493,
      "helical": 6494,
      "hazy": 6495,
      "glome": 6496,
      "steadystate": 6497,
      "pronounced": 6498,
      "concerning": 6499,
      "tomodensitomtrie": 6500,
      "metabolism": 6501,
      "liposarcoma": 6502,
      "diminished": 6503,
      "rudimentary": 6504,
      "injuries": 6505,
      "syrinx": 6506,
      "71": 6507,
      "bt": 6508,
      "eg": 6509,
      "hot": 6510,
      "tunic": 6511,
      "inspi": 6512,
      "reexpansion": 6513,
      "start": 6514,
      "oropharyngeal": 6515,
      "semic": 6516,
      "mask": 6517,
      "laa": 6518,
      "latero": 6519,
      "lady": 6520,
      "icd": 6521,
      "ogy": 6522,
      "chis": 6523,
      "rall": 6524,
      "rotated": 6525,
      "ids": 6526,
      "compen": 6527,
      "bel": 6528,
      "visi": 6529,
      "exact": 6530,
      "bilatra": 6531,
      "periportal": 6532,
      "cks": 6533,
      "osal": 6534,
      "interosseous": 6535,
      "intracerebral": 6536,
      "intraosseous": 6537,
      "weighed": 6538,
      "cyto": 6539,
      "transmural": 6540,
      "boid": 6541,
      "cot": 6542,
      "mmhg": 6543,
      "multilevel": 6544,
      "multilobulated": 6545,
      "doi": 6546,
      "pelvical": 6547,
      "midportion": 6548,
      "volar": 6549,
      "hyperreflective": 6550,
      "highsignal": 6551,
      "thyro": 6552,
      "croh": 6553,
      "cutting": 6554,
      "pneumoc": 6555,
      "prol": 6556,
      "retrosternal": 6557,
      "thinned": 6558,
      "glandular": 6559,
      "drop": 6560,
      "bases": 6561,
      "totally": 6562,
      "asterix": 6563,
      "resistance": 6564,
      "pathway": 6565,
      "overall": 6566,
      "hyperat": 6567,
      "typically": 6568,
      "contrle": 6569,
      "stein": 6570,
      "ovalshaped": 6571,
      "epider": 6572,
      "variation": 6573,
      "closely": 6574,
      "clinically": 6575,
      "hemangi": 6576,
      "profil": 6577,
      "snare": 6578,
      "detached": 6579,
      "equina": 6580,
      "neoplastic": 6581,
      "peduncle": 6582,
      "excluded": 6583,
      "ctivity": 6584,
      "coracoid": 6585,
      "possibility": 6586,
      "studies": 6587,
      "lacun": 6588,
      "hepatis": 6589,
      "haemo": 6590,
      "technetium": 6591,
      "enteroclysis": 6592,
      "defibrillator": 6593,
      "bicaval": 6594,
      "tunica": 6595,
      "hyperattenu": 6596,
      "eu": 6597,
      "hp": 6598,
      "mdia": 6599,
      "nan": 6600,
      "odu": 6601,
      "ositis": 6602,
      "rg": 6603,
      "rout": 6604,
      "s3": 6605,
      "ucial": 6606,
      "tethe": 6607,
      "alpha": 6608,
      "antral": 6609,
      "tim": 6610,
      "till": 6611,
      "tiger": 6612,
      "too": 6613,
      "concom": 6614,
      "mesu": 6615,
      "composite": 6616,
      "montre": 6617,
      "admin": 6618,
      "ille": 6619,
      "versus": 6620,
      "exu": 6621,
      "perichole": 6622,
      "peribronchial": 6623,
      "unusual": 6624,
      "interruption": 6625,
      "interspinous": 6626,
      "extend": 6627,
      "ellip": 6628,
      "sectional": 6629,
      "grand": 6630,
      "gravid": 6631,
      "cropped": 6632,
      "105": 6633,
      "cementless": 6634,
      "20yearold": 6635,
      "densityweighted": 6636,
      "bulum": 6637,
      "embolic": 6638,
      "restored": 6639,
      "navicular": 6640,
      "hemiarthroplasty": 6641,
      "needles": 6642,
      "calculate": 6643,
      "cephalad": 6644,
      "eyes": 6645,
      "identifies": 6646,
      "procedural": 6647,
      "greatest": 6648,
      "stars": 6649,
      "mixture": 6650,
      "worsening": 6651,
      "legs": 6652,
      "falx": 6653,
      "artificial": 6654,
      "reflecting": 6655,
      "demarcation": 6656,
      "delineation": 6657,
      "synovitis": 6658,
      "pyelonephritis": 6659,
      "complication": 6660,
      "expanding": 6661,
      "organized": 6662,
      "myometrial": 6663,
      "accompanying": 6664,
      "dysfunction": 6665,
      "histopathological": 6666,
      "release": 6667,
      "details": 6668,
      "leuk": 6669,
      "excretion": 6670,
      "slope": 6671,
      "atherosclerotic": 6672,
      "deficiency": 6673,
      "augmentation": 6674,
      "assessed": 6675,
      "excretory": 6676,
      "concomitant": 6677,
      "4mm": 6678,
      "66": 6679,
      "76": 6680,
      "73yearold": 6681,
      "cg": 6682,
      "gold": 6683,
      "hic": 6684,
      "iol": 6685,
      "janu": 6686,
      "knot": 6687,
      "osed": 6688,
      "pp": 6689,
      "vcug": 6690,
      "ware": 6691,
      "ratus": 6692,
      "least": 6693,
      "rip": 6694,
      "diss": 6695,
      "laye": 6696,
      "phan": 6697,
      "enty": 6698,
      "wil": 6699,
      "destro": 6700,
      "pophalangeal": 6701,
      "conglome": 6702,
      "itate": 6703,
      "load": 6704,
      "vii": 6705,
      "weak": 6706,
      "cords": 6707,
      "lipi": 6708,
      "fecal": 6709,
      "acid": 6710,
      "hiatal": 6711,
      "oco": 6712,
      "mod": 6713,
      "bite": 6714,
      "odol": 6715,
      "irradiation": 6716,
      "carpophalangeal": 6717,
      "amniotic": 6718,
      "blade": 6719,
      "agement": 6720,
      "transposition": 6721,
      "ulaire": 6722,
      "mutation": 6723,
      "paracolic": 6724,
      "airfilled": 6725,
      "lump": 6726,
      "osteoid": 6727,
      "thymus": 6728,
      "curves": 6729,
      "genu": 6730,
      "bronchogenic": 6731,
      "ultrasonic": 6732,
      "discitis": 6733,
      "15cm": 6734,
      "undergone": 6735,
      "observe": 6736,
      "automa": 6737,
      "foramina": 6738,
      "contain": 6739,
      "ileocolic": 6740,
      "leton": 6741,
      "shifted": 6742,
      "epiphyseal": 6743,
      "injured": 6744,
      "identifying": 6745,
      "surgically": 6746,
      "cules": 6747,
      "culture": 6748,
      "ventrally": 6749,
      "shunting": 6750,
      "legend": 6751,
      "caverno": 6752,
      "furthermore": 6753,
      "thelioma": 6754,
      "nephr": 6755,
      "hepatomegaly": 6756,
      "labelled": 6757,
      "autofluorescence": 6758,
      "fiducial": 6759,
      "ofibular": 6760,
      "baby": 6761,
      "gonial": 6762,
      "bronchograms": 6763,
      "highlighting": 6764,
      "evacu": 6765,
      "possibly": 6766,
      "tapering": 6767,
      "ochrom": 6768,
      "stimulation": 6769,
      "brachytherapy": 6770,
      "commissure": 6771,
      "infundibulum": 6772,
      "proliferation": 6773,
      "headache": 6774,
      "volunte": 6775,
      "conservative": 6776,
      "spondylolisthesis": 6777,
      "cementoenamel": 6778,
      "plexiform": 6779,
      "routine": 6780,
      "mesurant": 6781,
      "pericholecystic": 6782,
      "january": 6783,
      "layered": 6784,
      "5mm": 6785,
      "71yearold": 6786,
      "ai": 6787,
      "bat": 6788,
      "crea": 6789,
      "equi": 6790,
      "kni": 6791,
      "kwire": 6792,
      "lh": 6793,
      "nit": 6794,
      "pump": 6795,
      "slip": 6796,
      "tof": 6797,
      "tant": 6798,
      "those": 6799,
      "inci": 6800,
      "raised": 6801,
      "anteromedial": 6802,
      "resur": 6803,
      "seri": 6804,
      "entre": 6805,
      "deri": 6806,
      "ising": 6807,
      "concave": 6808,
      "capa": 6809,
      "capi": 6810,
      "abund": 6811,
      "compare": 6812,
      "radiology": 6813,
      "lucencies": 6814,
      "perfused": 6815,
      "acd": 6816,
      "span": 6817,
      "spasm": 6818,
      "mole": 6819,
      "bited": 6820,
      "ystis": 6821,
      "press": 6822,
      "colitis": 6823,
      "partum": 6824,
      "intraductal": 6825,
      "cmsized": 6826,
      "fran": 6827,
      "pulpo": 6828,
      "rendering": 6829,
      "serpi": 6830,
      "paramedian": 6831,
      "twenty": 6832,
      "thyroi": 6833,
      "partly": 6834,
      "ubm": 6835,
      "cellulitis": 6836,
      "june": 6837,
      "bulge": 6838,
      "ortho": 6839,
      "femurs": 6840,
      "microscopy": 6841,
      "ureteropelvic": 6842,
      "thrombotic": 6843,
      "guiding": 6844,
      "shifting": 6845,
      "isoechoic": 6846,
      "pushed": 6847,
      "scarring": 6848,
      "minute": 6849,
      "c4c5": 6850,
      "meniscal": 6851,
      "craniotomy": 6852,
      "iditis": 6853,
      "frog": 6854,
      "nephrostomy": 6855,
      "pterygopalatine": 6856,
      "glom": 6857,
      "ploic": 6858,
      "sharply": 6859,
      "solution": 6860,
      "trapezius": 6861,
      "laryng": 6862,
      "ileocecal": 6863,
      "pyramid": 6864,
      "coded": 6865,
      "adapted": 6866,
      "anterioposterior": 6867,
      "postembolization": 6868,
      "recorded": 6869,
      "multislice": 6870,
      "polyethylene": 6871,
      "french": 6872,
      "administered": 6873,
      "lipiodol": 6874,
      "knife": 6875,
      "serpiginous": 6876,
      "29yearold": 6877,
      "dat": 6878,
      "hair": 6879,
      "p1": 6880,
      "sou": 6881,
      "vf": 6882,
      "yx": 6883,
      "yceal": 6884,
      "information": 6885,
      "anter": 6886,
      "tili": 6887,
      "replacing": 6888,
      "rique": 6889,
      "stop": 6890,
      "orenal": 6891,
      "seiz": 6892,
      "error": 6893,
      "labi": 6894,
      "entine": 6895,
      "dement": 6896,
      "trax": 6897,
      "olfactory": 6898,
      "peg": 6899,
      "peu": 6900,
      "scription": 6901,
      "rostral": 6902,
      "pais": 6903,
      "painf": 6904,
      "beads": 6905,
      "vivo": 6906,
      "luting": 6907,
      "duration": 6908,
      "duplic": 6909,
      "tace": 6910,
      "fier": 6911,
      "exposed": 6912,
      "affer": 6913,
      "biomic": 6914,
      "forceps": 6915,
      "postnatal": 6916,
      "subscapular": 6917,
      "colored": 6918,
      "parti": 6919,
      "intertrochanteric": 6920,
      "intermedius": 6921,
      "transformation": 6922,
      "cochlear": 6923,
      "pulled": 6924,
      "doct": 6925,
      "impression": 6926,
      "hypoattenuating": 6927,
      "faction": 6928,
      "retrom": 6929,
      "template": 6930,
      "fluidfluid": 6931,
      "vascul": 6932,
      "highintensity": 6933,
      "iectomy": 6934,
      "10yearold": 6935,
      "display": 6936,
      "odensity": 6937,
      "fills": 6938,
      "akine": 6939,
      "reconstructions": 6940,
      "gallstones": 6941,
      "borderline": 6942,
      "11yearold": 6943,
      "patterns": 6944,
      "times": 6945,
      "desmo": 6946,
      "layering": 6947,
      "detectable": 6948,
      "aleft": 6949,
      "clavicles": 6950,
      "brevis": 6951,
      "ready": 6952,
      "000": 6953,
      "bule": 6954,
      "topography": 6955,
      "37yearold": 6956,
      "culae": 6957,
      "bedside": 6958,
      "myeloma": 6959,
      "corticomedullary": 6960,
      "tortuosity": 6961,
      "developmental": 6962,
      "denoted": 6963,
      "numerable": 6964,
      "autograft": 6965,
      "medullaris": 6966,
      "overlaid": 6967,
      "help": 6968,
      "difficul": 6969,
      "tendinous": 6970,
      "soluble": 6971,
      "integration": 6972,
      "cholecystectomy": 6973,
      "articulation": 6974,
      "usepackageam": 6975,
      "tonsils": 6976,
      "moya": 6977,
      "insufficiency": 6978,
      "predominance": 6979,
      "cricoid": 6980,
      "opneumo": 6981,
      "recogn": 6982,
      "amyloid": 6983,
      "juxta": 6984,
      "oxygen": 6985,
      "constriction": 6986,
      "mucocele": 6987,
      "tumeur": 6988,
      "semicir": 6989,
      "compensat": 6990,
      "osalping": 6991,
      "automatically": 6992,
      "resurfacing": 6993,
      "73": 6994,
      "7mm": 6995,
      "bd": 6996,
      "bg": 6997,
      "cub": 6998,
      "dd": 6999,
      "dumb": 7000,
      "laleft": 7001,
      "nation": 7002,
      "sf": 7003,
      "thr": 7004,
      "inset": 7005,
      "innumerable": 7006,
      "tel": 7007,
      "enthe": 7008,
      "rise": 7009,
      "rier": 7010,
      "inges": 7011,
      "sical": 7012,
      "ergy": 7013,
      "vector": 7014,
      "vehic": 7015,
      "demyel": 7016,
      "trapped": 7017,
      "atric": 7018,
      "scence": 7019,
      "umbar": 7020,
      "construct": 7021,
      "added": 7022,
      "vides": 7023,
      "perfect": 7024,
      "gives": 7025,
      "mos": 7026,
      "mott": 7027,
      "bipolar": 7028,
      "areolar": 7029,
      "unstable": 7030,
      "postsurgery": 7031,
      "transca": 7032,
      "presumed": 7033,
      "subhepatic": 7034,
      "subglottic": 7035,
      "subphrenic": 7036,
      "carried": 7037,
      "surge": 7038,
      "transmission": 7039,
      "hypodensities": 7040,
      "mictu": 7041,
      "fair": 7042,
      "multiples": 7043,
      "porto": 7044,
      "indirect": 7045,
      "serum": 7046,
      "paraesophageal": 7047,
      "kerato": 7048,
      "graph": 7049,
      "contrastenhancing": 7050,
      "lymphaden": 7051,
      "noncoronary": 7052,
      "metacarpophalangeal": 7053,
      "cardiothoracic": 7054,
      "12cm": 7055,
      "adenoid": 7056,
      "formations": 7057,
      "tracheostomy": 7058,
      "auric": 7059,
      "bullo": 7060,
      "13yearold": 7061,
      "epiglottis": 7062,
      "generator": 7063,
      "uneven": 7064,
      "horizontally": 7065,
      "massively": 7066,
      "characterised": 7067,
      "widely": 7068,
      "spreading": 7069,
      "sacrococcygeal": 7070,
      "growing": 7071,
      "spectct": 7072,
      "requent": 7073,
      "pouching": 7074,
      "neurological": 7075,
      "dentin": 7076,
      "exhibited": 7077,
      "skeleton": 7078,
      "frontotemporal": 7079,
      "photoreceptor": 7080,
      "debridement": 7081,
      "nephrost": 7082,
      "iodinated": 7083,
      "macroadenoma": 7084,
      "kyste": 7085,
      "incisional": 7086,
      "scalloping": 7087,
      "cholecystitis": 7088,
      "diabetes": 7089,
      "rheuma": 7090,
      "leiomyoma": 7091,
      "intensifier": 7092,
      "peritonitis": 7093,
      "restriction": 7094,
      "pneumocystis": 7095,
      "volunteer": 7096,
      "compensatory": 7097,
      "dumbbell": 7098,
      "2a": 7099,
      "3t": 7100,
      "3dimensional": 7101,
      "66yearold": 7102,
      "7cm": 7103,
      "86": 7104,
      "dge": 7105,
      "dden": 7106,
      "fh": 7107,
      "f18": 7108,
      "mir": 7109,
      "ode": 7110,
      "oxide": 7111,
      "rx": 7112,
      "uses": 7113,
      "vant": 7114,
      "women": 7115,
      "ymal": 7116,
      "inity": 7117,
      "influ": 7118,
      "article": 7119,
      "energy": 7120,
      "review": 7121,
      "recording": 7122,
      "leman": 7123,
      "disp": 7124,
      "diges": 7125,
      "sect": 7126,
      "shrin": 7127,
      "phle": 7128,
      "ough": 7129,
      "sudden": 7130,
      "conver": 7131,
      "neither": 7132,
      "tenoid": 7133,
      "arytenoid": 7134,
      "cheek": 7135,
      "fie": 7136,
      "opt": 7137,
      "opened": 7138,
      "cised": 7139,
      "hybrid": 7140,
      "periarticular": 7141,
      "transc": 7142,
      "iron": 7143,
      "obtain": 7144,
      "obilia": 7145,
      "calvari": 7146,
      "stenoses": 7147,
      "interhemispheric": 7148,
      "fluorescent": 7149,
      "cytoma": 7150,
      "valent": 7151,
      "manub": 7152,
      "outcome": 7153,
      "dox": 7154,
      "imit": 7155,
      "hypothalamus": 7156,
      "pararenal": 7157,
      "medicine": 7158,
      "cystadenoma": 7159,
      "gradual": 7160,
      "gracil": 7161,
      "noncalcified": 7162,
      "nondisplaced": 7163,
      "rectangle": 7164,
      "ski": 7165,
      "suprieur": 7166,
      "ometry": 7167,
      "disrupted": 7168,
      "10cm": 7169,
      "mination": 7170,
      "pheochrom": 7171,
      "adjuv": 7172,
      "breach": 7173,
      "born": 7174,
      "confirm": 7175,
      "orthog": 7176,
      "suprasternal": 7177,
      "basis": 7178,
      "esophagography": 7179,
      "otherwise": 7180,
      "health": 7181,
      "perforator": 7182,
      "ocytic": 7183,
      "clinoid": 7184,
      "blocked": 7185,
      "c67": 7186,
      "resultant": 7187,
      "suscepti": 7188,
      "sacroili": 7189,
      "encephalitis": 7190,
      "craniocervical": 7191,
      "opathies": 7192,
      "anomalies": 7193,
      "bicor": 7194,
      "endplates": 7195,
      "scalp": 7196,
      "disseminated": 7197,
      "weightbearing": 7198,
      "seventh": 7199,
      "physiological": 7200,
      "spherical": 7201,
      "peroneus": 7202,
      "consisting": 7203,
      "chondrosarcoma": 7204,
      "diabetic": 7205,
      "supplemental": 7206,
      "alterations": 7207,
      "micronodu": 7208,
      "seems": 7209,
      "spongi": 7210,
      "prenatal": 7211,
      "inferolateral": 7212,
      "hysterosalping": 7213,
      "deviated": 7214,
      "phantom": 7215,
      "afferent": 7216,
      "biomicroscopy": 7217,
      "bullosa": 7218,
      "gracilis": 7219,
      "adjuvant": 7220,
      "dc": 7221,
      "edi": 7222,
      "fab": 7223,
      "frequent": 7224,
      "gine": 7225,
      "h1": 7226,
      "hpati": 7227,
      "jour": 7228,
      "kir": 7229,
      "p2": 7230,
      "rnal": 7231,
      "vc": 7232,
      "vage": 7233,
      "enz": 7234,
      "encase": 7235,
      "encircled": 7236,
      "reli": 7237,
      "rich": 7238,
      "rimen": 7239,
      "ston": 7240,
      "dienne": 7241,
      "sector": 7242,
      "mastic": 7243,
      "ctpa": 7244,
      "depressed": 7245,
      "cea": 7246,
      "asing": 7247,
      "isos": 7248,
      "iden": 7249,
      "correlation": 7250,
      "chement": 7251,
      "tac": 7252,
      "taining": 7253,
      "hiv": 7254,
      "excav": 7255,
      "explo": 7256,
      "onethird": 7257,
      "mois": 7258,
      "reached": 7259,
      "postpartum": 7260,
      "prepontine": 7261,
      "subacromial": 7262,
      "plas": 7263,
      "intraorbital": 7264,
      "t2flair": 7265,
      "might": 7266,
      "elle": 7267,
      "hyperfluorescence": 7268,
      "syring": 7269,
      "gram": 7270,
      "missed": 7271,
      "mention": 7272,
      "involve": 7273,
      "anterosuperior": 7274,
      "cerebri": 7275,
      "maxill": 7276,
      "integ": 7277,
      "pyriform": 7278,
      "indent": 7279,
      "arthrogram": 7280,
      "suprapubic": 7281,
      "symptomatic": 7282,
      "volumetric": 7283,
      "lengths": 7284,
      "shear": 7285,
      "olitis": 7286,
      "factor": 7287,
      "fdgpetct": 7288,
      "tivity": 7289,
      "diverticular": 7290,
      "offset": 7291,
      "cholangiocarcinoma": 7292,
      "analyzed": 7293,
      "repetition": 7294,
      "l34": 7295,
      "myelogram": 7296,
      "fistulogram": 7297,
      "ventriculo": 7298,
      "allowing": 7299,
      "occurs": 7300,
      "eruption": 7301,
      "polypoidal": 7302,
      "mesothelioma": 7303,
      "digit": 7304,
      "sbrt": 7305,
      "socket": 7306,
      "ischium": 7307,
      "ischae": 7308,
      "drug": 7309,
      "ampullary": 7310,
      "serosa": 7311,
      "limits": 7312,
      "antico": 7313,
      "entrapped": 7314,
      "calipers": 7315,
      "rosthesis": 7316,
      "neovascularization": 7317,
      "recanalization": 7318,
      "arrival": 7319,
      "malleolus": 7320,
      "piriformis": 7321,
      "december": 7322,
      "concentration": 7323,
      "pelvicalyceal": 7324,
      "prolong": 7325,
      "painful": 7326,
      "duplicated": 7327,
      "opneumothorax": 7328,
      "semicircular": 7329,
      "vehicle": 7330,
      "nephrostogram": 7331,
      "74yearold": 7332,
      "agi": 7333,
      "bb": 7334,
      "bent": 7335,
      "eca": 7336,
      "flip": 7337,
      "glucose": 7338,
      "iud": 7339,
      "nb": 7340,
      "pted": 7341,
      "pcl": 7342,
      "sdoct": 7343,
      "thread": 7344,
      "theter": 7345,
      "lex": 7346,
      "dium": 7347,
      "mab": 7348,
      "maps": 7349,
      "icu": 7350,
      "wir": 7351,
      "veine": 7352,
      "ats": 7353,
      "scm": 7354,
      "rock": 7355,
      "pau": 7356,
      "pav": 7357,
      "sun": 7358,
      "suffe": 7359,
      "meck": 7360,
      "compara": 7361,
      "itself": 7362,
      "admitted": 7363,
      "became": 7364,
      "xiphoid": 7365,
      "perme": 7366,
      "tape": 7367,
      "tative": 7368,
      "lowsignal": 7369,
      "febru": 7370,
      "ack": 7371,
      "upstream": 7372,
      "unremarkable": 7373,
      "transpar": 7374,
      "prescription": 7375,
      "caries": 7376,
      "llous": 7377,
      "llofemoral": 7378,
      "player": 7379,
      "strut": 7380,
      "mian": 7381,
      "veno": 7382,
      "managed": 7383,
      "outpouching": 7384,
      "must": 7385,
      "pulmonic": 7386,
      "midzone": 7387,
      "centrum": 7388,
      "certain": 7389,
      "vertebro": 7390,
      "vaso": 7391,
      "lymphangi": 7392,
      "nonvisualization": 7393,
      "suprag": 7394,
      "anteroinferior": 7395,
      "olucent": 7396,
      "103": 7397,
      "heterogeneity": 7398,
      "examined": 7399,
      "extraocular": 7400,
      "severity": 7401,
      "stiff": 7402,
      "evidenced": 7403,
      "sequential": 7404,
      "vault": 7405,
      "stentgraft": 7406,
      "vicinity": 7407,
      "ivp": 7408,
      "irregularities": 7409,
      "15mm": 7410,
      "therapeu": 7411,
      "palli": 7412,
      "clock": 7413,
      "consolidated": 7414,
      "rvright": 7415,
      "pneumothoraces": 7416,
      "torn": 7417,
      "grafts": 7418,
      "orthopant": 7419,
      "posterosuperior": 7420,
      "lobed": 7421,
      "hemorrhages": 7422,
      "patellofemoral": 7423,
      "custom": 7424,
      "approximate": 7425,
      "situation": 7426,
      "osseuse": 7427,
      "septate": 7428,
      "ecg": 7429,
      "deoxy": 7430,
      "callosal": 7431,
      "calibre": 7432,
      "trabeculae": 7433,
      "nailing": 7434,
      "definitive": 7435,
      "corticos": 7436,
      "pelvienne": 7437,
      "kyphotic": 7438,
      "asymmetrical": 7439,
      "nephrocalcinosis": 7440,
      "jaws": 7441,
      "hamar": 7442,
      "mineralization": 7443,
      "coccyx": 7444,
      "integrated": 7445,
      "longest": 7446,
      "neonate": 7447,
      "osteochondroma": 7448,
      "extremely": 7449,
      "physaire": 7450,
      "corticospinal": 7451,
      "creating": 7452,
      "curettage": 7453,
      "fenestration": 7454,
      "birads": 7455,
      "twelve": 7456,
      "epicondyle": 7457,
      "february": 7458,
      "therapeutic": 7459,
      "115": 7460,
      "87": 7461,
      "8th": 7462,
      "amon": 7463,
      "cow": 7464,
      "estab": 7465,
      "oedematous": 7466,
      "sound": 7467,
      "slab": 7468,
      "ution": 7469,
      "war": 7470,
      "incar": 7471,
      "tesis": 7472,
      "already": 7473,
      "anten": 7474,
      "tiform": 7475,
      "repaired": 7476,
      "stroma": 7477,
      "shallow": 7478,
      "lag": 7479,
      "ulous": 7480,
      "sutures": 7481,
      "tool": 7482,
      "means": 7483,
      "composed": 7484,
      "cad": 7485,
      "ado": 7486,
      "beration": 7487,
      "tag": 7488,
      "lipo": 7489,
      "accep": 7490,
      "expression": 7491,
      "excised": 7492,
      "lateralis": 7493,
      "moiety": 7494,
      "forward": 7495,
      "periaortic": 7496,
      "ancellous": 7497,
      "reaches": 7498,
      "postobturation": 7499,
      "predi": 7500,
      "obu": 7501,
      "tesla": 7502,
      "aneuri": 7503,
      "subperiosteal": 7504,
      "ventro": 7505,
      "ffa": 7506,
      "osa": 7507,
      "interventional": 7508,
      "pling": 7509,
      "surve": 7510,
      "coexisting": 7511,
      "multiseptated": 7512,
      "valle": 7513,
      "fae": 7514,
      "paracardiac": 7515,
      "sate": 7516,
      "pier": 7517,
      "echocardiograph": 7518,
      "endos": 7519,
      "osteop": 7520,
      "involves": 7521,
      "pleuralbased": 7522,
      "angled": 7523,
      "pneumobilia": 7524,
      "extraconal": 7525,
      "12th": 7526,
      "140": 7527,
      "localised": 7528,
      "epiglottic": 7529,
      "systems": 7530,
      "gastroesophageal": 7531,
      "courses": 7532,
      "caudally": 7533,
      "hyperex": 7534,
      "avera": 7535,
      "selection": 7536,
      "inates": 7537,
      "biloma": 7538,
      "005": 7539,
      "burst": 7540,
      "magna": 7541,
      "cholecyst": 7542,
      "varic": 7543,
      "perineum": 7544,
      "l3l4": 7545,
      "pregnant": 7546,
      "canines": 7547,
      "intestines": 7548,
      "pathologically": 7549,
      "cisterna": 7550,
      "correctly": 7551,
      "emptying": 7552,
      "secund": 7553,
      "distorted": 7554,
      "hardware": 7555,
      "thoracoabdominal": 7556,
      "blind": 7557,
      "instrument": 7558,
      "granuloma": 7559,
      "complaint": 7560,
      "compromise": 7561,
      "attempt": 7562,
      "extrusion": 7563,
      "hydroureteronephrosis": 7564,
      "orthopantamograph": 7565,
      "episode": 7566,
      "aplasia": 7567,
      "piece": 7568,
      "uscular": 7569,
      "prsence": 7570,
      "paraganglioma": 7571,
      "vesicoureteral": 7572,
      "tonsillar": 7573,
      "evacuation": 7574,
      "abundant": 7575,
      "encasement": 7576,
      "masticator": 7577,
      "suffered": 7578,
      "supraglot": 7579,
      "corticosteroid": 7580,
      "1a": 7581,
      "2b": 7582,
      "eve": 7583,
      "emia": 7584,
      "elast": 7585,
      "iter": 7586,
      "igg": 7587,
      "ji": 7588,
      "mf": 7589,
      "plying": 7590,
      "sation": 7591,
      "utili": 7592,
      "vul": 7593,
      "wed": 7594,
      "instent": 7595,
      "independent": 7596,
      "encomp": 7597,
      "entero": 7598,
      "entered": 7599,
      "orm": 7600,
      "orphic": 7601,
      "sial": 7602,
      "simus": 7603,
      "died": 7604,
      "sesa": 7605,
      "edle": 7606,
      "decompressed": 7607,
      "cher": 7608,
      "trapping": 7609,
      "assisted": 7610,
      "iss": 7611,
      "scimit": 7612,
      "paving": 7613,
      "conjun": 7614,
      "neath": 7615,
      "itu": 7616,
      "locules": 7617,
      "abductor": 7618,
      "ilic": 7619,
      "viable": 7620,
      "corn": 7621,
      "lowest": 7622,
      "acc": 7623,
      "prob": 7624,
      "products": 7625,
      "peribronchovascular": 7626,
      "posing": 7627,
      "transection": 7628,
      "prefrontal": 7629,
      "preparation": 7630,
      "oblong": 7631,
      "subendocardial": 7632,
      "whirl": 7633,
      "carpi": 7634,
      "osy": 7635,
      "intraretinal": 7636,
      "cyt": 7637,
      "food": 7638,
      "route": 7639,
      "lumbor": 7640,
      "pia": 7641,
      "noncontrastenhanced": 7642,
      "sky": 7643,
      "ometa": 7644,
      "centesis": 7645,
      "facets": 7646,
      "commonly": 7647,
      "psing": 7648,
      "retrobulbar": 7649,
      "occluding": 7650,
      "observation": 7651,
      "180": 7652,
      "injections": 7653,
      "suspect": 7654,
      "butto": 7655,
      "myco": 7656,
      "mycob": 7657,
      "dorsum": 7658,
      "crossover": 7659,
      "25cm": 7660,
      "histologically": 7661,
      "processing": 7662,
      "osteosclerosis": 7663,
      "quadratus": 7664,
      "nodularity": 7665,
      "master": 7666,
      "striatum": 7667,
      "cule": 7668,
      "includes": 7669,
      "ideal": 7670,
      "2004": 7671,
      "400": 7672,
      "perforating": 7673,
      "newborn": 7674,
      "evaluate": 7675,
      "pedicles": 7676,
      "encephaly": 7677,
      "spectrum": 7678,
      "nephrectomy": 7679,
      "schner": 7680,
      "references": 7681,
      "considerable": 7682,
      "reverberation": 7683,
      "reticulation": 7684,
      "realtime": 7685,
      "runs": 7686,
      "syndesmo": 7687,
      "semiovale": 7688,
      "differences": 7689,
      "crazy": 7690,
      "bundles": 7691,
      "highlights": 7692,
      "carcinomatosis": 7693,
      "gdl": 7694,
      "voxels": 7695,
      "digitor": 7696,
      "calyces": 7697,
      "conducted": 7698,
      "tarsal": 7699,
      "ncct": 7700,
      "spermatic": 7701,
      "ampulla": 7702,
      "cavitating": 7703,
      "transitional": 7704,
      "sensitivity": 7705,
      "sludge": 7706,
      "laterolateral": 7707,
      "crohns": 7708,
      "difficulty": 7709,
      "digestive": 7710,
      "susceptibility": 7711,
      "sacroiliitis": 7712,
      "kirschner": 7713,
      "among": 7714,
      "scimitar": 7715,
      "lumborum": 7716,
      "mycobac": 7717,
      "digitorum": 7718,
      "03": 7719,
      "1b": 7720,
      "110": 7721,
      "2year": 7722,
      "4a": 7723,
      "600": 7724,
      "98": 7725,
      "blin": 7726,
      "cte": 7727,
      "clar": 7728,
      "hill": 7729,
      "nv": 7730,
      "pto": 7731,
      "rograph": 7732,
      "ttube": 7733,
      "vable": 7734,
      "ww": 7735,
      "ino": 7736,
      "anine": 7737,
      "arov": 7738,
      "reha": 7739,
      "orn": 7740,
      "orph": 7741,
      "dian": 7742,
      "seeding": 7743,
      "lax": 7744,
      "deformation": 7745,
      "depression": 7746,
      "defective": 7747,
      "chd": 7748,
      "cera": 7749,
      "olon": 7750,
      "asc": 7751,
      "sung": 7752,
      "leftward": 7753,
      "neigh": 7754,
      "cake": 7755,
      "monro": 7756,
      "monitor": 7757,
      "ably": 7758,
      "usted": 7759,
      "viii": 7760,
      "chem": 7761,
      "acin": 7762,
      "ocutaneous": 7763,
      "strated": 7764,
      "yet": 7765,
      "mother": 7766,
      "bio": 7767,
      "fort": 7768,
      "please": 7769,
      "perigastric": 7770,
      "poster": 7771,
      "preseptal": 7772,
      "prescribed": 7773,
      "iring": 7774,
      "subtotal": 7775,
      "amorph": 7776,
      "interfer": 7777,
      "intermit": 7778,
      "intercondylar": 7779,
      "intraspinal": 7780,
      "intralesional": 7781,
      "cyan": 7782,
      "normalization": 7783,
      "transseptal": 7784,
      "mista": 7785,
      "pulsed": 7786,
      "elm": 7787,
      "else": 7788,
      "sole": 7789,
      "hypokine": 7790,
      "turia": 7791,
      "followthrough": 7792,
      "izumab": 7793,
      "highest": 7794,
      "endop": 7795,
      "thymic": 7796,
      "metaphyses": 7797,
      "transversus": 7798,
      "10th": 7799,
      "flowing": 7800,
      "ologous": 7801,
      "focused": 7802,
      "extramedullary": 7803,
      "craniectomy": 7804,
      "films": 7805,
      "implantable": 7806,
      "15t": 7807,
      "underneath": 7808,
      "autom": 7809,
      "choles": 7810,
      "screening": 7811,
      "nasion": 7812,
      "cephaly": 7813,
      "occipi": 7814,
      "invades": 7815,
      "superolateral": 7816,
      "steel": 7817,
      "lingular": 7818,
      "collagen": 7819,
      "controlled": 7820,
      "materials": 7821,
      "eneedle": 7822,
      "icient": 7823,
      "separately": 7824,
      "fragmentation": 7825,
      "chondrosis": 7826,
      "mammographic": 7827,
      "23yearold": 7828,
      "turn": 7829,
      "turned": 7830,
      "fundal": 7831,
      "falcine": 7832,
      "creation": 7833,
      "neurovascular": 7834,
      "calibra": 7835,
      "synovium": 7836,
      "granular": 7837,
      "corticated": 7838,
      "dentate": 7839,
      "ventriculography": 7840,
      "ventriculomegaly": 7841,
      "laparotomy": 7842,
      "peduncles": 7843,
      "streaks": 7844,
      "haemorrhagic": 7845,
      "tentorium": 7846,
      "mesorectal": 7847,
      "cervicothoracic": 7848,
      "invagin": 7849,
      "calyx": 7850,
      "tapercha": 7851,
      "simultaneously": 7852,
      "copy": 7853,
      "beaking": 7854,
      "washout": 7855,
      "pooling": 7856,
      "pixel": 7857,
      "cuneiform": 7858,
      "dorsolateral": 7859,
      "opacit": 7860,
      "agitated": 7861,
      "epididymis": 7862,
      "hodgkin": 7863,
      "advancement": 7864,
      "spanning": 7865,
      "subscapularis": 7866,
      "transcatheter": 7867,
      "pheochromocytoma": 7868,
      "micronodules": 7869,
      "rimenhancing": 7870,
      "identical": 7871,
      "supraglottic": 7872,
      "sesamoid": 7873,
      "conjuncti": 7874,
      "rehaus": 7875,
      "amorphous": 7876,
      "intermittent": 7877,
      "07": 7878,
      "31yearold": 7879,
      "ay": 7880,
      "cancellous": 7881,
      "dl": 7882,
      "dpi": 7883,
      "egg": 7884,
      "gt": 7885,
      "grid": 7886,
      "hn": 7887,
      "kv": 7888,
      "nat": 7889,
      "nmr": 7890,
      "pn": 7891,
      "spati": 7892,
      "vac": 7893,
      "yly": 7894,
      "rachis": 7895,
      "resu": 7896,
      "ritic": 7897,
      "omorphic": 7898,
      "making": 7899,
      "makes": 7900,
      "lap": 7901,
      "lamp": 7902,
      "death": 7903,
      "geographic": 7904,
      "olonic": 7905,
      "pear": 7906,
      "rods": 7907,
      "ticles": 7908,
      "condens": 7909,
      "coming": 7910,
      "commen": 7911,
      "terium": 7912,
      "loo": 7913,
      "lost": 7914,
      "loaded": 7915,
      "adole": 7916,
      "hemic": 7917,
      "heavi": 7918,
      "takes": 7919,
      "lique": 7920,
      "opl": 7921,
      "proposed": 7922,
      "moved": 7923,
      "moving": 7924,
      "uncemented": 7925,
      "reach": 7926,
      "subsegmental": 7927,
      "angioct": 7928,
      "tumora": 7929,
      "antro": 7930,
      "interposition": 7931,
      "interlobar": 7932,
      "plasma": 7933,
      "coe": 7934,
      "densit": 7935,
      "illoma": 7936,
      "hypox": 7937,
      "hypovascular": 7938,
      "hypophysis": 7939,
      "fov": 7940,
      "welldelineated": 7941,
      "berg": 7942,
      "infecti": 7943,
      "completed": 7944,
      "scopically": 7945,
      "ogenesis": 7946,
      "thym": 7947,
      "axe": 7948,
      "2016": 7949,
      "displaces": 7950,
      "extracapsular": 7951,
      "pica": 7952,
      "fineneedle": 7953,
      "cardiover": 7954,
      "12mm": 7955,
      "vara": 7956,
      "landmark": 7957,
      "ubic": 7958,
      "phases": 7959,
      "dayold": 7960,
      "autop": 7961,
      "resting": 7962,
      "dorsol": 7963,
      "135": 7964,
      "archi": 7965,
      "tumours": 7966,
      "necroti": 7967,
      "goiter": 7968,
      "maximus": 7969,
      "stereo": 7970,
      "effective": 7971,
      "cingulate": 7972,
      "spindle": 7973,
      "2005": 7974,
      "prostheses": 7975,
      "chias": 7976,
      "reader": 7977,
      "phenomen": 7978,
      "germany": 7979,
      "c6c7": 7980,
      "falci": 7981,
      "aerated": 7982,
      "obliterating": 7983,
      "morphological": 7984,
      "neurons": 7985,
      "wings": 7986,
      "compartments": 7987,
      "synchondrosis": 7988,
      "guttapercha": 7989,
      "gonad": 7990,
      "waveform": 7991,
      "optimi": 7992,
      "temporomandibular": 7993,
      "plantation": 7994,
      "kinking": 7995,
      "quantitative": 7996,
      "glioma": 7997,
      "consists": 7998,
      "manifestation": 7999,
      "tomodensitomtrique": 8000,
      "essential": 8001,
      "pixels": 8002,
      "centimeter": 8003,
      "ability": 8004,
      "inspiration": 8005,
      "vasculitis": 8006,
      "recognized": 8007,
      "cubital": 8008,
      "mottled": 8009,
      "rheumatoid": 8010,
      "mentioned": 8011,
      "anticoagulation": 8012,
      "meckels": 8013,
      "obuccal": 8014,
      "secundum": 8015,
      "automated": 8016,
      "occipito": 8017,
      "resusc": 8018,
      "autopsy": 8019,
      "2mm": 8020,
      "9cm": 8021,
      "bag": 8022,
      "dnis": 8023,
      "ian": 8024,
      "kind": 8025,
      "ln": 8026,
      "lsions": 8027,
      "mni": 8028,
      "moun": 8029,
      "nut": 8030,
      "nhl": 8031,
      "pup": 8032,
      "sfa": 8033,
      "vd": 8034,
      "zi": 8035,
      "inence": 8036,
      "onc": 8037,
      "online": 8038,
      "tegment": 8039,
      "thetic": 8040,
      "arches": 8041,
      "tile": 8042,
      "encro": 8043,
      "recesses": 8044,
      "righ": 8045,
      "sider": 8046,
      "signe": 8047,
      "secre": 8048,
      "ctcomputed": 8049,
      "chrom": 8050,
      "gement": 8051,
      "atous": 8052,
      "pod": 8053,
      "scc": 8054,
      "conical": 8055,
      "meg": 8056,
      "tenting": 8057,
      "iliz": 8058,
      "radiodense": 8059,
      "tomograph": 8060,
      "scanogram": 8061,
      "corpectomy": 8062,
      "xia": 8063,
      "lates": 8064,
      "person": 8065,
      "spared": 8066,
      "romuscular": 8067,
      "opratoire": 8068,
      "hydra": 8069,
      "bien": 8070,
      "pleomorphic": 8071,
      "reases": 8072,
      "prednis": 8073,
      "headneck": 8074,
      "interscalene": 8075,
      "internus": 8076,
      "platy": 8077,
      "ventricule": 8078,
      "echographie": 8079,
      "intratumoral": 8080,
      "cyl": 8081,
      "mimic": 8082,
      "lobectomy": 8083,
      "management": 8084,
      "midshaft": 8085,
      "gain": 8086,
      "gavid": 8087,
      "hyperenhancement": 8088,
      "candi": 8089,
      "former": 8090,
      "pancreat": 8091,
      "joined": 8092,
      "axes": 8093,
      "rings": 8094,
      "vidence": 8095,
      "ribut": 8096,
      "trun": 8097,
      "cursor": 8098,
      "overload": 8099,
      "thermal": 8100,
      "tibiofibular": 8101,
      "program": 8102,
      "session": 8103,
      "shortly": 8104,
      "palatine": 8105,
      "automatic": 8106,
      "trocar": 8107,
      "hematuria": 8108,
      "waist": 8109,
      "visualizing": 8110,
      "colors": 8111,
      "symbol": 8112,
      "250": 8113,
      "lossal": 8114,
      "ligamentous": 8115,
      "count": 8116,
      "quadran": 8117,
      "dorsally": 8118,
      "holes": 8119,
      "tibialis": 8120,
      "whose": 8121,
      "speckle": 8122,
      "separating": 8123,
      "hallu": 8124,
      "hydroxy": 8125,
      "effects": 8126,
      "produce": 8127,
      "infrapatellar": 8128,
      "entirely": 8129,
      "bursal": 8130,
      "blockage": 8131,
      "antibody": 8132,
      "meningocele": 8133,
      "c34": 8134,
      "thighs": 8135,
      "laminae": 8136,
      "regurgitant": 8137,
      "neuroblastoma": 8138,
      "apparently": 8139,
      "requiring": 8140,
      "anteversion": 8141,
      "emergent": 8142,
      "efficient": 8143,
      "cobbs": 8144,
      "cryo": 8145,
      "costo": 8146,
      "punctu": 8147,
      "engor": 8148,
      "transversale": 8149,
      "oblastic": 8150,
      "cvc": 8151,
      "tendinopathy": 8152,
      "choledoch": 8153,
      "quantification": 8154,
      "entesis": 8155,
      "relevant": 8156,
      "apophysis": 8157,
      "fdgavid": 8158,
      "trabeculations": 8159,
      "extruded": 8160,
      "latter": 8161,
      "reinfor": 8162,
      "accurate": 8163,
      "distinguish": 8164,
      "hanche": 8165,
      "lamellar": 8166,
      "captured": 8167,
      "attribu": 8168,
      "fairly": 8169,
      "shrink": 8170,
      "fiesta": 8171,
      "h1n1": 8172,
      "hpatique": 8173,
      "enza": 8174,
      "maxillofacial": 8175,
      "indenting": 8176,
      "hamartoma": 8177,
      "mycotic": 8178,
      "adolescent": 8179,
      "heavily": 8180,
      "cardioverter": 8181,
      "ilizarov": 8182,
      "04": 8183,
      "76yearold": 8184,
      "br": 8185,
      "dt": 8186,
      "dos": 8187,
      "eli": 8188,
      "ectomy": 8189,
      "gic": 8190,
      "ias": 8191,
      "ito": 8192,
      "mse": 8193,
      "mol": 8194,
      "mant": 8195,
      "obe": 8196,
      "rence": 8197,
      "sg": 8198,
      "sad": 8199,
      "swe": 8200,
      "tch": 8201,
      "ink": 8202,
      "ras": 8203,
      "dire": 8204,
      "sein": 8205,
      "mach": 8206,
      "edent": 8207,
      "terne": 8208,
      "chia": 8209,
      "chain": 8210,
      "cectomy": 8211,
      "pera": 8212,
      "poses": 8213,
      "scores": 8214,
      "road": 8215,
      "past": 8216,
      "pachy": 8217,
      "sural": 8218,
      "imat": 8219,
      "lyse": 8220,
      "hearing": 8221,
      "illosis": 8222,
      "become": 8223,
      "radiate": 8224,
      "corre": 8225,
      "lium": 8226,
      "ligation": 8227,
      "exiting": 8228,
      "agram": 8229,
      "pleuro": 8230,
      "ami": 8231,
      "interdental": 8232,
      "abdominalpelvic": 8233,
      "cms": 8234,
      "dermal": 8235,
      "ranged": 8236,
      "translation": 8237,
      "ulae": 8238,
      "ulator": 8239,
      "multifid": 8240,
      "mann": 8241,
      "paravalvular": 8242,
      "retrol": 8243,
      "tempera": 8244,
      "cystoid": 8245,
      "eningocele": 8246,
      "cessation": 8247,
      "panchement": 8248,
      "clearance": 8249,
      "nonperfusion": 8250,
      "solidcystic": 8251,
      "dism": 8252,
      "disper": 8253,
      "1000": 8254,
      "thrombe": 8255,
      "extraperitoneal": 8256,
      "salpin": 8257,
      "iliacus": 8258,
      "reconstitu": 8259,
      "pond": 8260,
      "bolus": 8261,
      "description": 8262,
      "fibroma": 8263,
      "boring": 8264,
      "breasts": 8265,
      "achala": 8266,
      "visualisation": 8267,
      "pseudotumor": 8268,
      "vague": 8269,
      "25mm": 8270,
      "locally": 8271,
      "occiput": 8272,
      "sheep": 8273,
      "shion": 8274,
      "eyeball": 8275,
      "microscopic": 8276,
      "supero": 8277,
      "strictures": 8278,
      "lingula": 8279,
      "nuate": 8280,
      "vertically": 8281,
      "connectivity": 8282,
      "lipomatous": 8283,
      "sixmonth": 8284,
      "polycystic": 8285,
      "coupes": 8286,
      "membrano": 8287,
      "urothelial": 8288,
      "c2c3": 8289,
      "devices": 8290,
      "infraspinatus": 8291,
      "c7t1": 8292,
      "varial": 8293,
      "cavernoma": 8294,
      "enters": 8295,
      "mesio": 8296,
      "directional": 8297,
      "bicuspid": 8298,
      "american": 8299,
      "aaa": 8300,
      "bulbous": 8301,
      "suffering": 8302,
      "physical": 8303,
      "bronchiolitis": 8304,
      "contusions": 8305,
      "zoom": 8306,
      "sphere": 8307,
      "steroids": 8308,
      "rapidly": 8309,
      "ankylo": 8310,
      "sclerosing": 8311,
      "looks": 8312,
      "entrapment": 8313,
      "lithiasis": 8314,
      "sleeve": 8315,
      "aspergillosis": 8316,
      "myelopathy": 8317,
      "inferomedial": 8318,
      "bullous": 8319,
      "eosinoph": 8320,
      "feeder": 8321,
      "existence": 8322,
      "epidermoid": 8323,
      "lacunar": 8324,
      "equivalent": 8325,
      "derived": 8326,
      "capacity": 8327,
      "oxygenation": 8328,
      "lymphadenopathies": 8329,
      "tactic": 8330,
      "ventriculoperitoneal": 8331,
      "wirsung": 8332,
      "paucity": 8333,
      "clockwise": 8334,
      "antenatal": 8335,
      "endoson": 8336,
      "itude": 8337,
      "chemical": 8338,
      "mistaken": 8339,
      "infectious": 8340,
      "necrotizing": 8341,
      "cylind": 8342,
      "multifidus": 8343,
      "salpinx": 8344,
      "achalasia": 8345,
      "1month": 8346,
      "79": 8347,
      "88": 8348,
      "9th": 8349,
      "bank": 8350,
      "ccta": 8351,
      "dp": 8352,
      "gle": 8353,
      "lge": 8354,
      "m2": 8355,
      "mble": 8356,
      "oi": 8357,
      "pf": 8358,
      "pil": 8359,
      "pare": 8360,
      "pins": 8361,
      "vom": 8362,
      "vum": 8363,
      "vue": 8364,
      "yr": 8365,
      "raright": 8366,
      "raction": 8367,
      "anth": 8368,
      "arcu": 8369,
      "reser": 8370,
      "lea": 8371,
      "staged": 8372,
      "oring": 8373,
      "ortic": 8374,
      "die": 8375,
      "secu": 8376,
      "ografi": 8377,
      "chin": 8378,
      "peti": 8379,
      "pest": 8380,
      "atz": 8381,
      "scored": 8382,
      "roscopic": 8383,
      "consequence": 8384,
      "consequent": 8385,
      "context": 8386,
      "ssfse": 8387,
      "becomes": 8388,
      "radiating": 8389,
      "spgr": 8390,
      "exe": 8391,
      "exostosis": 8392,
      "opro": 8393,
      "apone": 8394,
      "appara": 8395,
      "perivascular": 8396,
      "periodon": 8397,
      "opel": 8398,
      "postoperation": 8399,
      "presurgical": 8400,
      "tism": 8401,
      "diastasis": 8402,
      "sublingual": 8403,
      "particle": 8404,
      "osen": 8405,
      "platin": 8406,
      "ranial": 8407,
      "coefficient": 8408,
      "pulsa": 8409,
      "redfree": 8410,
      "outlines": 8411,
      "hypochond": 8412,
      "syne": 8413,
      "grav": 8414,
      "cysticer": 8415,
      "sachs": 8416,
      "enddiastolic": 8417,
      "osteum": 8418,
      "bars": 8419,
      "splaying": 8420,
      "regar": 8421,
      "mrv": 8422,
      "pancreaticoduodenal": 8423,
      "cardiophrenic": 8424,
      "tibio": 8425,
      "obliqu": 8426,
      "pending": 8427,
      "ivary": 8428,
      "18f": 8429,
      "haste": 8430,
      "olymph": 8431,
      "pericolic": 8432,
      "111": 8433,
      "arthritic": 8434,
      "rvg": 8435,
      "navi": 8436,
      "hemiazygos": 8437,
      "supratentorial": 8438,
      "clou": 8439,
      "14cm": 8440,
      "capitate": 8441,
      "msct": 8442,
      "tubercular": 8443,
      "avf": 8444,
      "cuboid": 8445,
      "connective": 8446,
      "chisis": 8447,
      "lers": 8448,
      "refers": 8449,
      "electronic": 8450,
      "burr": 8451,
      "meningitis": 8452,
      "activated": 8453,
      "strands": 8454,
      "tuberculoma": 8455,
      "encephalomalacia": 8456,
      "photon": 8457,
      "abuts": 8458,
      "abutment": 8459,
      "linked": 8460,
      "intervening": 8461,
      "occurring": 8462,
      "autologous": 8463,
      "watersoluble": 8464,
      "volumine": 8465,
      "precise": 8466,
      "semimembrano": 8467,
      "thoracostomy": 8468,
      "princi": 8469,
      "prolapsing": 8470,
      "gliosis": 8471,
      "antibiotics": 8472,
      "oportal": 8473,
      "calyceal": 8474,
      "sufficient": 8475,
      "bassin": 8476,
      "llite": 8477,
      "supplementary": 8478,
      "artefacts": 8479,
      "acrylate": 8480,
      "rigid": 8481,
      "blurred": 8482,
      "modulated": 8483,
      "incorporation": 8484,
      "technetium99m": 8485,
      "thyroidism": 8486,
      "labial": 8487,
      "ventrodorsal": 8488,
      "buttock": 8489,
      "interference": 8490,
      "spatial": 8491,
      "phenomenon": 8492,
      "encroach": 8493,
      "edentulous": 8494,
      "temperature": 8495,
      "thrombectomy": 8496,
      "cylindrical": 8497,
      "arcuate": 8498,
      "ografia": 8499,
      "3a": 8500,
      "3month": 8501,
      "750": 8502,
      "9mm": 8503,
      "b1": 8504,
      "dj": 8505,
      "fentre": 8506,
      "gis": 8507,
      "lang": 8508,
      "l23": 8509,
      "mlo": 8510,
      "nano": 8511,
      "pca": 8512,
      "pure": 8513,
      "pts": 8514,
      "rms": 8515,
      "sling": 8516,
      "uss": 8517,
      "vr": 8518,
      "vshaped": 8519,
      "wat": 8520,
      "yo": 8521,
      "instead": 8522,
      "rap": 8523,
      "onyx": 8524,
      "alone": 8525,
      "antial": 8526,
      "arca": 8527,
      "rex": 8528,
      "ofree": 8529,
      "inge": 8530,
      "orsal": 8531,
      "omes": 8532,
      "dip": 8533,
      "mainten": 8534,
      "make": 8535,
      "laires": 8536,
      "phleg": 8537,
      "entric": 8538,
      "geometry": 8539,
      "celes": 8540,
      "olum": 8541,
      "petro": 8542,
      "suit": 8543,
      "toright": 8544,
      "concurrent": 8545,
      "constant": 8546,
      "tenosis": 8547,
      "restenosis": 8548,
      "ablated": 8549,
      "vised": 8550,
      "wear": 8551,
      "tak": 8552,
      "spas": 8553,
      "expi": 8554,
      "romas": 8555,
      "ones": 8556,
      "protube": 8557,
      "provides": 8558,
      "apposition": 8559,
      "mobil": 8560,
      "hyste": 8561,
      "bilobed": 8562,
      "periosteum": 8563,
      "irri": 8564,
      "calvarial": 8565,
      "diam": 8566,
      "subxiphoid": 8567,
      "carious": 8568,
      "osum": 8569,
      "interne": 8570,
      "thoracentesis": 8571,
      "intracanal": 8572,
      "gingi": 8573,
      "normalized": 8574,
      "dopa": 8575,
      "reno": 8576,
      "hyposignal": 8577,
      "mice": 8578,
      "fashion": 8579,
      "angulated": 8580,
      "fracturedislocation": 8581,
      "sinonasal": 8582,
      "lentiform": 8583,
      "pannic": 8584,
      "nondilated": 8585,
      "notching": 8586,
      "twochamber": 8587,
      "nigra": 8588,
      "panorama": 8589,
      "clamp": 8590,
      "triceps": 8591,
      "overlay": 8592,
      "dramatic": 8593,
      "bronchoscopy": 8594,
      "123": 8595,
      "12month": 8596,
      "colonoscopy": 8597,
      "frontale": 8598,
      "discove": 8599,
      "retroversion": 8600,
      "palsy": 8601,
      "augmented": 8602,
      "flavum": 8603,
      "orbed": 8604,
      "narrowest": 8605,
      "myositis": 8606,
      "arthrography": 8607,
      "visualize": 8608,
      "hemipelvis": 8609,
      "needed": 8610,
      "tractography": 8611,
      "desce": 8612,
      "depiction": 8613,
      "hilus": 8614,
      "histo": 8615,
      "decreasing": 8616,
      "hypera": 8617,
      "superselective": 8618,
      "singleshot": 8619,
      "gastrohepatic": 8620,
      "tuberous": 8621,
      "16cm": 8622,
      "avp": 8623,
      "idectomy": 8624,
      "2000": 8625,
      "35cm": 8626,
      "amounts": 8627,
      "hydrocele": 8628,
      "finally": 8629,
      "techn": 8630,
      "insular": 8631,
      "primar": 8632,
      "worm": 8633,
      "infarctions": 8634,
      "antia": 8635,
      "hydroneph": 8636,
      "smoothly": 8637,
      "hourglass": 8638,
      "perineural": 8639,
      "malformations": 8640,
      "abdominopel": 8641,
      "ectopia": 8642,
      "delineating": 8643,
      "numbers": 8644,
      "ogastro": 8645,
      "crowns": 8646,
      "liner": 8647,
      "snow": 8648,
      "interaction": 8649,
      "galen": 8650,
      "amelo": 8651,
      "vestibule": 8652,
      "viscera": 8653,
      "flexible": 8654,
      "99mtc": 8655,
      "adhesions": 8656,
      "obladder": 8657,
      "tendinosis": 8658,
      "granulomatous": 8659,
      "millimeters": 8660,
      "seeds": 8661,
      "castleman": 8662,
      "remodelling": 8663,
      "phosphon": 8664,
      "neoadjuvant": 8665,
      "neonatal": 8666,
      "fontan": 8667,
      "institute": 8668,
      "substantial": 8669,
      "substantia": 8670,
      "elastic": 8671,
      "family": 8672,
      "pneumatization": 8673,
      "selfexpandable": 8674,
      "investigation": 8675,
      "nanopar": 8676,
      "conglomerate": 8677,
      "manubrium": 8678,
      "orthogonal": 8679,
      "hysterosalpingogram": 8680,
      "integrity": 8681,
      "prolonged": 8682,
      "incarcerated": 8683,
      "probable": 8684,
      "ceramic": 8685,
      "coeliac": 8686,
      "stereotactic": 8687,
      "shrinkage": 8688,
      "maintenance": 8689,
      "hysterectomy": 8690,
      "discovered": 8691,
      "78yearold": 8692,
      "93": 8693,
      "amo": 8694,
      "aids": 8695,
      "b2": 8696,
      "bf": 8697,
      "bm": 8698,
      "bis": 8699,
      "bili": 8700,
      "cane": 8701,
      "d12": 8702,
      "eigh": 8703,
      "gence": 8704,
      "gase": 8705,
      "gda": 8706,
      "hence": 8707,
      "jon": 8708,
      "mgdl": 8709,
      "n0": 8710,
      "oil": 8711,
      "ooccipital": 8712,
      "pog": 8713,
      "rn": 8714,
      "rp": 8715,
      "rone": 8716,
      "san": 8717,
      "tp": 8718,
      "tronic": 8719,
      "injecting": 8720,
      "anz": 8721,
      "anser": 8722,
      "arms": 8723,
      "reh": 8724,
      "siem": 8725,
      "dien": 8726,
      "dish": 8727,
      "sex": 8728,
      "lact": 8729,
      "laby": 8730,
      "latral": 8731,
      "icg": 8732,
      "entrance": 8733,
      "deteri": 8734,
      "chosen": 8735,
      "olob": 8736,
      "atr": 8737,
      "isse": 8738,
      "ischio": 8739,
      "isotro": 8740,
      "pop": 8741,
      "conium": 8742,
      "leftside": 8743,
      "lefttoright": 8744,
      "ided": 8745,
      "mega": 8746,
      "net": 8747,
      "neobladder": 8748,
      "cada": 8749,
      "ssy": 8750,
      "malpositioned": 8751,
      "malrotation": 8752,
      "vert": 8753,
      "perform": 8754,
      "tailed": 8755,
      "litis": 8756,
      "talon": 8757,
      "exit": 8758,
      "exac": 8759,
      "ocentesis": 8760,
      "agar": 8761,
      "hyg": 8762,
      "abdomy": 8763,
      "biventricular": 8764,
      "ford": 8765,
      "formal": 8766,
      "coronar": 8767,
      "undisplaced": 8768,
      "tysis": 8769,
      "testes": 8770,
      "stented": 8771,
      "ffin": 8772,
      "ambi": 8773,
      "interposed": 8774,
      "echofree": 8775,
      "t2weighed": 8776,
      "dermoid": 8777,
      "mito": 8778,
      "bore": 8779,
      "venile": 8780,
      "coated": 8781,
      "dendal": 8782,
      "mans": 8783,
      "impossible": 8784,
      "midabdomen": 8785,
      "smallbowel": 8786,
      "wellmarginated": 8787,
      "cystlike": 8788,
      "vertex": 8789,
      "fatsat": 8790,
      "nonhomogenous": 8791,
      "joins": 8792,
      "notable": 8793,
      "omedi": 8794,
      "shorter": 8795,
      "indocy": 8796,
      "infiltrated": 8797,
      "yearsold": 8798,
      "medtronic": 8799,
      "sensor": 8800,
      "ubitus": 8801,
      "rhabdomy": 8802,
      "juvenile": 8803,
      "trochlea": 8804,
      "dystro": 8805,
      "clots": 8806,
      "herniating": 8807,
      "freely": 8808,
      "button": 8809,
      "myoma": 8810,
      "waves": 8811,
      "cranially": 8812,
      "supraclinoid": 8813,
      "muscul": 8814,
      "originates": 8815,
      "130": 8816,
      "glas": 8817,
      "localisation": 8818,
      "decubitus": 8819,
      "microct": 8820,
      "microbubbles": 8821,
      "thromboembolism": 8822,
      "shoulders": 8823,
      "douglas": 8824,
      "stripe": 8825,
      "patectomy": 8826,
      "speed": 8827,
      "ximab": 8828,
      "arthropathy": 8829,
      "001": 8830,
      "hallux": 8831,
      "progno": 8832,
      "progressed": 8833,
      "pudendal": 8834,
      "infrared": 8835,
      "burden": 8836,
      "meningo": 8837,
      "analyses": 8838,
      "aeration": 8839,
      "emplo": 8840,
      "mesioden": 8841,
      "hepatobiliary": 8842,
      "schatz": 8843,
      "anatomically": 8844,
      "terminale": 8845,
      "myelography": 8846,
      "resemble": 8847,
      "passive": 8848,
      "metatarsals": 8849,
      "denote": 8850,
      "purposes": 8851,
      "held": 8852,
      "reporting": 8853,
      "azygous": 8854,
      "thoracotomy": 8855,
      "drill": 8856,
      "fractions": 8857,
      "hypogastric": 8858,
      "cirrhotic": 8859,
      "leuke": 8860,
      "sequestration": 8861,
      "camera": 8862,
      "milliseconds": 8863,
      "lsionnel": 8864,
      "micronodular": 8865,
      "hsg": 8866,
      "staple": 8867,
      "twisted": 8868,
      "chorio": 8869,
      "supporting": 8870,
      "sensitive": 8871,
      "evolution": 8872,
      "distinguished": 8873,
      "comettail": 8874,
      "aqueductal": 8875,
      "deepest": 8876,
      "task": 8877,
      "congruent": 8878,
      "bisecting": 8879,
      "fluorine": 8880,
      "garden": 8881,
      "mdiastinal": 8882,
      "incisive": 8883,
      "frank": 8884,
      "glomus": 8885,
      "micturating": 8886,
[...]
