{
  "version": "1.0",
  "truncation": null,
  "padding": null,
  "added_tokens": [
    {
      "id": 0,
      "content": "<PAD>",
      "single_word": false,
      "lstrip": false,
      "rstrip": false,
      "normalized": false,
      "special": true
    },
    {
      "id": 1,
      "content": "<UNK>",
      "single_word": false,
      "lstrip": false,
      "rstrip": false,
      "normalized": false,
      "special": true
    },
    {
      "id": 2,
      "content": "<BOS>",
      "single_word": false,
      "lstrip": false,
      "rstrip": false,
      "normalized": false,
      "special": true
    },
    {
      "id": 3,
      "content": "<EOS>",
      "single_word": false,
      "lstrip": false,
      "rstrip": false,
      "normalized": false,
      "special": true
    }
  ],
  "normalizer": {
    "type": "Sequence",
    "normalizers": [
      {
        "type": "NFD"
      },
      {
        "type": "Lowercase"
      },
      {
        "type": "StripAccents"
      }
    ]
  },
  "pre_tokenizer": {
    "type": "Whitespace"
  },
  "post_processor": {
    "type": "TemplateProcessing",
    "single": [
      {
        "SpecialToken": {
          "id": "<BOS>",
          "type_id": 0
        }
      },
      {
        "Sequence": {
          "id": "A",
          "type_id": 0
        }
      },
      {
        "SpecialToken": {
          "id": "<EOS>",
          "type_id": 0
        }
      }
    ],
    "pair": [
      {
        "SpecialToken": {
          "id": "<BOS>",
          "type_id": 0
        }
      },
      {
        "Sequence": {
          "id": "A",
          "type_id": 0
        }
      },
      {
        "SpecialToken": {
          "id": "<EOS>",
          "type_id": 0
        }
      },
      {
        "Sequence": {
          "id": "B",
          "type_id": 1
        }
      },
      {
        "SpecialToken": {
          "id": "<EOS>",
          "type_id": 1
        }
      }
    ],
    "special_tokens": {
      "<BOS>": {
        "id": "<BOS>",
        "ids": [
          2
        ],
        "tokens": [
          "<BOS>"
        ]
      },
      "<EOS>": {
        "id": "<EOS>",
        "ids": [
          3
        ],
        "tokens": [
          "<EOS>"
        ]
      }
    }
  },
  "decoder": null,
  "model": {
    "type": "BPE",
    "dropout": null,
    "unk_token": null,
    "continuing_subword_prefix": null,
    "end_of_word_suffix": null,
    "fuse_unk": false,
    "byte_fallback": false,
    "ignore_merges": false,
    "vocab": {
      "<PAD>": 0,
      "<UNK>": 1,
      "<BOS>": 2,
      "<EOS>": 3,
      "!": 4,
      "\"": 5,
      "#": 6,
      "$": 7,
      "%": 8,
      "&": 9,
      "'": 10,
      "(": 11,
      ")": 12,
      "*": 13,
      "+": 14,
      ",": 15,
      "-": 16,
      ".": 17,
      "/": 18,
      "0": 19,
      "1": 20,
      "2": 21,
      "3": 22,
      "4": 23,
      "5": 24,
      "6": 25,
      "7": 26,
      "8": 27,
      "9": 28,
      ":": 29,
      ";": 30,
      "<": 31,
      "=": 32,
      ">": 33,
      "?": 34,
      "@": 35,
      "[": 36,
      "\\": 37,
      "]": 38,
      "^": 39,
      "_": 40,
      "`": 41,
      "a": 42,
      "b": 43,
      "c": 44,
      "d": 45,
      "e": 46,
      "f": 47,
      "g": 48,
      "h": 49,
      "i": 50,
      "j": 51,
      "k": 52,
      "l": 53,
      "m": 54,
      "n": 55,
      "o": 56,
      "p": 57,
      "q": 58,
      "r": 59,
      "s": 60,
      "t": 61,
      "u": 62,
      "v": 63,
      "w": 64,
      "x": 65,
      "y": 66,
      "z": 67,
      "{": 68,
      "|": 69,
      "}": 70,
      "~": 71,
      "¡": 72,
      "©": 73,
      "«": 74,
      "¬": 75,
      "­": 76,
      "®": 77,
      "¯": 78,
      "°": 79,
      "±": 80,
      "²": 81,
      "´": 82,
      "µ": 83,
      "·": 84,
      "º": 85,
      "»": 86,
      "¼": 87,
      "½": 88,
      "¾": 89,
      "¿": 90,
      "×": 91,
      "ß": 92,
      "÷": 93,
      "ø": 94,
      "ı": 95,
      "ł": 96,
      "œ": 97,
      "ƴ": 98,
      "˜": 99,
      "˝": 100,
      "α": 101,
      "β": 102,
      "γ": 103,
      "δ": 104,
      "ε": 105,
      "ζ": 106,
      "θ": 107,
      "λ": 108,
      "μ": 109,
      "π": 110,
      "ρ": 111,
      "τ": 112,
      "φ": 113,
      "ω": 114,
      "т": 115,
      "і": 116,
      "׳": 117,
      "ᅟ": 118,
      "​": 119,
      "‐": 120,
      "‑": 121,
      "–": 122,
      "—": 123,
      "―": 124,
      "‘": 125,
      "’": 126,
      "‚": 127,
      "“": 128,
      "”": 129,
      "„": 130,
      "†": 131,
      "‡": 132,
      "•": 133,
      "…": 134,
      "′": 135,
      "″": 136,
      "※": 137,
      "⁡": 138,
      "™": 139,
      "ⅳ": 140,
      "ⅴ": 141,
      "ⅷ": 142,
      "←": 143,
      "↑": 144,
      "→": 145,
      "↓": 146,
      "↔": 147,
      "↕": 148,
      "↦": 149,
      "↱": 150,
      "⇒": 151,
      "⇦": 152,
      "∆": 153,
      "∇": 154,
      "∈": 155,
      "∑": 156,
      "−": 157,
      "∗": 158,
      "∘": 159,
      "∞": 160,
      "∠": 161,
      "∶": 162,
      "∼": 163,
      "≈": 164,
      "≤": 165,
      "≥": 166,
      "≳": 167,
      "⊥": 168,
      "⋆": 169,
      "①": 170,
      "②": 171,
      "③": 172,
      "④": 173,
      "⑤": 174,
      "■": 175,
      "▲": 176,
      "△": 177,
      "▴": 178,
      "▶": 179,
      "▽": 180,
      "○": 181,
      "●": 182,
      "◯": 183,
      "★": 184,
      "☆": 185,
      "♀": 186,
      "♣": 187,
      "♥": 188,
      "✞": 189,
      "⟵": 190,
      "〉": 191,
      "ﬂ": 192,
      "﻿": 193,
      "𝕍": 194,
      "th": 195,
      "in": 196,
      "ra": 197,
      "on": 198,
      "te": 199,
      "the": 200,
      "al": 201,
      "an": 202,
      "ar": 203,
      "ti": 204,
      "en": 205,
      "re": 206,
      "of": 207,
      "ow": 208,
      "le": 209,
      "ri": 210,
      "ing": 211,
      "st": 212,
      "or": 213,
      "om": 214,
      "si": 215,
      "di": 216,
      "se": 217,
      "ma": 218,
      "ve": 219,
      "sh": 220,
      "la": 221,
      "tion": 222,
      "de": 223,
      "ph": 224,
      "and": 225,
      "ce": 226,
      "pe": 227,
      "og": 228,
      "show": 229,
      "ic": 230,
      "ent": 231,
      "wi": 232,
      "ct": 233,
      "ter": 234,
      "with": 235,
      "ge": 236,
      "ogra": 237,
      "ch": 238,
      "ul": 239,
      "gh": 240,
      "tra": 241,
      "ted": 242,
      "ro": 243,
      "as": 244,
      "ol": 245,
      "us": 246,
      "at": 247,
      "ograph": 248,
      "is": 249,
      "row": 250,
      "arrow": 251,
      "ed": 252,
      "ral": 253,
      "po": 254,
      "showing": 255,
      "um": 256,
      "pa": 257,
      "to": 258,
      "sc": 259,
      "ght": 260,
      "ft": 261,
      "tic": 262,
      "con": 263,
      "su": 264,
      "un": 265,
      "left": 266,
      "right": 267,
      "ima": 268,
      "sion": 269,
      "me": 270,
      "ne": 271,
      "id": 272,
      "com": 273,
      "it": 274,
      "ca": 275,
      "res": 276,
      "teri": 277,
      "be": 278,
      "he": 279,
      "ss": 280,
      "mon": 281,
      "lo": 282,
      "no": 283,
      "ab": 284,
      "ography": 285,
      "ad": 286,
      "ly": 287,
      ").": 288,
      "comp": 289,
      "image": 290,
      "ation": 291,
      "il": 292,
      "vi": 293,
      "ten": 294,
      "mal": 295,
      "radi": 296,
      "ur": 297,
      "tom": 298,
      "ment": 299,
      "we": 300,
      "ction": 301,
      "scan": 302,
      "fe": 303,
      "ance": 304,
      "ary": 305,
      "ure": 306,
      "cor": 307,
      "ular": 308,
      "li": 309,
      "ver": 310,
      "xi": 311,
      "late": 312,
      "che": 313,
      "per": 314,
      "terior": 315,
      "tive": 316,
      "ta": 317,
      "low": 318,
      "inal": 319,
      "ine": 320,
      "shows": 321,
      "fi": 322,
      "ac": 323,
      "sis": 324,
      "du": 325,
      "ex": 326,
      "hi": 327,
      "tal": 328,
      "rom": 329,
      "ci": 330,
      "lateral": 331,
      "ye": 332,
      "sp": 333,
      "compu": 334,
      "stra": 335,
      "tomography": 336,
      "mo": 337,
      "radiograph": 338,
      "gi": 339,
      "op": 340,
      "dom": 341,
      "so": 342,
      "ous": 343,
      "one": 344,
      "contra": 345,
      "pro": 346,
      "mass": 347,
      "lu": 348,
      "car": 349,
      "computed": 350,
      "peri": 351,
      "af": 352,
      "contrast": 353,
      "chest": 354,
      "vie": 355,
      "hy": 356,
      "xial": 357,
      "axial": 358,
      "up": 359,
      "lesion": 360,
      "view": 361,
      "ag": 362,
      "abdom": 363,
      "bi": 364,
      "ap": 365,
      "demon": 366,
      "demonstra": 367,
      "ric": 368,
      "are": 369,
      "for": 370,
      "ora": 371,
      "after": 372,
      "ple": 373,
      "was": 374,
      "enh": 375,
      "lar": 376,
      "pati": 377,
      "tery": 378,
      "cy": 379,
      "ope": 380,
      "ut": 381,
      "und": 382,
      "pos": 383,
      "artery": 384,
      "patient": 385,
      "ray": 386,
      "coron": 387,
      "cal": 388,
      "ting": 389,
      "opera": 390,
      "year": 391,
      "qu": 392,
      "ical": 393,
      "gn": 394,
      "from": 395,
      "mri": 396,
      "bo": 397,
      "operative": 398,
      "rea": 399,
      "co": 400,
      "post": 401,
      "enhance": 402,
      "tran": 403,
      "er": 404,
      "ty": 405,
      "fo": 406,
      "arrows": 407,
      "pre": 408,
      "ck": 409,
      "posterior": 410,
      "es": 411,
      "ir": 412,
      "large": 413,
      "bra": 414,
      "all": 415,
      "dia": 416,
      "ence": 417,
      "tes": 418,
      "tis": 419,
      "ding": 420,
      "sed": 421,
      "old": 422,
      "pres": 423,
      "der": 424,
      "anterior": 425,
      "ob": 426,
      "ogram": 427,
      "ane": 428,
      "col": 429,
      "vent": 430,
      "whi": 431,
      "sub": 432,
      "line": 433,
      "ru": 434,
      "cho": 435,
      "head": 436,
      "par": 437,
      "do": 438,
      "pan": 439,
      "angi": 440,
      "den": 441,
      "ll": 442,
      "by": 443,
      "tum": 444,
      "ste": 445,
      "inter": 446,
      "igh": 447,
      "white": 448,
      "pla": 449,
      "ant": 450,
      "cardi": 451,
      "sign": 452,
      "ity": 453,
      "fu": 454,
      "cle": 455,
      "coronal": 456,
      "ventric": 457,
      "bla": 458,
      "thora": 459,
      "veal": 460,
      "am": 461,
      "lv": 462,
      "reveal": 463,
      "intra": 464,
      "weigh": 465,
      "side": 466,
      "fic": 467,
      "weighted": 468,
      "abdominal": 469,
      "dist": 470,
      "ultra": 471,
      "demonstrating": 472,
      "dy": 473,
      "flu": 474,
      "cm": 475,
      "ron": 476,
      "ging": 477,
      "t2": 478,
      "age": 479,
      "fra": 480,
      "sag": 481,
      "pl": 482,
      "oma": 483,
      "int": 484,
      "ran": 485,
      "mul": 486,
      "nor": 487,
      "sagit": 488,
      "enhanced": 489,
      "sur": 490,
      "normal": 491,
      "stru": 492,
      "gne": 493,
      "ula": 494,
      "mi": 495,
      "trans": 496,
      "ble": 497,
      "sagittal": 498,
      "ven": 499,
      "echo": 500,
      "magne": 501,
      "lun": 502,
      "pul": 503,
      "wall": 504,
      "magnetic": 505,
      "imaging": 506,
      "ick": 507,
      "multi": 508,
      "ined": 509,
      "reson": 510,
      "lobe": 511,
      "),": 512,
      "resonance": 513,
      "bilateral": 514,
      "ogen": 515,
      "cture": 516,
      "mm": 517,
      "val": 518,
      "ren": 519,
      "lung": 520,
      "thick": 521,
      "man": 522,
      "red": 523,
      "bone": 524,
      "wh": 525,
      "crea": 526,
      "mar": 527,
      "inten": 528,
      "out": 529,
      "ong": 530,
      "abdomen": 531,
      "smal": 532,
      "aor": 533,
      "tent": 534,
      "t1": 535,
      "ill": 536,
      "ffu": 537,
      "sy": 538,
      "pelv": 539,
      "im": 540,
      "mid": 541,
      "el": 542,
      "ase": 543,
      "sity": 544,
      "pulmon": 545,
      "seen": 546,
      "opa": 547,
      "showed": 548,
      "stic": 549,
      "vel": 550,
      "month": 551,
      "tumor": 552,
      "section": 553,
      "pulmonary": 554,
      "lower": 555,
      "exten": 556,
      "ini": 557,
      "nal": 558,
      "hypo": 559,
      "ga": 560,
      "level": 561,
      "small": 562,
      "meas": 563,
      "cular": 564,
      "inf": 565,
      "tu": 566,
      "tissu": 567,
      "vol": 568,
      "je": 569,
      "upper": 570,
      "tero": 571,
      "regi": 572,
      "fa": 573,
      "region": 574,
      "sound": 575,
      "this": 576,
      "ys": 577,
      "da": 578,
      "hyper": 579,
      "ultrasound": 580,
      "vein": 581,
      "mic": 582,
      "rv": 583,
      "cent": 584,
      "ated": 585,
      "present": 586,
      "well": 587,
      "sse": 588,
      "can": 589,
      "posi": 590,
      "tro": 591,
      "mus": 592,
      "fol": 593,
      "multiple": 594,
      "por": 595,
      "tial": 596,
      "oc": 597,
      "renal": 598,
      "ang": 599,
      "ural": 600,
      "mph": 601,
      "indi": 602,
      "atri": 603,
      "gment": 604,
      "brain": 605,
      "tissue": 606,
      "que": 607,
      "med": 608,
      "cyst": 609,
      "fracture": 610,
      "follow": 611,
      "into": 612,
      "thro": 613,
      "case": 614,
      "dila": 615,
      "cted": 616,
      "postoperative": 617,
      "para": 618,
      "cav": 619,
      "medi": 620,
      "distal": 621,
      "ventricle": 622,
      "iz": 623,
      "bral": 624,
      "mis": 625,
      "cess": 626,
      "media": 627,
      "bet": 628,
      "that": 629,
      "within": 630,
      "sin": 631,
      "fication": 632,
      "liver": 633,
      "area": 634,
      "ening": 635,
      "verte": 636,
      "infe": 637,
      "len": 638,
      "ween": 639,
      "months": 640,
      "between": 641,
      "ke": 642,
      "ugh": 643,
      "ded": 644,
      "ber": 645,
      "ich": 646,
      "fluid": 647,
      "dis": 648,
      "rior": 649,
      "sa": 650,
      "ital": 651,
      "ced": 652,
      "ree": 653,
      "ili": 654,
      "which": 655,
      "demonstrates": 656,
      "there": 657,
      "od": 658,
      "appe": 659,
      "son": 660,
      "arrowhead": 661,
      "superi": 662,
      "ximal": 663,
      "ial": 664,
      "sol": 665,
      "black": 666,
      "gra": 667,
      "ges": 668,
      "cystic": 669,
      "signal": 670,
      "calci": 671,
      "air": 672,
      "ved": 673,
      "vas": 674,
      "duct": 675,
      "lum": 676,
      "tw": 677,
      "fir": 678,
      "high": 679,
      "soph": 680,
      "male": 681,
      "dder": 682,
      "cic": 683,
      "ser": 684,
      "loca": 685,
      "ot": 686,
      "pace": 687,
      "segment": 688,
      "note": 689,
      "bladder": 690,
      "measure": 691,
      "sof": 692,
      "sive": 693,
      "pelvis": 694,
      "proximal": 695,
      "pi": 696,
      "coronary": 697,
      "comple": 698,
      "fat": 699,
      "angiography": 700,
      "sta": 701,
      "superior": 702,
      "both": 703,
      "through": 704,
      "struction": 705,
      "scop": 706,
      "ogene": 707,
      "long": 708,
      "ry": 709,
      "thoracic": 710,
      "arteri": 711,
      "non": 712,
      "oid": 713,
      "space": 714,
      "lymph": 715,
      "patic": 716,
      "uring": 717,
      "echocardi": 718,
      "ax": 719,
      "jo": 720,
      "soft": 721,
      "preoperative": 722,
      "indica": 723,
      "rect": 724,
      "mark": 725,
      "enhancement": 726,
      "femo": 727,
      "ffusion": 728,
      "tical": 729,
      "fect": 730,
      "thorax": 731,
      "kid": 732,
      "oste": 733,
      "kidne": 734,
      "men": 735,
      "ori": 736,
      "hepatic": 737,
      "solid": 738,
      "reat": 739,
      "round": 740,
      "muscle": 741,
      "chan": 742,
      "abs": 743,
      "not": 744,
      "invol": 745,
      "aneur": 746,
      "def": 747,
      "et": 748,
      "bow": 749,
      "gin": 750,
      "meta": 751,
      "position": 752,
      "sk": 753,
      "thy": 754,
      "inferior": 755,
      "two": 756,
      "cro": 757,
      "femoral": 758,
      "cing": 759,
      "antero": 760,
      "bar": 761,
      "sup": 762,
      "occ": 763,
      "pleural": 764,
      "ogeneous": 765,
      "cere": 766,
      "body": 767,
      "illary": 768,
      "angle": 769,
      "sep": 770,
      "atrium": 771,
      "cerv": 772,
      "were": 773,
      "cen": 774,
      "olu": 775,
      "revealed": 776,
      "bular": 777,
      "transver": 778,
      "aneurys": 779,
      "reg": 780,
      "ventricular": 781,
      "ner": 782,
      "phy": 783,
      "cir": 784,
      "spla": 785,
      "aneurysm": 786,
      "sal": 787,
      "jection": 788,
      "joint": 789,
      "internal": 790,
      "mandi": 791,
      "also": 792,
      "sinus": 793,
      "pne": 794,
      "cervical": 795,
      "neck": 796,
      "ni": 797,
      "fig": 798,
      "cement": 799,
      "angiogram": 800,
      "gast": 801,
      "lesions": 802,
      "cathe": 803,
      "ographic": 804,
      "venous": 805,
      "flow": 806,
      "rib": 807,
      "thickening": 808,
      "max": 809,
      "spine": 810,
      "kidney": 811,
      "effusion": 812,
      "vid": 813,
      "pic": 814,
      "em": 815,
      "les": 816,
      "aortic": 817,
      "ie": 818,
      "intensity": 819,
      "mediast": 820,
      "medial": 821,
      "10": 822,
      "point": 823,
      "pect": 824,
      "transverse": 825,
      "ory": 826,
      "compres": 827,
      "tid": 828,
      "mission": 829,
      "images": 830,
      "sac": 831,
      "throm": 832,
      "apical": 833,
      "pse": 834,
      "olar": 835,
      "heter": 836,
      "defined": 837,
      "enlarge": 838,
      "hip": 839,
      "bowel": 840,
      "cut": 841,
      "ving": 842,
      "mr": 843,
      "pancrea": 844,
      "without": 845,
      "20": 846,
      "end": 847,
      "olog": 848,
      "intense": 849,
      "vertebral": 850,
      "complete": 851,
      "secon": 852,
      "os": 853,
      "sug": 854,
      "tation": 855,
      "second": 856,
      "ate": 857,
      "ating": 858,
      "catheter": 859,
      "mat": 860,
      "aorta": 861,
      "perit": 862,
      "sing": 863,
      "cla": 864,
      "pneum": 865,
      "using": 866,
      "panora": 867,
      "treat": 868,
      "meter": 869,
      "axis": 870,
      "nosis": 871,
      "fore": 872,
      "formed": 873,
      "cur": 874,
      "diffu": 875,
      "treatment": 876,
      "calcification": 877,
      "panoramic": 878,
      "rance": 879,
      "peritone": 880,
      "sli": 881,
      "nodu": 882,
      "vascular": 883,
      "diffuse": 884,
      "led": 885,
      "creased": 886,
      "ration": 887,
      "fron": 888,
      "toma": 889,
      "otid": 890,
      "density": 891,
      "esoph": 892,
      "ome": 893,
      "endo": 894,
      "face": 895,
      "inc": 896,
      "displa": 897,
      "exam": 898,
      "tem": 899,
      "ties": 900,
      "ture": 901,
      "des": 902,
      "extra": 903,
      "defect": 904,
      "cum": 905,
      "phal": 906,
      "uter": 907,
      "arance": 908,
      "ual": 909,
      "dilated": 910,
      "fied": 911,
      "scopic": 912,
      "ape": 913,
      "her": 914,
      "ud": 915,
      "siz": 916,
      "dema": 917,
      "cin": 918,
      "inte": 919,
      "ene": 920,
      "mation": 921,
      "chy": 922,
      "part": 923,
      "edema": 924,
      "pancreatic": 925,
      "appearance": 926,
      "ternal": 927,
      "seve": 928,
      "dle": 929,
      "impl": 930,
      "aneous": 931,
      "central": 932,
      "our": 933,
      "anteroposterior": 934,
      "sti": 935,
      "ret": 936,
      "spinal": 937,
      "ancing": 938,
      "ume": 939,
      "enhancing": 940,
      "ures": 941,
      "cavity": 942,
      "pat": 943,
      "shor": 944,
      "yel": 945,
      "main": 946,
      "fin": 947,
      "omy": 948,
      "plain": 949,
      "tained": 950,
      "reveals": 951,
      "osis": 952,
      "ageal": 953,
      "valve": 954,
      "py": 955,
      "over": 956,
      "colon": 957,
      "ther": 958,
      "diameter": 959,
      "bron": 960,
      "ek": 961,
      "dra": 962,
      "evid": 963,
      "areas": 964,
      "middle": 965,
      "min": 966,
      "cre": 967,
      "stent": 968,
      "mil": 969,
      "phe": 970,
      "dense": 971,
      "ull": 972,
      "sistent": 973,
      "plane": 974,
      "ultrason": 975,
      "shown": 976,
      "performed": 977,
      "ind": 978,
      "common": 979,
      "pelvic": 980,
      "heterogeneous": 981,
      "marked": 982,
      "infil": 983,
      "infiltra": 984,
      "sequ": 985,
      "adj": 986,
      "tibi": 987,
      "measurement": 988,
      "first": 989,
      "canal": 990,
      "diag": 991,
      "week": 992,
      "cran": 993,
      "asal": 994,
      "carotid": 995,
      "short": 996,
      "ha": 997,
      "revealing": 998,
      "initial": 999,
      "surge": 1000,
      "finding": 1001,
      "ds": 1002,
      "regular": 1003,
      "obli": 1004,
      "oro": 1005,
      "years": 1006,
      "sible": 1007,
      "abnormal": 1008,
      "ization": 1009,
      "iliac": 1010,
      "frontal": 1011,
      "va": 1012,
      "recon": 1013,
      "bro": 1014,
      "pon": 1015,
      "acent": 1016,
      "oden": 1017,
      "due": 1018,
      "ctive": 1019,
      "bronch": 1020,
      "surgery": 1021,
      "adjacent": 1022,
      "fil": 1023,
      "land": 1024,
      "represent": 1025,
      "implant": 1026,
      "ign": 1027,
      "colle": 1028,
      "vesse": 1029,
      "vessel": 1030,
      "opaci": 1031,
      "extending": 1032,
      "jun": 1033,
      "along": 1034,
      "ii": 1035,
      "increased": 1036,
      "sen": 1037,
      "ps": 1038,
      "retro": 1039,
      "disc": 1040,
      "involving": 1041,
      "maxillary": 1042,
      "brea": 1043,
      "tern": 1044,
      "aspect": 1045,
      "figure": 1046,
      "location": 1047,
      "nerve": 1048,
      "ses": 1049,
      "carcin": 1050,
      "cutaneous": 1051,
      "root": 1052,
      "form": 1053,
      "ulated": 1054,
      "mor": 1055,
      "tab": 1056,
      "teric": 1057,
      "rela": 1058,
      "severe": 1059,
      "blo": 1060,
      "peritoneal": 1061,
      "bol": 1062,
      "soci": 1063,
      "12": 1064,
      "desc": 1065,
      "irregular": 1066,
      "ub": 1067,
      "ized": 1068,
      "plate": 1069,
      "ts": 1070,
      "ep": 1071,
      "cham": 1072,
      "iv": 1073,
      "rh": 1074,
      "enlarged": 1075,
      "cell": 1076,
      "pseu": 1077,
      "aden": 1078,
      "occlu": 1079,
      "oman": 1080,
      "associ": 1081,
      "art": 1082,
      "vis": 1083,
      "chamber": 1084,
      "type": 1085,
      "presence": 1086,
      "ken": 1087,
      "duoden": 1088,
      "tube": 1089,
      "fill": 1090,
      "consistent": 1091,
      "hom": 1092,
      "stoma": 1093,
      "trache": 1094,
      "four": 1095,
      "thin": 1096,
      "formation": 1097,
      "ogenic": 1098,
      "pr": 1099,
      "mediastinal": 1100,
      "fle": 1101,
      "located": 1102,
      "splen": 1103,
      "ari": 1104,
      "mandibular": 1105,
      "collection": 1106,
      "during": 1107,
      "bran": 1108,
      "pseudo": 1109,
      "its": 1110,
      "matoma": 1111,
      "woman": 1112,
      "molar": 1113,
      "llar": 1114,
      "gest": 1115,
      "carcinoma": 1116,
      "thera": 1117,
      "ination": 1118,
      "under": 1119,
      "day": 1120,
      "gu": 1121,
      "metasta": 1122,
      "bor": 1123,
      "female": 1124,
      "phase": 1125,
      "cortical": 1126,
      "size": 1127,
      "clo": 1128,
      "sus": 1129,
      "mode": 1130,
      "redu": 1131,
      "fluoro": 1132,
      "served": 1133,
      "three": 1134,
      "fist": 1135,
      "olution": 1136,
      "au": 1137,
      "same": 1138,
      "ending": 1139,
      "obtained": 1140,
      "pal": 1141,
      "dise": 1142,
      "resolution": 1143,
      "compression": 1144,
      "fora": 1145,
      "stem": 1146,
      "following": 1147,
      "fer": 1148,
      "paren": 1149,
      "sequence": 1150,
      "fla": 1151,
      "therapy": 1152,
      "bus": 1153,
      "bile": 1154,
      "sided": 1155,
      "abscess": 1156,
      "echoic": 1157,
      "evidence": 1158,
      "parenchy": 1159,
      "gastric": 1160,
      "disease": 1161,
      "portion": 1162,
      "enti": 1163,
      "dro": 1164,
      "sugges": 1165,
      "tempo": 1166,
      "associated": 1167,
      "tenu": 1168,
      "orb": 1169,
      "cord": 1170,
      "stenosis": 1171,
      "filling": 1172,
      "has": 1173,
      "dop": 1174,
      "pler": 1175,
      "signi": 1176,
      "echocardiography": 1177,
      "doppler": 1178,
      "gland": 1179,
      "ute": 1180,
      "injection": 1181,
      "bul": 1182,
      "ulation": 1183,
      "ole": 1184,
      "ak": 1185,
      "don": 1186,
      "breast": 1187,
      "margin": 1188,
      "signific": 1189,
      "rup": 1190,
      "ju": 1191,
      "confir": 1192,
      "mesen": 1193,
      "arrowheads": 1194,
      "pen": 1195,
      "ound": 1196,
      "oblique": 1197,
      "thir": 1198,
      "pneumo": 1199,
      "yellow": 1200,
      "admission": 1201,
      "significant": 1202,
      "ech": 1203,
      "ining": 1204,
      "cerebral": 1205,
      "measuring": 1206,
      "mild": 1207,
      "embol": 1208,
      "gre": 1209,
      "reconstruction": 1210,
      "gall": 1211,
      "shape": 1212,
      "surround": 1213,
      "temporal": 1214,
      "oral": 1215,
      "site": 1216,
      "blu": 1217,
      "oth": 1218,
      "ness": 1219,
      "cardial": 1220,
      "noted": 1221,
      "free": 1222,
      "attenu": 1223,
      "focal": 1224,
      "weeks": 1225,
      "loop": 1226,
      "herni": 1227,
      "mu": 1228,
      "visible": 1229,
      "demonstrated": 1230,
      "descending": 1231,
      "city": 1232,
      "rim": 1233,
      "oly": 1234,
      "taken": 1235,
      "dilatation": 1236,
      "nee": 1237,
      "stomach": 1238,
      "changes": 1239,
      "observed": 1240,
      "ach": 1241,
      "aly": 1242,
      "vement": 1243,
      "indicates": 1244,
      "narrow": 1245,
      "pet": 1246,
      "creas": 1247,
      "18": 1248,
      "but": 1249,
      "rag": 1250,
      "ctures": 1251,
      "opan": 1252,
      "clear": 1253,
      "like": 1254,
      "surrounding": 1255,
      "radiography": 1256,
      "fem": 1257,
      "ight": 1258,
      "cau": 1259,
      "placement": 1260,
      "suggestive": 1261,
      "orth": 1262,
      "before": 1263,
      "zed": 1264,
      "portal": 1265,
      "border": 1266,
      "knee": 1267,
      "appear": 1268,
      "ces": 1269,
      "thyro": 1270,
      "vena": 1271,
      "third": 1272,
      "hematoma": 1273,
      "findings": 1274,
      "wa": 1275,
      "met": 1276,
      "pancreas": 1277,
      "extensive": 1278,
      "infla": 1279,
      "thrombus": 1280,
      "around": 1281,
      "scre": 1282,
      "fix": 1283,
      "my": 1284,
      "femur": 1285,
      "ultrasonography": 1286,
      "able": 1287,
      "cranial": 1288,
      "blue": 1289,
      "hemi": 1290,
      "surface": 1291,
      "ia": 1292,
      "cava": 1293,
      "tral": 1294,
      "cardiac": 1295,
      "take": 1296,
      "wind": 1297,
      "phrag": 1298,
      "sho": 1299,
      "consolid": 1300,
      "cta": 1301,
      "ard": 1302,
      "acute": 1303,
      "gro": 1304,
      "circum": 1305,
      "stu": 1306,
      "moid": 1307,
      "examination": 1308,
      "window": 1309,
      "uni": 1310,
      "diaphrag": 1311,
      "distance": 1312,
      "na": 1313,
      "sia": 1314,
      "calc": 1315,
      "hypoechoic": 1316,
      "inser": 1317,
      "visual": 1318,
      "ring": 1319,
      "most": 1320,
      "aryn": 1321,
      "fistula": 1322,
      "inum": 1323,
      "need": 1324,
      "vertebra": 1325,
      "plan": 1326,
      "uptake": 1327,
      "lumbar": 1328,
      "supra": 1329,
      "11": 1330,
      "eth": 1331,
      "fiel": 1332,
      "intest": 1333,
      "measured": 1334,
      "dor": 1335,
      "ho": 1336,
      "ba": 1337,
      "ticular": 1338,
      "scle": 1339,
      "radiolu": 1340,
      "esophag": 1341,
      "tri": 1342,
      "mini": 1343,
      "tor": 1344,
      "base": 1345,
      "thyroid": 1346,
      "consolidation": 1347,
      "gen": 1348,
      "cer": 1349,
      "vious": 1350,
      "tely": 1351,
      "gad": 1352,
      "fusion": 1353,
      "projection": 1354,
      "15": 1355,
      "sses": 1356,
      "origin": 1357,
      "cl": 1358,
      "ele": 1359,
      "unt": 1360,
      "ara": 1361,
      "nodule": 1362,
      "conta": 1363,
      "hyperintense": 1364,
      "periphe": 1365,
      "dimen": 1366,
      "total": 1367,
      "dif": 1368,
      "respon": 1369,
      "heart": 1370,
      "ning": 1371,
      "arterial": 1372,
      "splenic": 1373,
      "mesenteric": 1374,
      "appro": 1375,
      "valu": 1376,
      "ile": 1377,
      "color": 1378,
      "pattern": 1379,
      "screw": 1380,
      "dimension": 1381,
      "vari": 1382,
      "nodes": 1383,
      "had": 1384,
      "vic": 1385,
      "cephal": 1386,
      "shad": 1387,
      "tract": 1388,
      "lumen": 1389,
      "process": 1390,
      "study": 1391,
      "tex": 1392,
      "leng": 1393,
      "shadow": 1394,
      "echocardiogram": 1395,
      "peripheral": 1396,
      "zone": 1397,
      "extension": 1398,
      "needle": 1399,
      "partial": 1400,
      "bon": 1401,
      "thickness": 1402,
      "hemor": 1403,
      "osteo": 1404,
      "subcutaneous": 1405,
      "atrial": 1406,
      "arteries": 1407,
      "ium": 1408,
      "vag": 1409,
      "tendon": 1410,
      "blood": 1411,
      "itary": 1412,
      "echogenic": 1413,
      "arch": 1414,
      "go": 1415,
      "cross": 1416,
      "tip": 1417,
      "asteri": 1418,
      "lines": 1419,
      "cap": 1420,
      "mitral": 1421,
      "curr": 1422,
      "hemorrh": 1423,
      "olini": 1424,
      "nodules": 1425,
      "vessels": 1426,
      "gadolini": 1427,
      "epi": 1428,
      "mandible": 1429,
      "rest": 1430,
      "tumour": 1431,
      "shoul": 1432,
      "time": 1433,
      "necro": 1434,
      "gadolinium": 1435,
      "rum": 1436,
      "geal": 1437,
      "ureth": 1438,
      "graft": 1439,
      "loss": 1440,
      "junction": 1441,
      "ying": 1442,
      "obstruction": 1443,
      "sclero": 1444,
      "nod": 1445,
      "iso": 1446,
      "node": 1447,
      "fd": 1448,
      "tin": 1449,
      "uma": 1450,
      "aris": 1451,
      "gas": 1452,
      "periapical": 1453,
      "length": 1454,
      "gla": 1455,
      "depic": 1456,
      "tr": 1457,
      "let": 1458,
      "resul": 1459,
      "ef": 1460,
      "velo": 1461,
      "local": 1462,
      "liga": 1463,
      "external": 1464,
      "mphy": 1465,
      "sternal": 1466,
      "septal": 1467,
      "une": 1468,
      "cerebe": 1469,
      "ological": 1470,
      "hil": 1471,
      "dual": 1472,
      "lic": 1473,
      "occlusion": 1474,
      "laye": 1475,
      "expan": 1476,
      "ligament": 1477,
      "cance": 1478,
      "fibro": 1479,
      "placed": 1480,
      "bal": 1481,
      "ented": 1482,
      "pendi": 1483,
      "hist": 1484,
      "opacity": 1485,
      "sure": 1486,
      "ureter": 1487,
      "sophageal": 1488,
      "adrenal": 1489,
      "more": 1490,
      "volume": 1491,
      "esophageal": 1492,
      "asterisk": 1493,
      "ground": 1494,
      "resi": 1495,
      "shi": 1496,
      "infar": 1497,
      "slice": 1498,
      "branch": 1499,
      "gui": 1500,
      "micro": 1501,
      "pas": 1502,
      "pical": 1503,
      "parie": 1504,
      "inva": 1505,
      "she": 1506,
      "gallbladder": 1507,
      "occi": 1508,
      "ped": 1509,
      "rant": 1510,
      "sty": 1511,
      "computeri": 1512,
      "orthopan": 1513,
      "ace": 1514,
      "compon": 1515,
      "fdg": 1516,
      "eye": 1517,
      "radiographic": 1518,
      "endoscopic": 1519,
      "component": 1520,
      "ogenous": 1521,
      "glass": 1522,
      "hype": 1523,
      "days": 1524,
      "rate": 1525,
      "recurr": 1526,
      "lying": 1527,
      "cancer": 1528,
      "mp": 1529,
      "tail": 1530,
      "other": 1531,
      "reduction": 1532,
      "quad": 1533,
      "syn": 1534,
      "drain": 1535,
      "14": 1536,
      "cting": 1537,
      "parenchyma": 1538,
      "path": 1539,
      "tomographic": 1540,
      "ove": 1541,
      "pharyn": 1542,
      "grade": 1543,
      "bony": 1544,
      "intravenous": 1545,
      "devi": 1546,
      "dep": 1547,
      "inj": 1548,
      "scal": 1549,
      "asci": 1550,
      "opacities": 1551,
      "pital": 1552,
      "iliary": 1553,
      "fur": 1554,
      "leen": 1555,
      "vian": 1556,
      "gene": 1557,
      "transthoracic": 1558,
      "leak": 1559,
      "spleen": 1560,
      "cus": 1561,
      "ssa": 1562,
      "radio": 1563,
      "tooth": 1564,
      "dorsal": 1565,
      "thrombo": 1566,
      "used": 1567,
      "than": 1568,
      "postero": 1569,
      "shaped": 1570,
      "nodular": 1571,
      "13": 1572,
      "near": 1573,
      "skull": 1574,
      "suggest": 1575,
      "diagno": 1576,
      "stone": 1577,
      "pericardial": 1578,
      "itud": 1579,
      "scopy": 1580,
      "tru": 1581,
      "ontal": 1582,
      "dete": 1583,
      "dural": 1584,
      "longitud": 1585,
      "system": 1586,
      "inflam": 1587,
      "longitudinal": 1588,
      "very": 1589,
      "shoulder": 1590,
      "ms": 1591,
      "fossa": 1592,
      "pseudoaneurysm": 1593,
      "layer": 1594,
      "identi": 1595,
      "opathy": 1596,
      "hypodense": 1597,
      "attenuation": 1598,
      "chol": 1599,
      "circle": 1600,
      "spin": 1601,
      "xim": 1602,
      "structure": 1603,
      "homogeneous": 1604,
      "acetab": 1605,
      "ened": 1606,
      "septum": 1607,
      "ast": 1608,
      "cating": 1609,
      "mediastinum": 1610,
      "esophagus": 1611,
      "occipital": 1612,
      "midline": 1613,
      "computerized": 1614,
      "50": 1615,
      "single": 1616,
      "rated": 1617,
      "uterine": 1618,
      "wire": 1619,
      "presentation": 1620,
      "muco": 1621,
      "ury": 1622,
      "injury": 1623,
      "remo": 1624,
      "trant": 1625,
      "transe": 1626,
      "previous": 1627,
      "indicated": 1628,
      "lla": 1629,
      "correspon": 1630,
      "biop": 1631,
      "absence": 1632,
      "choic": 1633,
      "typical": 1634,
      "condy": 1635,
      "montrant": 1636,
      "gastro": 1637,
      "ption": 1638,
      "tach": 1639,
      "intestinal": 1640,
      "linear": 1641,
      "surg": 1642,
      "hemorrhage": 1643,
      "rogra": 1644,
      "ascen": 1645,
      "pole": 1646,
      "uble": 1647,
      "stri": 1648,
      "pneumothorax": 1649,
      "narrowing": 1650,
      "gital": 1651,
      "indicating": 1652,
      "30": 1653,
      "here": 1654,
      "calcifications": 1655,
      "infiltration": 1656,
      "caud": 1657,
      "filled": 1658,
      "surgical": 1659,
      "involvement": 1660,
      "arising": 1661,
      "green": 1662,
      "mas": 1663,
      "subcla": 1664,
      "ental": 1665,
      "residual": 1666,
      "itis": 1667,
      "cortex": 1668,
      "loops": 1669,
      "transesophageal": 1670,
      "sthe": 1671,
      "cour": 1672,
      "duodenum": 1673,
      "parietal": 1674,
      "ear": 1675,
      "rupture": 1676,
      "tional": 1677,
      "diaphragm": 1678,
      "pain": 1679,
      "open": 1680,
      "fixation": 1681,
      "presented": 1682,
      "clavic": 1683,
      "tibial": 1684,
      "ascending": 1685,
      "contro": 1686,
      "lob": 1687,
      "dose": 1688,
      "thickened": 1689,
      "matter": 1690,
      "caudal": 1691,
      "subclavian": 1692,
      "thal": 1693,
      "revi": 1694,
      "ond": 1695,
      "stal": 1696,
      "ero": 1697,
      "arge": 1698,
      "regions": 1699,
      "enlargement": 1700,
      "flex": 1701,
      "pate": 1702,
      "ling": 1703,
      "ulum": 1704,
      "who": 1705,
      "av": 1706,
      "prom": 1707,
      "cu": 1708,
      "lead": 1709,
      "oriz": 1710,
      "points": 1711,
      "illu": 1712,
      "metastasis": 1713,
      "illustra": 1714,
      "anat": 1715,
      "double": 1716,
      "example": 1717,
      "hypere": 1718,
      "ping": 1719,
      "ches": 1720,
      "horiz": 1721,
      "lobes": 1722,
      "tracheal": 1723,
      "horizontal": 1724,
      "bri": 1725,
      "unic": 1726,
      "basal": 1727,
      "yed": 1728,
      "heal": 1729,
      "tibia": 1730,
      "biopsy": 1731,
      "super": 1732,
      "terial": 1733,
      "diagnosis": 1734,
      "io": 1735,
      "arthro": 1736,
      "calcified": 1737,
      "maxim": 1738,
      "cysts": 1739,
      "orthopantom": 1740,
      "amo": 1741,
      "set": 1742,
      "disten": 1743,
      "nasal": 1744,
      "teeth": 1745,
      "maximum": 1746,
      "structures": 1747,
      "ire": 1748,
      "ology": 1749,
      "ath": 1750,
      "pid": 1751,
      "ank": 1752,
      "conto": 1753,
      "rectal": 1754,
      "inclu": 1755,
      "etri": 1756,
      "glu": 1757,
      "mb": 1758,
      "uro": 1759,
      "rome": 1760,
      "parasternal": 1761,
      "uterus": 1762,
      "mphyse": 1763,
      "ave": 1764,
      "field": 1765,
      "nu": 1766,
      "slight": 1767,
      "retroperitoneal": 1768,
      "phro": 1769,
      "hu": 1770,
      "colla": 1771,
      "apex": 1772,
      "fluoroscopic": 1773,
      "spe": 1774,
      "wal": 1775,
      "traction": 1776,
      "ctomy": 1777,
      "illa": 1778,
      "control": 1779,
      "sat": 1780,
      "sig": 1781,
      "hand": 1782,
      "develo": 1783,
      "prior": 1784,
      "metastatic": 1785,
      "tila": 1786,
      "center": 1787,
      "orbital": 1788,
      "tinu": 1789,
      "emphyse": 1790,
      "optic": 1791,
      "dimensional": 1792,
      "cp": 1793,
      "displacement": 1794,
      "dislocation": 1795,
      "promin": 1796,
      "cul": 1797,
      "mem": 1798,
      "urin": 1799,
      "prosthe": 1800,
      "emphysema": 1801,
      "confirmed": 1802,
      "fact": 1803,
      "loon": 1804,
      "qui": 1805,
      "200": 1806,
      "lungs": 1807,
      "immedia": 1808,
      "material": 1809,
      "olic": 1810,
      "balloon": 1811,
      "prim": 1812,
      "metal": 1813,
      "radiographs": 1814,
      "vertical": 1815,
      "sele": 1816,
      "ribed": 1817,
      "conne": 1818,
      "insertion": 1819,
      "omeg": 1820,
      "pt": 1821,
      "sacral": 1822,
      "ution": 1823,
      "ronic": 1824,
      "cency": 1825,
      "duodenal": 1826,
      "sigmoid": 1827,
      "comm": 1828,
      "masses": 1829,
      "opaque": 1830,
      "sinu": 1831,
      "massive": 1832,
      "primary": 1833,
      "oval": 1834,
      "destruction": 1835,
      "term": 1836,
      "hydro": 1837,
      "welling": 1838,
      "urinary": 1839,
      "ctasis": 1840,
      "later": 1841,
      "eding": 1842,
      "cerebellar": 1843,
      "biliary": 1844,
      "ful": 1845,
      "ox": 1846,
      "causing": 1847,
      "flair": 1848,
      "phen": 1849,
      "retrogra": 1850,
      "jug": 1851,
      "quadrant": 1852,
      "suggesting": 1853,
      "membra": 1854,
      "retrograde": 1855,
      "dr": 1856,
      "version": 1857,
      "perfora": 1858,
      "extravas": 1859,
      "omegaly": 1860,
      "diast": 1861,
      "barium": 1862,
      "vaginal": 1863,
      "16": 1864,
      "xima": 1865,
      "deep": 1866,
      "alve": 1867,
      "tiv": 1868,
      "shed": 1869,
      "unded": 1870,
      "new": 1871,
      "19": 1872,
      "ared": 1873,
      "six": 1874,
      "digital": 1875,
      "swelling": 1876,
      "coil": 1877,
      "collateral": 1878,
      "edge": 1879,
      "ore": 1880,
      "ina": 1881,
      "ulus": 1882,
      "arac": 1883,
      "own": 1884,
      "charac": 1885,
      "film": 1886,
      "posit": 1887,
      "relation": 1888,
      "pit": 1889,
      "some": 1890,
      "tered": 1891,
      "diagnosed": 1892,
      "grea": 1893,
      "mmet": 1894,
      "moderate": 1895,
      "hilar": 1896,
      "ations": 1897,
      "veins": 1898,
      "hr": 1899,
      "been": 1900,
      "displaced": 1901,
      "communic": 1902,
      "pap": 1903,
      "proced": 1904,
      "cou": 1905,
      "foramen": 1906,
      "procedure": 1907,
      "lad": 1908,
      "rounded": 1909,
      ");": 1910,
      "tory": 1911,
      "necrosis": 1912,
      "thrombosis": 1913,
      "25": 1914,
      "ative": 1915,
      "bac": 1916,
      "diver": 1917,
      "lip": 1918,
      "domin": 1919,
      "feren": 1920,
      "signs": 1921,
      "capsu": 1922,
      "embolization": 1923,
      "approxima": 1924,
      "contour": 1925,
      "jugular": 1926,
      "muscles": 1927,
      "characteri": 1928,
      "tomy": 1929,
      "ases": 1930,
      "shift": 1931,
      "spl": 1932,
      "secondary": 1933,
      "incis": 1934,
      "prominent": 1935,
      "drome": 1936,
      "ullary": 1937,
      "ip": 1938,
      "ventral": 1939,
      "corresponding": 1940,
      "ite": 1941,
      "cartila": 1942,
      "trauma": 1943,
      "addi": 1944,
      "hernia": 1945,
      "star": 1946,
      "chronic": 1947,
      "adenopathy": 1948,
      "stand": 1949,
      "ivc": 1950,
      "bil": 1951,
      "emission": 1952,
      "poly": 1953,
      "separa": 1954,
      "atro": 1955,
      "clin": 1956,
      "targe": 1957,
      "fragment": 1958,
      "trachea": 1959,
      "extravasation": 1960,
      "40": 1961,
      "l5": 1962,
      "these": 1963,
      "metast": 1964,
      "suppres": 1965,
      "where": 1966,
      "distrib": 1967,
      "retinal": 1968,
      "above": 1969,
      "opla": 1970,
      "impa": 1971,
      "visualized": 1972,
      "syndrome": 1973,
      "format": 1974,
      "flo": 1975,
      "ton": 1976,
      "any": 1977,
      "ference": 1978,
      "gy": 1979,
      "pharyngeal": 1980,
      "occup": 1981,
      "lobulated": 1982,
      "fal": 1983,
      "hum": 1984,
      "reformat": 1985,
      "phalan": 1986,
      "metastases": 1987,
      "via": 1988,
      "indicate": 1989,
      "incisor": 1990,
      "):": 1991,
      "stage": 1992,
      "clearly": 1993,
      "coupe": 1994,
      "read": 1995,
      "operation": 1996,
      "tuber": 1997,
      "fun": 1998,
      "matic": 1999,
      "change": 2000,
      "group": 2001,
      "ao": 2002,
      "situ": 2003,
      "hypointense": 2004,
      "cs": 2005,
      "ossi": 2006,
      "radiolucent": 2007,
      "myo": 2008,
      "effect": 2009,
      "scale": 2010,
      "chor": 2011,
      "cx": 2012,
      "mamm": 2013,
      "hemis": 2014,
      "state": 2015,
      "pitu": 2016,
      "greater": 2017,
      "osteoly": 2018,
      "alveolar": 2019,
      "tus": 2020,
      "containing": 2021,
      "identified": 2022,
      "hal": 2023,
      "use": 2024,
      "arm": 2025,
      "attach": 2026,
      "height": 2027,
      "erosion": 2028,
      "pituitary": 2029,
      "uspid": 2030,
      "below": 2031,
      "complex": 2032,
      "homogenous": 2033,
      "hyperechoic": 2034,
      "c2": 2035,
      "tur": 2036,
      "detected": 2037,
      "resection": 2038,
      "spon": 2039,
      "foci": 2040,
      "satu": 2041,
      "foot": 2042,
      "intersti": 2043,
      "appendi": 2044,
      "dissection": 2045,
      "positron": 2046,
      "17": 2047,
      "only": 2048,
      "intraoperative": 2049,
      "final": 2050,
      "smo": 2051,
      "opacification": 2052,
      "compared": 2053,
      "trun": 2054,
      "zy": 2055,
      "cation": 2056,
      "peritoneum": 2057,
      "gestation": 2058,
      "chial": 2059,
      "ator": 2060,
      "whole": 2061,
      "jejun": 2062,
      "history": 2063,
      "drainage": 2064,
      "rl": 2065,
      "patent": 2066,
      "impro": 2067,
      "foreign": 2068,
      "minimal": 2069,
      "invasion": 2070,
      "membrane": 2071,
      "hemisphe": 2072,
      "c5": 2073,
      "tric": 2074,
      "atus": 2075,
      "bilaterally": 2076,
      "pus": 2077,
      "pli": 2078,
      "tow": 2079,
      "continu": 2080,
      "dot": 2081,
      "medium": 2082,
      "prog": 2083,
      "vertebrae": 2084,
      "dex": 2085,
      "branches": 2086,
      "appears": 2087,
      "articular": 2088,
      "scribed": 2089,
      "bronchus": 2090,
      "evalu": 2091,
      "chond": 2092,
      "spital": 2093,
      "amount": 2094,
      "divertic": 2095,
      "approximately": 2096,
      "lytic": 2097,
      "active": 2098,
      "hospital": 2099,
      "tear": 2100,
      "produ": 2101,
      "gang": 2102,
      "lobular": 2103,
      "carpal": 2104,
      "rectum": 2105,
      "physis": 2106,
      "pu": 2107,
      "leaf": 2108,
      "crease": 2109,
      "hume": 2110,
      "stration": 2111,
      "3d": 2112,
      "reco": 2113,
      "radial": 2114,
      "recurrence": 2115,
      "mmetric": 2116,
      "ler": 2117,
      "sities": 2118,
      "levels": 2119,
      "skin": 2120,
      "represents": 2121,
      "thalam": 2122,
      "interstitial": 2123,
      "ans": 2124,
      "cect": 2125,
      "nel": 2126,
      "elect": 2127,
      "mer": 2128,
      "segmental": 2129,
      "avec": 2130,
      "dominant": 2131,
      "outer": 2132,
      "infra": 2133,
      "tech": 2134,
      "picture": 2135,
      "draw": 2136,
      "way": 2137,
      "removal": 2138,
      "pedi": 2139,
      "itation": 2140,
      "fetal": 2141,
      "boy": 2142,
      "port": 2143,
      "guide": 2144,
      "sum": 2145,
      "inside": 2146,
      "locular": 2147,
      "malign": 2148,
      "found": 2149,
      "t2w": 2150,
      "hypopla": 2151,
      "margins": 2152,
      "anatom": 2153,
      "bu": 2154,
      "brevi": 2155,
      "coma": 2156,
      "ficial": 2157,
      "mix": 2158,
      "cartilage": 2159,
      "trunk": 2160,
      "pub": 2161,
      "meth": 2162,
      "cardium": 2163,
      "entire": 2164,
      "reated": 2165,
      "orbit": 2166,
      "sclerosis": 2167,
      "nume": 2168,
      "bur": 2169,
      "abbrevi": 2170,
      "acetabular": 2171,
      "tre": 2172,
      "luminal": 2173,
      "bub": 2174,
      "medullary": 2175,
      "target": 2176,
      "lymphadenopathy": 2177,
      "good": 2178,
      "depicting": 2179,
      "tricuspid": 2180,
      "ov": 2181,
      "oct": 2182,
      "pneumon": 2183,
      "close": 2184,
      "distribution": 2185,
      "24": 2186,
      "trochan": 2187,
      "infiltrates": 2188,
      "gangli": 2189,
      "rist": 2190,
      "wide": 2191,
      "herniation": 2192,
      "hrct": 2193,
      "cb": 2194,
      "leg": 2195,
      "just": 2196,
      "sheath": 2197,
      "condyle": 2198,
      "fund": 2199,
      "wor": 2200,
      "may": 2201,
      "decreased": 2202,
      "parenchymal": 2203,
      "device": 2204,
      "orthopantomogram": 2205,
      "atrophy": 2206,
      "bubble": 2207,
      "otic": 2208,
      "osse": 2209,
      "lation": 2210,
      "onephro": 2211,
      "block": 2212,
      "pun": 2213,
      "circumscribed": 2214,
      "60": 2215,
      "bones": 2216,
      "evident": 2217,
      "measurements": 2218,
      "radiolucency": 2219,
      "ascites": 2220,
      "humeral": 2221,
      "ancy": 2222,
      "fib": 2223,
      "rca": 2224,
      "structed": 2225,
      "anti": 2226,
      "rection": 2227,
      "shunt": 2228,
      "recovery": 2229,
      "ards": 2230,
      "ctively": 2231,
      "reduced": 2232,
      "hemithorax": 2233,
      "early": 2234,
      "progres": 2235,
      "l4": 2236,
      "ann": 2237,
      "relative": 2238,
      "mening": 2239,
      "treated": 2240,
      "suc": 2241,
      "fractures": 2242,
      "infarction": 2243,
      "glo": 2244,
      "ginal": 2245,
      "caver": 2246,
      "feat": 2247,
      "epid": 2248,
      "collapse": 2249,
      "cc": 2250,
      "wrist": 2251,
      "mural": 2252,
      "arcoma": 2253,
      "opg": 2254,
      "protru": 2255,
      "hypertro": 2256,
      "sized": 2257,
      "s1": 2258,
      "ssi": 2259,
      "off": 2260,
      "expansion": 2261,
      "each": 2262,
      "ject": 2263,
      "dth": 2264,
      "arth": 2265,
      "costal": 2266,
      "plasty": 2267,
      "urethra": 2268,
      "sinuses": 2269,
      "22": 2270,
      "intrahepatic": 2271,
      "compressing": 2272,
      "iii": 2273,
      "reformatted": 2274,
      "dies": 2275,
      "chemo": 2276,
      "matory": 2277,
      "curved": 2278,
      "nucle": 2279,
      "characteristic": 2280,
      "hor": 2281,
      "marrow": 2282,
      "sphen": 2283,
      "paral": 2284,
      "soas": 2285,
      "maxilla": 2286,
      "infarct": 2287,
      "lus": 2288,
      "width": 2289,
      "noid": 2290,
      "percutaneous": 2291,
      "perforation": 2292,
      "ky": 2293,
      "nas": 2294,
      "inversion": 2295,
      "less": 2296,
      "rous": 2297,
      "limb": 2298,
      "inflammatory": 2299,
      "capsule": 2300,
      "ins": 2301,
      "ritis": 2302,
      "see": 2303,
      "speci": 2304,
      "papillary": 2305,
      "clinical": 2306,
      "atal": 2307,
      "scans": 2308,
      "epidural": 2309,
      "c6": 2310,
      "chole": 2311,
      "segments": 2312,
      "mucosal": 2313,
      "occupying": 2314,
      "diffusion": 2315,
      "oli": 2316,
      "erus": 2317,
      "result": 2318,
      "oxy": 2319,
      "method": 2320,
      "onephrosis": 2321,
      "king": 2322,
      "respe": 2323,
      "selective": 2324,
      "anast": 2325,
      "asy": 2326,
      "gau": 2327,
      "tissues": 2328,
      "have": 2329,
      "humerus": 2330,
      "success": 2331,
      "anastom": 2332,
      "band": 2333,
      "md": 2334,
      "ingu": 2335,
      "uld": 2336,
      "stran": 2337,
      "classi": 2338,
      "interest": 2339,
      "superficial": 2340,
      "sha": 2341,
      "neuro": 2342,
      "cholangi": 2343,
      "creat": 2344,
      "ramus": 2345,
      "tio": 2346,
      "endom": 2347,
      "scap": 2348,
      "subtraction": 2349,
      "cula": 2350,
      "transpl": 2351,
      "furcation": 2352,
      "including": 2353,
      "back": 2354,
      "vesi": 2355,
      "corpus": 2356,
      "sonogram": 2357,
      "caps": 2358,
      "activ": 2359,
      "hydr": 2360,
      "pass": 2361,
      "function": 2362,
      "culated": 2363,
      "dial": 2364,
      "pair": 2365,
      "hyperintensity": 2366,
      "noncontrast": 2367,
      "oph": 2368,
      "uch": 2369,
      "while": 2370,
      "odon": 2371,
      "inserted": 2372,
      "ankle": 2373,
      "nous": 2374,
      "acro": 2375,
      "fields": 2376,
      "c3": 2377,
      "thigh": 2378,
      "arti": 2379,
      "omal": 2380,
      "seal": 2381,
      "hemo": 2382,
      "ild": 2383,
      "guided": 2384,
      "impacted": 2385,
      "his": 2386,
      "dyspla": 2387,
      "syst": 2388,
      "axillary": 2389,
      "slightly": 2390,
      "(*": 2391,
      "adv": 2392,
      "spread": 2393,
      "rectus": 2394,
      "pendicular": 2395,
      "mixed": 2396,
      "21": 2397,
      "c7": 2398,
      "how": 2399,
      "ovari": 2400,
      "inner": 2401,
      "widen": 2402,
      "based": 2403,
      "pedicle": 2404,
      "stomy": 2405,
      "dela": 2406,
      "perpendicular": 2407,
      "paralle": 2408,
      "fundus": 2409,
      "echocardiographic": 2410,
      "cause": 2411,
      "prosthesis": 2412,
      "smooth": 2413,
      "magn": 2414,
      "top": 2415,
      "predominant": 2416,
      "representative": 2417,
      "course": 2418,
      "45": 2419,
      "analy": 2420,
      "repe": 2421,
      "drawn": 2422,
      "successful": 2423,
      "recurrent": 2424,
      "inflammation": 2425,
      "respectively": 2426,
      "parallel": 2427,
      "35": 2428,
      "ism": 2429,
      "kidneys": 2430,
      "representing": 2431,
      "arach": 2432,
      "leakage": 2433,
      "dm": 2434,
      "fac": 2435,
      "aring": 2436,
      "comb": 2437,
      "elev": 2438,
      "distended": 2439,
      "ain": 2440,
      "ec": 2441,
      "child": 2442,
      "premolar": 2443,
      "anteriorly": 2444,
      "patchy": 2445,
      "endometri": 2446,
      "chi": 2447,
      "radiation": 2448,
      "obtu": 2449,
      "sclerotic": 2450,
      "gluco": 2451,
      "urg": 2452,
      "access": 2453,
      "girl": 2454,
      "plic": 2455,
      "outflow": 2456,
      "septa": 2457,
      "implantation": 2458,
      "ferent": 2459,
      "00": 2460,
      "hour": 2461,
      "ml": 2462,
      "anted": 2463,
      "cele": 2464,
      "pected": 2465,
      "presenting": 2466,
      "susce": 2467,
      "attached": 2468,
      "c4": 2469,
      "ward": 2470,
      "ger": 2471,
      "plex": 2472,
      "migra": 2473,
      "glucose": 2474,
      "eus": 2475,
      "ming": 2476,
      "ency": 2477,
      "stab": 2478,
      "sim": 2479,
      "admini": 2480,
      "stricture": 2481,
      "sphenoid": 2482,
      "shaft": 2483,
      "advance": 2484,
      "administration": 2485,
      "sv": 2486,
      "lated": 2487,
      "basi": 2488,
      "across": 2489,
      "ae": 2490,
      "poor": 2491,
      "when": 2492,
      "teal": 2493,
      "about": 2494,
      "t1w": 2495,
      "hae": 2496,
      "cells": 2497,
      "capsular": 2498,
      "arachnoid": 2499,
      "down": 2500,
      "acqui": 2501,
      "posteroanterior": 2502,
      "tubercul": 2503,
      "pin": 2504,
      "union": 2505,
      "features": 2506,
      "ious": 2507,
      "oedema": 2508,
      "extre": 2509,
      "hyperdense": 2510,
      "related": 2511,
      "2d": 2512,
      "gray": 2513,
      "pri": 2514,
      "ura": 2515,
      "align": 2516,
      "bodies": 2517,
      "dotted": 2518,
      "fasci": 2519,
      "direct": 2520,
      "degene": 2521,
      "light": 2522,
      "sacro": 2523,
      "partially": 2524,
      "suppressed": 2525,
      "techni": 2526,
      "ratio": 2527,
      "posed": 2528,
      "encephal": 2529,
      "dilation": 2530,
      "ologic": 2531,
      "patellar": 2532,
      "immediately": 2533,
      "chemotherapy": 2534,
      "cis": 2535,
      "beam": 2536,
      "further": 2537,
      "huge": 2538,
      "pneumonia": 2539,
      "hydronephrosis": 2540,
      "ue": 2541,
      "inta": 2542,
      "roi": 2543,
      "scar": 2544,
      "perine": 2545,
      "callo": 2546,
      "completely": 2547,
      "adenoma": 2548,
      "emp": 2549,
      "flap": 2550,
      "grow": 2551,
      "18f": 2552,
      "screws": 2553,
      "repair": 2554,
      "vege": 2555,
      "deoxy": 2556,
      "bifurcation": 2557,
      "surrounded": 2558,
      "intact": 2559,
      "org": 2560,
      "orption": 2561,
      "giant": 2562,
      "fused": 2563,
      "several": 2564,
      "stir": 2565,
      "zyg": 2566,
      "lamin": 2567,
      "ect": 2568,
      "glen": 2569,
      "theli": 2570,
      "deform": 2571,
      "sectional": 2572,
      "positive": 2573,
      "circumflex": 2574,
      "ethmoid": 2575,
      "clavicle": 2576,
      "saturated": 2577,
      "36": 2578,
      "ker": 2579,
      "sm": 2580,
      "ata": 2581,
      "fetus": 2582,
      "intus": 2583,
      "muscular": 2584,
      "joints": 2585,
      "bronchial": 2586,
      "suspic": 2587,
      "fluoroscopy": 2588,
      "caused": 2589,
      "osseous": 2590,
      "done": 2591,
      "lan": 2592,
      "metab": 2593,
      "extent": 2594,
      "colum": 2595,
      "bleeding": 2596,
      "ores": 2597,
      "opath": 2598,
      "incid": 2599,
      "vegetation": 2600,
      "cali": 2601,
      "regurg": 2602,
      "deplo": 2603,
      "illustrating": 2604,
      "radius": 2605,
      "radiopaque": 2606,
      "probe": 2607,
      "fourth": 2608,
      "ileum": 2609,
      "choroid": 2610,
      "evaluation": 2611,
      "delayed": 2612,
      "ica": 2613,
      "positioned": 2614,
      "oblite": 2615,
      "ossification": 2616,
      "technique": 2617,
      "32": 2618,
      "malformation": 2619,
      "prostate": 2620,
      "postcontrast": 2621,
      "pregn": 2622,
      "leaflet": 2623,
      "artifact": 2624,
      "tle": 2625,
      "content": 2626,
      "computer": 2627,
      "transvaginal": 2628,
      "syno": 2629,
      "dashed": 2630,
      "ducts": 2631,
      "originating": 2632,
      "l3": 2633,
      "sil": 2634,
      "parotid": 2635,
      "symp": 2636,
      "arthroplasty": 2637,
      "gauche": 2638,
      "til": 2639,
      "ries": 2640,
      "aspi": 2641,
      "parent": 2642,
      "mip": 2643,
      "osteolytic": 2644,
      "diverticulum": 2645,
      "c1": 2646,
      "dge": 2647,
      "tdm": 2648,
      "optical": 2649,
      "table": 2650,
      "gross": 2651,
      "rt": 2652,
      "index": 2653,
      "cesses": 2654,
      "compati": 2655,
      "mia": 2656,
      "additional": 2657,
      "ns": 2658,
      "spect": 2659,
      "almost": 2660,
      "radiographie": 2661,
      "paro": 2662,
      "roots": 2663,
      "transplant": 2664,
      "intussusce": 2665,
      "compatible": 2666,
      "simil": 2667,
      "cking": 2668,
      "infection": 2669,
      "deformity": 2670,
      "similar": 2671,
      "nar": 2672,
      "ocarcinoma": 2673,
      "taneous": 2674,
      "resorption": 2675,
      "abdomin": 2676,
      "clavicular": 2677,
      "26": 2678,
      "phot": 2679,
      "trabe": 2680,
      "liac": 2681,
      "heterogeneously": 2682,
      "differen": 2683,
      "inguinal": 2684,
      "cri": 2685,
      "asse": 2686,
      "walls": 2687,
      "confirming": 2688,
      "ities": 2689,
      "refle": 2690,
      "radiological": 2691,
      "persistent": 2692,
      "heads": 2693,
      "ovarian": 2694,
      "27": 2695,
      "ever": 2696,
      "ster": 2697,
      "tho": 2698,
      "sitis": 2699,
      "atar": 2700,
      "nex": 2701,
      "centric": 2702,
      "ultrasonographic": 2703,
      "bronchie": 2704,
      "previously": 2705,
      "electro": 2706,
      "ectop": 2707,
      "dental": 2708,
      "approach": 2709,
      "predominantly": 2710,
      "full": 2711,
      "ion": 2712,
      "ult": 2713,
      "perfusion": 2714,
      "patients": 2715,
      "physeal": 2716,
      "diaphragmatic": 2717,
      "contact": 2718,
      "different": 2719,
      "cavernous": 2720,
      "ies": 2721,
      "ally": 2722,
      "hepat": 2723,
      "roma": 2724,
      "apparent": 2725,
      "rays": 2726,
      "jected": 2727,
      "heterogenous": 2728,
      "healing": 2729,
      "advanced": 2730,
      "mit": 2731,
      "omat": 2732,
      "map": 2733,
      "mesi": 2734,
      "canine": 2735,
      "gran": 2736,
      "ature": 2737,
      "cision": 2738,
      "could": 2739,
      "subdural": 2740,
      "cardiomegaly": 2741,
      "100": 2742,
      "curv": 2743,
      "synovi": 2744,
      "28": 2745,
      "fis": 2746,
      "l2": 2747,
      "num": 2748,
      "titis": 2749,
      "abut": 2750,
      "accum": 2751,
      "possible": 2752,
      "symmetric": 2753,
      "echogenicity": 2754,
      "stranding": 2755,
      "culation": 2756,
      "vo": 2757,
      "pho": 2758,
      "phic": 2759,
      "straight": 2760,
      "ventricles": 2761,
      "intestine": 2762,
      "bright": 2763,
      "pow": 2764,
      "tous": 2765,
      "ablation": 2766,
      "structive": 2767,
      "throughout": 2768,
      "attenuated": 2769,
      "walled": 2770,
      "pubic": 2771,
      "sch": 2772,
      "rese": 2773,
      "date": 2774,
      "ribs": 2775,
      "suspected": 2776,
      "chondral": 2777,
      "malignant": 2778,
      "bed": 2779,
      "increase": 2780,
      "demar": 2781,
      "intracranial": 2782,
      "cann": 2783,
      "abnormality": 2784,
      "23": 2785,
      "spo": 2786,
      "posteriorly": 2787,
      "atele": 2788,
      "herence": 2789,
      "sequent": 2790,
      "fibrosis": 2791,
      "floor": 2792,
      "mine": 2793,
      "sma": 2794,
      "requ": 2795,
      "pouch": 2796,
      "ading": 2797,
      "permission": 2798,
      "intraoral": 2799,
      "however": 2800,
      "psoas": 2801,
      "went": 2802,
      "inti": 2803,
      "sile": 2804,
      "maj": 2805,
      "entation": 2806,
      "suv": 2807,
      "pathological": 2808,
      "improvement": 2809,
      "regurgitation": 2810,
      "l1": 2811,
      "ves": 2812,
      "postoperatively": 2813,
      "defects": 2814,
      "value": 2815,
      "creatography": 2816,
      "deoxyglucose": 2817,
      "ied": 2818,
      "ductal": 2819,
      "lymphoma": 2820,
      "markedly": 2821,
      "stones": 2822,
      "anatomical": 2823,
      "nucleus": 2824,
      "direction": 2825,
      "ulnar": 2826,
      "modi": 2827,
      "sonographic": 2828,
      "mented": 2829,
      "cranio": 2830,
      "reconstructed": 2831,
      "calcane": 2832,
      "necrotic": 2833,
      "intussusception": 2834,
      "sellar": 2835,
      "deline": 2836,
      "median": 2837,
      "implanted": 2838,
      "metatar": 2839,
      "analysis": 2840,
      "48": 2841,
      "minal": 2842,
      "rative": 2843,
      "anomal": 2844,
      "cein": 2845,
      "prof": 2846,
      "genital": 2847,
      "hilum": 2848,
      "bronchiectasis": 2849,
      "number": 2850,
      "power": 2851,
      "ff": 2852,
      "ante": 2853,
      "omet": 2854,
      "sella": 2855,
      "ceps": 2856,
      "ctor": 2857,
      "conflu": 2858,
      "fatty": 2859,
      "compressed": 2860,
      "underwent": 2861,
      "mucosa": 2862,
      "immediate": 2863,
      "cxr": 2864,
      "cholangiopan": 2865,
      "alignment": 2866,
      "major": 2867,
      "replacement": 2868,
      "determ": 2869,
      "ress": 2870,
      "absent": 2871,
      "omediast": 2872,
      "metallic": 2873,
      "anastomosis": 2874,
      "stabil": 2875,
      "basilar": 2876,
      "aspiration": 2877,
      "hind": 2878,
      "coherence": 2879,
      "place": 2880,
      "developed": 2881,
      "symptom": 2882,
      "cine": 2883,
      "pv": 2884,
      "loculated": 2885,
      "brachial": 2886,
      "borders": 2887,
      "gastrointestinal": 2888,
      "made": 2889,
      "fected": 2890,
      "fluores": 2891,
      "nail": 2892,
      "cephalus": 2893,
      "patella": 2894,
      "oresc": 2895,
      "callosum": 2896,
      "ised": 2897,
      "rd": 2898,
      "tium": 2899,
      "pericardium": 2900,
      "agent": 2901,
      "cysto": 2902,
      "arterio": 2903,
      "defini": 2904,
      "deviation": 2905,
      "acetabulum": 2906,
      "communication": 2907,
      "suspicious": 2908,
      "assess": 2909,
      "ben": 2910,
      "ccal": 2911,
      "ok": 2912,
      "sd": 2913,
      "enter": 2914,
      "reference": 2915,
      "because": 2916,
      "cording": 2917,
      "perioste": 2918,
      "urethral": 2919,
      "depth": 2920,
      "arthritis": 2921,
      "37": 2922,
      "cli": 2923,
      "tee": 2924,
      "ris": 2925,
      "isation": 2926,
      "umbil": 2927,
      "scro": 2928,
      "spaces": 2929,
      "myocardial": 2930,
      "sul": 2931,
      "sting": 2932,
      "being": 2933,
      "pleura": 2934,
      "pressure": 2935,
      "ventional": 2936,
      "sonography": 2937,
      "widening": 2938,
      "fluorescein": 2939,
      "myel": 2940,
      "nam": 2941,
      "remain": 2942,
      "tosis": 2943,
      "mental": 2944,
      "acrom": 2945,
      "angiographic": 2946,
      "placent": 2947,
      "facet": 2948,
      "pregnancy": 2949,
      "99": 2950,
      "fing": 2951,
      "zation": 2952,
      "stoid": 2953,
      "sit": 2954,
      "sition": 2955,
      "celiac": 2956,
      "poin": 2957,
      "toid": 2958,
      "hyda": 2959,
      "subcortical": 2960,
      "subarachnoid": 2961,
      "smaller": 2962,
      "occlus": 2963,
      "appeared": 2964,
      "terminal": 2965,
      "atelectasis": 2966,
      "tun": 2967,
      "cone": 2968,
      "oplasty": 2969,
      "ade": 2970,
      "dar": 2971,
      "swal": 2972,
      "chle": 2973,
      "acous": 2974,
      "affected": 2975,
      "cket": 2976,
      "planar": 2977,
      "osteotomy": 2978,
      "dysplasia": 2979,
      "occlusal": 2980,
      "swallow": 2981,
      "cique": 2982,
      "yeli": 2983,
      "pneumomediast": 2984,
      "colonic": 2985,
      "develop": 2986,
      "towards": 2987,
      "naso": 2988,
      "activity": 2989,
      "growth": 2990,
      "clu": 2991,
      "rogram": 2992,
      "masse": 2993,
      "rotation": 2994,
      "tension": 2995,
      "demonstrate": 2996,
      "ruptured": 2997,
      "ectopic": 2998,
      "acoustic": 2999,
      "emer": 3000,
      "fl": 3001,
      "bound": 3002,
      "obvious": 3003,
      "subsequent": 3004,
      "thoracique": 3005,
      "multilocular": 3006,
      "renic": 3007,
      "elbow": 3008,
      "extended": 3009,
      "marker": 3010,
      "morph": 3011,
      "cholangiopancreatography": 3012,
      "70": 3013,
      "laterally": 3014,
      "lux": 3015,
      "sides": 3016,
      "occluded": 3017,
      "46": 3018,
      "ique": 3019,
      "pyel": 3020,
      "teral": 3021,
      "cated": 3022,
      "still": 3023,
      "adenocarcinoma": 3024,
      "pharynx": 3025,
      "hours": 3026,
      "lon": 3027,
      "volum": 3028,
      "marks": 3029,
      "plication": 3030,
      "simple": 3031,
      "cistern": 3032,
      "finger": 3033,
      "ery": 3034,
      "metacarpal": 3035,
      "visualization": 3036,
      "crow": 3037,
      "rin": 3038,
      "focus": 3039,
      "dynam": 3040,
      "fail": 3041,
      "ruption": 3042,
      "localized": 3043,
      "false": 3044,
      "appendix": 3045,
      "photograph": 3046,
      "fine": 3047,
      "complic": 3048,
      "five": 3049,
      "general": 3050,
      "numerous": 3051,
      "plexus": 3052,
      "ump": 3053,
      "intermedia": 3054,
      "fici": 3055,
      "supp": 3056,
      "symptoms": 3057,
      "pneumomediastinum": 3058,
      "38": 3059,
      "bb": 3060,
      "cr": 3061,
      "pene": 3062,
      "stable": 3063,
      "vide": 3064,
      "few": 3065,
      "fiber": 3066,
      "anechoic": 3067,
      "cephalic": 3068,
      "invasive": 3069,
      "hemisphere": 3070,
      "repeat": 3071,
      "cid": 3072,
      "tree": 3073,
      "sec": 3074,
      "popli": 3075,
      "unenhanced": 3076,
      "half": 3077,
      "metatarsal": 3078,
      "75": 3079,
      "ned": 3080,
      "void": 3081,
      "contralateral": 3082,
      "oran": 3083,
      "mrcp": 3084,
      "expansile": 3085,
      "facial": 3086,
      "accumulation": 3087,
      "ja": 3088,
      "enne": 3089,
      "conside": 3090,
      "scanner": 3091,
      "ercp": 3092,
      "outline": 3093,
      "calculated": 3094,
      "communicating": 3095,
      "hypoplasia": 3096,
      "modified": 3097,
      "].": 3098,
      "mn": 3099,
      "interval": 3100,
      "symphy": 3101,
      "implants": 3102,
      "planning": 3103,
      "svc": 3104,
      "glenoid": 3105,
      "dynamic": 3106,
      "tc": 3107,
      "wing": 3108,
      "omas": 3109,
      "serv": 3110,
      "cortic": 3111,
      "cove": 3112,
      "sacrum": 3113,
      "true": 3114,
      "penetra": 3115,
      "test": 3116,
      "outl": 3117,
      "menis": 3118,
      "underlying": 3119,
      "mdct": 3120,
      "haematoma": 3121,
      "fascia": 3122,
      "symphysis": 3123,
      "sn": 3124,
      "sam": 3125,
      "retained": 3126,
      "lesse": 3127,
      "congenital": 3128,
      "compart": 3129,
      "ureteral": 3130,
      "limi": 3131,
      "reaction": 3132,
      "colic": 3133,
      "pneuma": 3134,
      "fluorodeoxyglucose": 3135,
      "gestational": 3136,
      "hypertrophy": 3137,
      "metabolic": 3138,
      "intermediate": 3139,
      "rece": 3140,
      "omyeli": 3141,
      "ogast": 3142,
      "fixed": 3143,
      "abbreviations": 3144,
      "bubbles": 3145,
      "tuberculosis": 3146,
      "choroidal": 3147,
      "failure": 3148,
      "popliteal": 3149,
      "lesser": 3150,
      "90": 3151,
      "tong": 3152,
      "labe": 3153,
      "ching": 3154,
      "usg": 3155,
      "hem": 3156,
      "again": 3157,
      "intervertebral": 3158,
      "original": 3159,
      "overlying": 3160,
      "likely": 3161,
      "migration": 3162,
      "tunnel": 3163,
      "ische": 3164,
      "noti": 3165,
      "ured": 3166,
      "angio": 3167,
      "frame": 3168,
      "isodose": 3169,
      "depicts": 3170,
      "orthopantomograph": 3171,
      "orange": 3172,
      "47": 3173,
      "data": 3174,
      "idi": 3175,
      "ide": 3176,
      "lor": 3177,
      "another": 3178,
      "detach": 3179,
      "umb": 3180,
      "perman": 3181,
      "opening": 3182,
      "agic": 3183,
      "endplate": 3184,
      "minor": 3185,
      "fistul": 3186,
      "resulting": 3187,
      "standard": 3188,
      "gal": 3189,
      "ceration": 3190,
      "ged": 3191,
      "scat": 3192,
      "ques": 3193,
      "abnormalities": 3194,
      "calculus": 3195,
      "tortu": 3196,
      "revision": 3197,
      "compartment": 3198,
      "permanent": 3199,
      "pd": 3200,
      "thesis": 3201,
      "anal": 3202,
      "suf": 3203,
      "proton": 3204,
      "period": 3205,
      "cavitary": 3206,
      "airway": 3207,
      "regres": 3208,
      "intera": 3209,
      "periosteal": 3210,
      "epic": 3211,
      "sca": 3212,
      "conventional": 3213,
      "intensities": 3214,
      "draining": 3215,
      "minu": 3216,
      "pseudocyst": 3217,
      "shadowing": 3218,
      "ferential": 3219,
      "cbd": 3220,
      "differenti": 3221,
      "anomalous": 3222,
      "dark": 3223,
      "tongue": 3224,
      "bl": 3225,
      "laryn": 3226,
      "then": 3227,
      "rever": 3228,
      "according": 3229,
      "irm": 3230,
      "tesy": 3231,
      "cles": 3232,
      "extends": 3233,
      "courtesy": 3234,
      "anatomy": 3235,
      "mh": 3236,
      "inate": 3237,
      "mechan": 3238,
      "loid": 3239,
      "ipsi": 3240,
      "protruding": 3241,
      "(*)": 3242,
      "hydatid": 3243,
      "pped": 3244,
      "sten": 3245,
      "series": 3246,
      "poca": 3247,
      "resol": 3248,
      "behind": 3249,
      "fif": 3250,
      "interven": 3251,
      "ventricul": 3252,
      "enema": 3253,
      "caudate": 3254,
      "condylar": 3255,
      "prosthetic": 3256,
      "buccal": 3257,
      "incidental": 3258,
      "ame": 3259,
      "sarcoma": 3260,
      "tv": 3261,
      "rected": 3262,
      "ducer": 3263,
      "bot": 3264,
      "colour": 3265,
      "docum": 3266,
      "hippoca": 3267,
      "removed": 3268,
      "trochanter": 3269,
      "ganglia": 3270,
      "tomogram": 3271,
      "cardia": 3272,
      "views": 3273,
      "hypervascular": 3274,
      "slide": 3275,
      "ually": 3276,
      "overla": 3277,
      "thinning": 3278,
      "embolism": 3279,
      "circumferential": 3280,
      "passing": 3281,
      "abbreviation": 3282,
      "systolic": 3283,
      "endometrial": 3284,
      "acquired": 3285,
      "benign": 3286,
      "dent": 3287,
      "iled": 3288,
      "allow": 3289,
      "did": 3290,
      "vesti": 3291,
      "roent": 3292,
      "scope": 3293,
      "spi": 3294,
      "densities": 3295,
      "lumbo": 3296,
      "grey": 3297,
      "components": 3298,
      "addition": 3299,
      "trochanteric": 3300,
      "horn": 3301,
      "equ": 3302,
      "gree": 3303,
      "ceal": 3304,
      "chio": 3305,
      "uli": 3306,
      "scoli": 3307,
      "llum": 3308,
      "distin": 3309,
      "involved": 3310,
      "positioning": 3311,
      "pancreatitis": 3312,
      "jejunal": 3313,
      "toward": 3314,
      "thalamus": 3315,
      "puncture": 3316,
      "52": 3317,
      "55": 3318,
      "tine": 3319,
      "real": 3320,
      "lab": 3321,
      "lack": 3322,
      "tracer": 3323,
      "conve": 3324,
      "nephro": 3325,
      "correct": 3326,
      "larger": 3327,
      "values": 3328,
      "produced": 3329,
      "fibula": 3330,
      "glot": 3331,
      "sacroiliac": 3332,
      "33": 3333,
      "34": 3334,
      "44": 3335,
      "ratory": 3336,
      "retic": 3337,
      "feeding": 3338,
      "exhi": 3339,
      "largest": 3340,
      "interventricular": 3341,
      "zones": 3342,
      "hypoplastic": 3343,
      "arteriovenous": 3344,
      "ske": 3345,
      "phery": 3346,
      "neopla": 3347,
      "tubular": 3348,
      "collaterals": 3349,
      "abutting": 3350,
      "ipsilateral": 3351,
      "scoliosis": 3352,
      "aire": 3353,
      "cru": 3354,
      "kn": 3355,
      "ograft": 3356,
      "tori": 3357,
      "scanning": 3358,
      "coar": 3359,
      "testis": 3360,
      "angioma": 3361,
      "intraluminal": 3362,
      "solitary": 3363,
      "haem": 3364,
      "traumatic": 3365,
      "empty": 3366,
      "demarcated": 3367,
      "roentgen": 3368,
      "dsa": 3369,
      "inv": 3370,
      "divi": 3371,
      "termin": 3372,
      "periphery": 3373,
      "does": 3374,
      "steno": 3375,
      "intercostal": 3376,
      "medul": 3377,
      "occur": 3378,
      "velocity": 3379,
      "phalanx": 3380,
      "specific": 3381,
      "31": 3382,
      "ocular": 3383,
      "vit": 3384,
      "asing": 3385,
      "outside": 3386,
      "molars": 3387,
      "spondy": 3388,
      "spontaneous": 3389,
      "ovary": 3390,
      "relatively": 3391,
      "assessment": 3392,
      "invading": 3393,
      "aut": 3394,
      "psed": 3395,
      "injected": 3396,
      "pel": 3397,
      "neur": 3398,
      "nega": 3399,
      "cae": 3400,
      "deno": 3401,
      "static": 3402,
      "displacing": 3403,
      "flat": 3404,
      "trial": 3405,
      "distension": 3406,
      "omyelitis": 3407,
      "distinct": 3408,
      "negative": 3409,
      "mca": 3410,
      "rie": 3411,
      "laparo": 3412,
      "score": 3413,
      "forearm": 3414,
      "parts": 3415,
      "determined": 3416,
      "est": 3417,
      "sor": 3418,
      "var": 3419,
      "rary": 3420,
      "recess": 3421,
      "degree": 3422,
      "intramedullary": 3423,
      "angular": 3424,
      "effusions": 3425,
      "tomatic": 3426,
      "ultrasonogram": 3427,
      "closure": 3428,
      "droite": 3429,
      "water": 3430,
      "diagnostic": 3431,
      "scapular": 3432,
      "fissure": 3433,
      "orescence": 3434,
      "highly": 3435,
      "canals": 3436,
      "plied": 3437,
      "pointing": 3438,
      "ogastric": 3439,
      "cti": 3440,
      "mobile": 3441,
      "fractured": 3442,
      "fronto": 3443,
      "pontine": 3444,
      "cervi": 3445,
      "cerebellum": 3446,
      "radiotherapy": 3447,
      "coils": 3448,
      "luxation": 3449,
      "scattered": 3450,
      "regression": 3451,
      "convex": 3452,
      "iopa": 3453,
      "ram": 3454,
      "onal": 3455,
      "periventricular": 3456,
      "fast": 3457,
      "catheteri": 3458,
      "results": 3459,
      "incisors": 3460,
      "csf": 3461,
      "guidewire": 3462,
      "organ": 3463,
      "umbilical": 3464,
      "pur": 3465,
      "run": 3466,
      "squ": 3467,
      "subject": 3468,
      "thoraco": 3469,
      "flux": 3470,
      "t12": 3471,
      "guid": 3472,
      "epitheli": 3473,
      "connection": 3474,
      "connecting": 3475,
      "magni": 3476,
      "accessory": 3477,
      "obliteration": 3478,
      "curvature": 3479,
      "fifth": 3480,
      "fid": 3481,
      "tt": 3482,
      "disse": 3483,
      "suture": 3484,
      "venogram": 3485,
      "multifocal": 3486,
      "unilocular": 3487,
      "spinous": 3488,
      "ostomy": 3489,
      "sw": 3490,
      "onset": 3491,
      "tend": 3492,
      "exp": 3493,
      "closed": 3494,
      "hemidiaphragm": 3495,
      "pedun": 3496,
      "lingual": 3497,
      "mesial": 3498,
      "cervix": 3499,
      "refer": 3500,
      "strea": 3501,
      "phric": 3502,
      "compan": 3503,
      "dome": 3504,
      "axiale": 3505,
      "distor": 3506,
      "transducer": 3507,
      "crest": 3508,
      "continuous": 3509,
      "extrem": 3510,
      "ometric": 3511,
      "eal": 3512,
      "lin": 3513,
      "nd": 3514,
      "ux": 3515,
      "rage": 3516,
      "stro": 3517,
      "adnex": 3518,
      "marginal": 3519,
      "angulation": 3520,
      "medially": 3521,
      "response": 3522,
      "cholangiogram": 3523,
      "jejunum": 3524,
      "progression": 3525,
      "column": 3526,
      "sterno": 3527,
      "photo": 3528,
      "lumbosacral": 3529,
      "known": 3530,
      "extremity": 3531,
      "yment": 3532,
      "maximal": 3533,
      "ticle": 3534,
      "respi": 3535,
      "tening": 3536,
      "preci": 3537,
      "disruption": 3538,
      "supine": 3539,
      "phalangeal": 3540,
      "requency": 3541,
      "3rd": 3542,
      "42": 3543,
      "sl": 3544,
      "uet": 3545,
      "ofi": 3546,
      "ometri": 3547,
      "semi": 3548,
      "weight": 3549,
      "quate": 3550,
      "antrum": 3551,
      "osteomyelitis": 3552,
      "urethrogram": 3553,
      "hydrocephalus": 3554,
      "mammogram": 3555,
      "deployment": 3556,
      "considered": 3557,
      "cup": 3558,
      "hema": 3559,
      "agene": 3560,
      "intraperitoneal": 3561,
      "orifi": 3562,
      "displaying": 3563,
      "infiltrating": 3564,
      "hemorrhagic": 3565,
      "lamina": 3566,
      "electrode": 3567,
      "mechanical": 3568,
      "roentgenogram": 3569,
      "aa": 3570,
      "avid": 3571,
      "bab": 3572,
      "cry": 3573,
      "mra": 3574,
      "tique": 3575,
      "stron": 3576,
      "decompression": 3577,
      "corne": 3578,
      "aort": 3579,
      "infant": 3580,
      "angles": 3581,
      "vascularity": 3582,
      "droit": 3583,
      "pathology": 3584,
      "posterolateral": 3585,
      "scapula": 3586,
      "elevated": 3587,
      "54": 3588,
      "gradi": 3589,
      "tan": 3590,
      "μm": 3591,
      "strum": 3592,
      "debri": 3593,
      "erup": 3594,
      "brachio": 3595,
      "tumors": 3596,
      "disappearance": 3597,
      "pig": 3598,
      "myometri": 3599,
      "depend": 3600,
      "bility": 3601,
      "passage": 3602,
      "silho": 3603,
      "limited": 3604,
      "intervention": 3605,
      "gradient": 3606,
      "hard": 3607,
      "if": 3608,
      "ocele": 3609,
      "orrh": 3610,
      "cha": 3611,
      "mean": 3612,
      "septation": 3613,
      "ostium": 3614,
      "appearing": 3615,
      "silhouet": 3616,
      "hol": 3617,
      "stero": 3618,
      "ule": 3619,
      "inver": 3620,
      "arte": 3621,
      "reticular": 3622,
      "sto": 3623,
      "petro": 3624,
      "accompan": 3625,
      "motion": 3626,
      "subchondral": 3627,
      "centre": 3628,
      "cerebro": 3629,
      "mildly": 3630,
      "fibrous": 3631,
      "suppression": 3632,
      "sample": 3633,
      "haemorrh": 3634,
      "azyg": 3635,
      "scent": 3636,
      "exclu": 3637,
      "lens": 3638,
      "pons": 3639,
      "visce": 3640,
      "gency": 3641,
      "shadows": 3642,
      "spinatus": 3643,
      "annulus": 3644,
      "degenerative": 3645,
      "hepato": 3646,
      "synovial": 3647,
      "crown": 3648,
      "covered": 3649,
      "80": 3650,
      "fse": 3651,
      "reflux": 3652,
      "del": 3653,
      "exo": 3654,
      "talar": 3655,
      "sections": 3656,
      "meters": 3657,
      "palate": 3658,
      "mesentery": 3659,
      "planes": 3660,
      "punct": 3661,
      "culature": 3662,
      "perinephric": 3663,
      "scrotal": 3664,
      "development": 3665,
      "brachiocephalic": 3666,
      "ball": 3667,
      "gut": 3668,
      "pping": 3669,
      "stress": 3670,
      "sic": 3671,
      "last": 3672,
      "hel": 3673,
      "hetero": 3674,
      "esthe": 3675,
      "plaque": 3676,
      "notch": 3677,
      "flexi": 3678,
      "crossing": 3679,
      "separate": 3680,
      "placenta": 3681,
      "outlined": 3682,
      "catheterization": 3683,
      "agenesis": 3684,
      "bic": 3685,
      "ise": 3686,
      "inhomogeneous": 3687,
      "seven": 3688,
      "decrease": 3689,
      "neo": 3690,
      "spic": 3691,
      "subpleural": 3692,
      "submandibular": 3693,
      "tumoral": 3694,
      "aged": 3695,
      "indicative": 3696,
      "discon": 3697,
      "bulb": 3698,
      "confirms": 3699,
      "dimensions": 3700,
      "polypo": 3701,
      "kyph": 3702,
      "respiratory": 3703,
      "29": 3704,
      "41": 3705,
      "act": 3706,
      "ist": 3707,
      "kin": 3708,
      "stern": 3709,
      "uration": 3710,
      "ondro": 3711,
      "duced": 3712,
      "lucency": 3713,
      "app": 3714,
      "apres": 3715,
      "avul": 3716,
      "collapsed": 3717,
      "standing": 3718,
      "symmetrical": 3719,
      "tortuous": 3720,
      "mhz": 3721,
      "53": 3722,
      "fr": 3723,
      "yond": 3724,
      "repor": 3725,
      "order": 3726,
      "tracking": 3727,
      "beyond": 3728,
      "opelv": 3729,
      "submucosal": 3730,
      "transabdominal": 3731,
      "asymmetric": 3732,
      "notice": 3733,
      "stenting": 3734,
      "opelvic": 3735,
      ".)": 3736,
      "fold": 3737,
      "gap": 3738,
      "lf": 3739,
      "lets": 3740,
      "sites": 3741,
      "entry": 3742,
      "ulna": 3743,
      "paran": 3744,
      "cavi": 3745,
      "interpre": 3746,
      "physi": 3747,
      "pectoral": 3748,
      "splenomegaly": 3749,
      "depicted": 3750,
      "layers": 3751,
      "osteolysis": 3752,
      "vesical": 3753,
      "2nd": 3754,
      "ptery": 3755,
      "notes": 3756,
      "ments": 3757,
      "ically": 3758,
      "coc": 3759,
      "jet": 3760,
      "abscesses": 3761,
      "irregularity": 3762,
      "plates": 3763,
      "tubero": 3764,
      "clock": 3765,
      "diffic": 3766,
      "vicular": 3767,
      "saturation": 3768,
      "anatomic": 3769,
      "poorly": 3770,
      "emergency": 3771,
      "4th": 3772,
      "64": 3773,
      "gon": 3774,
      "yo": 3775,
      "omental": 3776,
      "maker": 3777,
      "tency": 3778,
      "tam": 3779,
      "t2wi": 3780,
      "tware": 3781,
      "healthy": 3782,
      "diastole": 3783,
      "powerpoint": 3784,
      "paranasal": 3785,
      "pm": 3786,
      "wedge": 3787,
      "rator": 3788,
      "sparing": 3789,
      "oration": 3790,
      "subcapsular": 3791,
      "multiplanar": 3792,
      "software": 3793,
      "wave": 3794,
      "histopath": 3795,
      "asterisks": 3796,
      "relationshi": 3797,
      "thalamic": 3798,
      "meningi": 3799,
      "eccentric": 3800,
      "confluence": 3801,
      "99m": 3802,
      "jaw": 3803,
      "vitre": 3804,
      "silhouette": 3805,
      "aber": 3806,
      "cat": 3807,
      "dri": 3808,
      "globe": 3809,
      "rus": 3810,
      "their": 3811,
      "remn": 3812,
      "coid": 3813,
      "subtle": 3814,
      "calcific": 3815,
      "marking": 3816,
      "salva": 3817,
      "having": 3818,
      "baseline": 3819,
      "setting": 3820,
      "improved": 3821,
      "ovoid": 3822,
      "elevation": 3823,
      "video": 3824,
      "exhib": 3825,
      "remnant": 3826,
      "43": 3827,
      "sar": 3828,
      "tang": 3829,
      "ardial": 3830,
      "letal": 3831,
      "oment": 3832,
      "will": 3833,
      "charge": 3834,
      "pose": 3835,
      "meso": 3836,
      "losis": 3837,
      "visit": 3838,
      "life": 3839,
      "pacemaker": 3840,
      "aneury": 3841,
      "bronchi": 3842,
      "difference": 3843,
      "osteophy": 3844,
      "brid": 3845,
      "puta": 3846,
      "systole": 3847,
      "detachment": 3848,
      "strong": 3849,
      "pteryg": 3850,
      "cd": 3851,
      "fying": 3852,
      "wo": 3853,
      "macular": 3854,
      "ographique": 3855,
      "sour": 3856,
      "intramural": 3857,
      "arteriography": 3858,
      "circulation": 3859,
      "omedial": 3860,
      "broncho": 3861,
      "discre": 3862,
      "cephalometric": 3863,
      "progressive": 3864,
      "bottom": 3865,
      "cerebrospinal": 3866,
      "gli": 3867,
      "ks": 3868,
      "ley": 3869,
      "macro": 3870,
      "phoid": 3871,
      "chondro": 3872,
      "config": 3873,
      "corpo": 3874,
      "cochle": 3875,
      "dens": 3876,
      "mide": 3877,
      "aorto": 3878,
      "hyperintensities": 3879,
      "distally": 3880,
      "missing": 3881,
      "hips": 3882,
      "tempor": 3883,
      "cellular": 3884,
      "sequences": 3885,
      "bullet": 3886,
      "cusp": 3887,
      "flexure": 3888,
      "adequate": 3889,
      "orifice": 3890,
      "67": 3891,
      "cra": 3892,
      "gb": 3893,
      "shar": 3894,
      "fraction": 3895,
      "ileo": 3896,
      "healed": 3897,
      "cbct": 3898,
      "though": 3899,
      "morphology": 3900,
      "dependent": 3901,
      "aberrant": 3902,
      "configuration": 3903,
      "lcx": 3904,
      "thumb": 3905,
      "lobar": 3906,
      "obstructive": 3907,
      "saggital": 3908,
      "sagital": 3909,
      "brainstem": 3910,
      "discharge": 3911,
      "broken": 3912,
      "bulging": 3913,
      "significantly": 3914,
      "ileal": 3915,
      "myocardium": 3916,
      "ophthal": 3917,
      "delineated": 3918,
      "polypoid": 3919,
      "sternum": 3920,
      "aneurysmal": 3921,
      "62": 3922,
      "ates": 3923,
      "great": 3924,
      "ither": 3925,
      "lt": 3926,
      "stance": 3927,
      "cecum": 3928,
      "isth": 3929,
      "lies": 3930,
      "proper": 3931,
      "core": 3932,
      "testicular": 3933,
      "elong": 3934,
      "measures": 3935,
      "orientation": 3936,
      "channel": 3937,
      "model": 3938,
      "suprasellar": 3939,
      "malignancy": 3940,
      "combined": 3941,
      "cannula": 3942,
      "adi": 3943,
      "eight": 3944,
      "uth": 3945,
      "ulitis": 3946,
      "rot": 3947,
      "tentori": 3948,
      "opti": 3949,
      "lesional": 3950,
      "interface": 3951,
      "plat": 3952,
      "superim": 3953,
      "narrowed": 3954,
      "groove": 3955,
      "vagina": 3956,
      "contours": 3957,
      "obturation": 3958,
      "zygoma": 3959,
      "recei": 3960,
      "document": 3961,
      "discontinu": 3962,
      "meningioma": 3963,
      "65": 3964,
      "fp": 3965,
      "vac": 3966,
      "ential": 3967,
      "oflu": 3968,
      "shing": 3969,
      "pocket": 3970,
      "patency": 3971,
      "neural": 3972,
      "adhe": 3973,
      "proven": 3974,
      "paraspinal": 3975,
      "anterolateral": 3976,
      "achil": 3977,
      "unilateral": 3978,
      "39": 3979,
      "nom": 3980,
      "ose": 3981,
      "mastoid": 3982,
      "las": 3983,
      "rois": 3984,
      "cage": 3985,
      "plant": 3986,
      "initi": 3987,
      "curve": 3988,
      "cholangiography": 3989,
      "cuff": 3990,
      "sinusitis": 3991,
      "tuberosity": 3992,
      "relationship": 3993,
      "49": 3994,
      "72": 3995,
      "gl": 3996,
      "log": 3997,
      "now": 3998,
      "sche": 3999,
      "ulate": 4000,
      "zo": 4001,
      "contu": 4002,
      "pression": 4003,
      "subluxation": 4004,
      "transversal": 4005,
      "plateau": 4006,
      "ganglion": 4007,
      "degeneration": 4008,
      "spectral": 4009,
      "suvmax": 4010,
      "generalized": 4011,
      "supply": 4012,
      "interatrial": 4013,
      "midesophageal": 4014,
      "atic": 4015,
      "erect": 4016,
      "hole": 4017,
      "rat": 4018,
      "stump": 4019,
      "asm": 4020,
      "idus": 4021,
      "urography": 4022,
      "correction": 4023,
      "partic": 4024,
      "hypermetabolic": 4025,
      "posite": 4026,
      "higher": 4027,
      "osarcoma": 4028,
      "stents": 4029,
      "lipoma": 4030,
      "epicardial": 4031,
      "skeletal": 4032,
      "petrous": 4033,
      "azygos": 4034,
      "clip": 4035,
      "reproduced": 4036,
      "terri": 4037,
      "iting": 4038,
      "cies": 4039,
      "affect": 4040,
      "interlobular": 4041,
      "valsalva": 4042,
      "inferiorly": 4043,
      "audi": 4044,
      "myx": 4045,
      "varices": 4046,
      "leading": 4047,
      "diastolic": 4048,
      "resolved": 4049,
      "bund": 4050,
      "cn": 4051,
      "eur": 4052,
      "gus": 4053,
      "mpr": 4054,
      "sph": 4055,
      "lao": 4056,
      "contraste": 4057,
      "centri": 4058,
      "odular": 4059,
      "gastrogra": 4060,
      "diffusely": 4061,
      "mainly": 4062,
      "bronchogram": 4063,
      "nerves": 4064,
      "forming": 4065,
      "collections": 4066,
      "cephalogram": 4067,
      "isointense": 4068,
      "expand": 4069,
      "omentum": 4070,
      "sharp": 4071,
      "achilles": 4072,
      "contusion": 4073,
      "57": 4074,
      "61": 4075,
      "68": 4076,
      "iod": 4077,
      "iris": 4078,
      "ored": 4079,
      "sted": 4080,
      "incomplete": 4081,
      "such": 4082,
      "excision": 4083,
      "appreci": 4084,
      "cover": 4085,
      "pretreatment": 4086,
      "obla": 4087,
      "slices": 4088,
      "displayed": 4089,
      "pneumoperitoneum": 4090,
      "herniated": 4091,
      "iasis": 4092,
      "should": 4093,
      "flexor": 4094,
      "spot": 4095,
      "fibers": 4096,
      "medulla": 4097,
      "visceral": 4098,
      "ctiv": 4099,
      "oesophageal": 4100,
      "polar": 4101,
      "lith": 4102,
      "prostatic": 4103,
      "struct": 4104,
      "syste": 4105,
      "graphy": 4106,
      "physes": 4107,
      "front": 4108,
      "prin": 4109,
      "calculi": 4110,
      "supraspinatus": 4111,
      "illustration": 4112,
      "supernume": 4113,
      "bursa": 4114,
      "protrusion": 4115,
      "choledo": 4116,
      "guidance": 4117,
      "avulsion": 4118,
      "cavities": 4119,
      ".,": 4120,
      "59": 4121,
      "blun": 4122,
      "status": 4123,
      "dition": 4124,
      "laceration": 4125,
      "mesh": 4126,
      "ligh": 4127,
      "liqu": 4128,
      "prola": 4129,
      "preserved": 4130,
      "angioplasty": 4131,
      "arteriogram": 4132,
      "endage": 4133,
      "achie": 4134,
      "clus": 4135,
      "localization": 4136,
      "hemispheres": 4137,
      "omatous": 4138,
      "meniscus": 4139,
      "fistulous": 4140,
      "haemorrhage": 4141,
      "appendage": 4142,
      "vitreous": 4143,
      "auditory": 4144,
      "bre": 4145,
      "bru": 4146,
      "dye": 4147,
      "llo": 4148,
      "instrum": 4149,
      "deposi": 4150,
      "cemented": 4151,
      "bypass": 4152,
      "intro": 4153,
      "nive": 4154,
      "heterogene": 4155,
      "vascularization": 4156,
      "infiltrative": 4157,
      "broad": 4158,
      "severely": 4159,
      "supraclavicular": 4160,
      "isolated": 4161,
      "stability": 4162,
      "source": 4163,
      "superimposed": 4164,
      "supernumerary": 4165,
      "63": 4166,
      "cv": 4167,
      "cleft": 4168,
      "ality": 4169,
      "ardi": 4170,
      "eng": 4171,
      "conges": 4172,
      "corrected": 4173,
      "movement": 4174,
      "cystogram": 4175,
      "endovascular": 4176,
      "described": 4177,
      "fully": 4178,
      "specimen": 4179,
      "acquisition": 4180,
      "mineral": 4181,
      "entering": 4182,
      "minutes": 4183,
      "tendin": 4184,
      "flexion": 4185,
      "niveau": 4186,
      "56": 4187,
      "58": 4188,
      "ea": 4189,
      "olateral": 4190,
      "t4": 4191,
      "uv": 4192,
      "atlas": 4193,
      "pack": 4194,
      "hyp": 4195,
      "quanti": 4196,
      "medical": 4197,
      "stitu": 4198,
      "chambers": 4199,
      "rupted": 4200,
      "epiphysis": 4201,
      "parieto": 4202,
      "pathologic": 4203,
      "factory": 4204,
      "ovale": 4205,
      "ophrenic": 4206,
      "deployed": 4207,
      "transplantation": 4208,
      "trabecular": 4209,
      "granul": 4210,
      "boundary": 4211,
      "lordo": 4212,
      "systemic": 4213,
      "tte": 4214,
      "trib": 4215,
      "ze": 4216,
      "tera": 4217,
      "anesthe": 4218,
      "risk": 4219,
      "depart": 4220,
      "chal": 4221,
      "ched": 4222,
      "hepati": 4223,
      "stead": 4224,
      "completion": 4225,
      "ptv": 4226,
      "fragments": 4227,
      "remaining": 4228,
      "pneumatosis": 4229,
      "fs": 4230,
      "sphe": 4231,
      "t3": 4232,
      "tm": 4233,
      "tia": 4234,
      "tima": 4235,
      "tips": 4236,
      "comparis": 4237,
      "hyoid": 4238,
      "application": 4239,
      "plasia": 4240,
      "t1wi": 4241,
      "portable": 4242,
      "parasagittal": 4243,
      "infected": 4244,
      "signals": 4245,
      "rectomy": 4246,
      "ends": 4247,
      "tiny": 4248,
      "selected": 4249,
      "mammary": 4250,
      "halo": 4251,
      "dextro": 4252,
      "odontoid": 4253,
      "contents": 4254,
      "glottic": 4255,
      "septations": 4256,
      "comparison": 4257,
      "ls": 4258,
      "they": 4259,
      "tition": 4260,
      "limit": 4261,
      "spite": 4262,
      "oney": 4263,
      "prote": 4264,
      "peripancreatic": 4265,
      "structing": 4266,
      "paravertebral": 4267,
      "iliop": 4268,
      "highlight": 4269,
      "superiorly": 4270,
      "cencies": 4271,
      "quadri": 4272,
      "hemangioma": 4273,
      "emo": 4274,
      "gation": 4275,
      "honey": 4276,
      "ino": 4277,
      "invag": 4278,
      "antibi": 4279,
      "artic": 4280,
      "rix": 4281,
      "distra": 4282,
      "determin": 4283,
      "ids": 4284,
      "fever": 4285,
      "lier": 4286,
      "romal": 4287,
      "cytoma": 4288,
      "range": 4289,
      "venography": 4290,
      "cervic": 4291,
      "2013": 4292,
      "mucin": 4293,
      "restoration": 4294,
      "expanded": 4295,
      "continuity": 4296,
      "debris": 4297,
      "department": 4298,
      "mpan": 4299,
      "nine": 4300,
      "incision": 4301,
      "entero": 4302,
      "stosis": 4303,
      "shot": 4304,
      "bearing": 4305,
      "caly": 4306,
      "transition": 4307,
      "obstructing": 4308,
      "jecting": 4309,
      "going": 4310,
      "branching": 4311,
      "floating": 4312,
      "infarcts": 4313,
      "labeled": 4314,
      "myometrium": 4315,
      "discrete": 4316,
      "%.": 4317,
      "mg": 4318,
      "uted": 4319,
      "rele": 4320,
      "recent": 4321,
      "self": 4322,
      "peak": 4323,
      "olip": 4324,
      "concentric": 4325,
      "adult": 4326,
      "dura": 4327,
      "exce": 4328,
      "upon": 4329,
      "2011": 4330,
      "extraction": 4331,
      "aries": 4332,
      "clot": 4333,
      "uniform": 4334,
      "native": 4335,
      "triangle": 4336,
      "separated": 4337,
      "attachment": 4338,
      "muscularis": 4339,
      "abdominis": 4340,
      "ischemic": 4341,
      "reported": 4342,
      "rao": 4343,
      "ria": 4344,
      "teromedial": 4345,
      "tracted": 4346,
      "atlan": 4347,
      "scinti": 4348,
      "unit": 4349,
      "caval": 4350,
      "loos": 4351,
      "talus": 4352,
      "allograft": 4353,
      "phytic": 4354,
      "landmarks": 4355,
      "glands": 4356,
      "styloid": 4357,
      "ficiency": 4358,
      "neoplasm": 4359,
      "zygomatic": 4360,
      "centrilobular": 4361,
      "gmented": 4362,
      "rs": 4363,
      "rpa": 4364,
      "detail": 4365,
      "pathy": 4366,
      "condition": 4367,
      "tain": 4368,
      "cobb": 4369,
      "obje": 4370,
      "subcostal": 4371,
      "intraventricular": 4372,
      "import": 4373,
      "individ": 4374,
      "atrio": 4375,
      "followup": 4376,
      "paratracheal": 4377,
      "disappeared": 4378,
      "matrix": 4379,
      "schw": 4380,
      "calcaneus": 4381,
      "laparoscopic": 4382,
      "distortion": 4383,
      "adipose": 4384,
      "iliopsoas": 4385,
      "antibiotic": 4386,
      "dog": 4387,
      "gg": 4388,
      "ham": 4389,
      "zer": 4390,
      "anchor": 4391,
      "represented": 4392,
      "stromal": 4393,
      "despite": 4394,
      "pha": 4395,
      "phrenic": 4396,
      "roof": 4397,
      "lot": 4398,
      "tention": 4399,
      "tened": 4400,
      "carina": 4401,
      "particular": 4402,
      "regional": 4403,
      "micr": 4404,
      "parapharyngeal": 4405,
      "segmentation": 4406,
      "tically": 4407,
      "edematous": 4408,
      "mpus": 4409,
      "circled": 4410,
      "caliber": 4411,
      "elongated": 4412,
      "sphinc": 4413,
      "liquid": 4414,
      "cora": 4415,
      "vulus": 4416,
      "destructive": 4417,
      "wise": 4418,
      "scia": 4419,
      "lysis": 4420,
      "uretero": 4421,
      "perone": 4422,
      "motor": 4423,
      "probab": 4424,
      "fluorescence": 4425,
      "pulp": 4426,
      "syl": 4427,
      "centered": 4428,
      "circular": 4429,
      "filter": 4430,
      "retropharyngeal": 4431,
      "palatal": 4432,
      "500": 4433,
      "hands": 4434,
      "separation": 4435,
      "calcaneal": 4436,
      "accompanied": 4437,
      "markings": 4438,
      "deposits": 4439,
      "individual": 4440,
      "69": 4441,
      "imm": 4442,
      "ka": 4443,
      "plu": 4444,
      "vox": 4445,
      "although": 4446,
      "dig": 4447,
      "laire": 4448,
      "degre": 4449,
      "cecal": 4450,
      "provi": 4451,
      "applied": 4452,
      "cycles": 4453,
      "reaching": 4454,
      "cost": 4455,
      "tympan": 4456,
      "obstructed": 4457,
      "many": 4458,
      "volvulus": 4459,
      "dama": 4460,
      "osteop": 4461,
      "cirrh": 4462,
      "infiltrate": 4463,
      "osteoarthritis": 4464,
      "mptomatic": 4465,
      "included": 4466,
      "asymptomatic": 4467,
      "profile": 4468,
      "ficient": 4469,
      "ophthalmic": 4470,
      "bs": 4471,
      "fall": 4472,
      "gd": 4473,
      "tb": 4474,
      "desis": 4475,
      "peci": 4476,
      "ulo": 4477,
      "ographie": 4478,
      "radiolog": 4479,
      "radiologic": 4480,
      "mouth": 4481,
      "giving": 4482,
      "callus": 4483,
      "multiloculated": 4484,
      "hypodensity": 4485,
      "dislocated": 4486,
      "inflation": 4487,
      "circles": 4488,
      "starting": 4489,
      "leaflets": 4490,
      "nuclei": 4491,
      "dysplastic": 4492,
      "directly": 4493,
      "definite": 4494,
      "penetrating": 4495,
      "labrum": 4496,
      "corneal": 4497,
      "punctate": 4498,
      "coccy": 4499,
      "territory": 4500,
      "schwann": 4501,
      "degrees": 4502,
      "bry": 4503,
      "bud": 4504,
      "lit": 4505,
      "nm": 4506,
      "thus": 4507,
      "rapid": 4508,
      "rium": 4509,
      "sie": 4510,
      "deliver": 4511,
      "wires": 4512,
      "quality": 4513,
      "omastoid": 4514,
      "intub": 4515,
      "valv": 4516,
      "recto": 4517,
      "eping": 4518,
      "occluder": 4519,
      "portions": 4520,
      "text": 4521,
      "suggests": 4522,
      "homogeneously": 4523,
      "amel": 4524,
      "stenotic": 4525,
      "affecting": 4526,
      "sciatic": 4527,
      "1st": 4528,
      "51": 4529,
      "dwi": 4530,
      "kub": 4531,
      "mber": 4532,
      "tse": 4533,
      "tog": 4534,
      "vus": 4535,
      "rable": 4536,
      "rately": 4537,
      "onic": 4538,
      "thecal": 4539,
      "anteri": 4540,
      "enamel": 4541,
      "ofrequency": 4542,
      "rity": 4543,
      "consi": 4544,
      "begin": 4545,
      "tage": 4546,
      "acl": 4547,
      "strain": 4548,
      "propri": 4549,
      "big": 4550,
      "possi": 4551,
      "called": 4552,
      "prevertebral": 4553,
      "normally": 4554,
      "icking": 4555,
      "staining": 4556,
      "ginous": 4557,
      "opacified": 4558,
      "palpa": 4559,
      "fibrotic": 4560,
      "stalk": 4561,
      "2008": 4562,
      "servation": 4563,
      "epithelium": 4564,
      "erupted": 4565,
      "honeycomb": 4566,
      "voxel": 4567,
      "aca": 4568,
      "bly": 4569,
      "cop": 4570,
      "ecta": 4571,
      "fit": 4572,
      "pol": 4573,
      "uous": 4574,
      "infusion": 4575,
      "teg": 4576,
      "ani": 4577,
      "ano": 4578,
      "remark": 4579,
      "report": 4580,
      "ofemo": 4581,
      "pad": 4582,
      "ung": 4583,
      "radiofrequency": 4584,
      "fibular": 4585,
      "spur": 4586,
      "onecro": 4587,
      "processes": 4588,
      "biceps": 4589,
      "cysti": 4590,
      "especi": 4591,
      "obron": 4592,
      "amplat": 4593,
      "t11": 4594,
      "followed": 4595,
      "parameters": 4596,
      "disk": 4597,
      "saccular": 4598,
      "mature": 4599,
      "nearly": 4600,
      "anky": 4601,
      "2009": 4602,
      "phalanges": 4603,
      "mammography": 4604,
      "appendici": 4605,
      "working": 4606,
      "hippocam": 4607,
      "magnification": 4608,
      "kyphosis": 4609,
      "isthmus": 4610,
      "gastrografin": 4611,
      "loosening": 4612,
      "ofemoral": 4613,
      "bene": 4614,
      "mc": 4615,
      "oesophagus": 4616,
      "pple": 4617,
      "encapsu": 4618,
      "sitom": 4619,
      "seque": 4620,
      "condu": 4621,
      "contained": 4622,
      "came": 4623,
      "best": 4624,
      "urogram": 4625,
      "rical": 4626,
      "box": 4627,
      "plastic": 4628,
      "intrauterine": 4629,
      "dys": 4630,
      "outlet": 4631,
      "therefore": 4632,
      "centi": 4633,
      "saline": 4634,
      "embry": 4635,
      "endotracheal": 4636,
      "bulla": 4637,
      "attenuating": 4638,
      "restric": 4639,
      "scalene": 4640,
      "average": 4641,
      "artifacts": 4642,
      "markers": 4643,
      "adnexal": 4644,
      "exophytic": 4645,
      "rotator": 4646,
      "vacu": 4647,
      "initiation": 4648,
      "mucinous": 4649,
      "propria": 4650,
      "especially": 4651,
      "athe": 4652,
      "bas": 4653,
      "cca": 4654,
      "dl": 4655,
      "har": 4656,
      "lis": 4657,
      "pez": 4658,
      "ctation": 4659,
      "traver": 4660,
      "atine": 4661,
      "topic": 4662,
      "iness": 4663,
      "carinal": 4664,
      "mim": 4665,
      "mani": 4666,
      "imping": 4667,
      "midsagittal": 4668,
      "twin": 4669,
      "stained": 4670,
      "cinate": 4671,
      "retina": 4672,
      "maintained": 4673,
      "breath": 4674,
      "inflated": 4675,
      "illustrates": 4676,
      "classic": 4677,
      "widened": 4678,
      "reflective": 4679,
      "next": 4680,
      "omatosis": 4681,
      "confluent": 4682,
      "longer": 4683,
      "putamen": 4684,
      "lighted": 4685,
      "atrioventricular": 4686,
      "appendicitis": 4687,
      "fy": 4688,
      "pall": 4689,
      "xy": 4690,
      "titan": 4691,
      "leu": 4692,
      "simul": 4693,
      "siform": 4694,
      "silic": 4695,
      "pero": 4696,
      "trapez": 4697,
      "neu": 4698,
      "tence": 4699,
      "mouse": 4700,
      "ago": 4701,
      "thoracolum": 4702,
      "inflow": 4703,
      "rvot": 4704,
      "presents": 4705,
      "follic": 4706,
      "airspace": 4707,
      "highlighted": 4708,
      "metaphysis": 4709,
      "bulky": 4710,
      "nodal": 4711,
      "gluteal": 4712,
      "connected": 4713,
      "turb": 4714,
      "widespread": 4715,
      "meningeal": 4716,
      "tilt": 4717,
      "complicated": 4718,
      "cruci": 4719,
      "pigtail": 4720,
      "scintigraphy": 4721,
      "manife": 4722,
      "74": 4723,
      "ether": 4724,
      "either": 4725,
      "mv": 4726,
      "t8": 4727,
      "ali": 4728,
      "tigu": 4729,
      "rod": 4730,
      "cave": 4731,
      "mentary": 4732,
      "fibri": 4733,
      "proxim": 4734,
      "rono": 4735,
      "mm2": 4736,
      "hypertension": 4737,
      "hyperplasia": 4738,
      "longus": 4739,
      "centrally": 4740,
      "crescent": 4741,
      "milli": 4742,
      "retroperitoneum": 4743,
      "processus": 4744,
      "nuclear": 4745,
      "abdominopelvic": 4746,
      "definition": 4747,
      "scaphoid": 4748,
      "hippocampus": 4749,
      "division": 4750,
      "caecum": 4751,
      "hepatocellular": 4752,
      "difficult": 4753,
      "cluster": 4754,
      "atlanto": 4755,
      "together": 4756,
      "simultaneous": 4757,
      "thoracolumbar": 4758,
      "hd": 4759,
      "ila": 4760,
      "vsd": 4761,
      "retention": 4762,
      "stag": 4763,
      "atre": 4764,
      "conf": 4765,
      "uncinate": 4766,
      "neph": 4767,
      "come": 4768,
      "tomoden": 4769,
      "ureteric": 4770,
      "upward": 4771,
      "transo": 4772,
      "diaphysis": 4773,
      "anel": 4774,
      "cleid": 4775,
      "valgus": 4776,
      "hypointensity": 4777,
      "cavitation": 4778,
      "ductor": 4779,
      "joining": 4780,
      "2012": 4781,
      "osus": 4782,
      "extrahepatic": 4783,
      "collecting": 4784,
      "rupt": 4785,
      "detector": 4786,
      "nasogastric": 4787,
      "classification": 4788,
      "sulcus": 4789,
      "coarctation": 4790,
      "purple": 4791,
      "aortogram": 4792,
      "achieved": 4793,
      "congestion": 4794,
      "package": 4795,
      "probably": 4796,
      "obronchial": 4797,
      "titanium": 4798,
      "proximity": 4799,
      "tomodensitom": 4800,
      "fon": 4801,
      "ked": 4802,
      "swi": 4803,
      "vs": 4804,
      "xa": 4805,
      "innom": 4806,
      "sts": 4807,
      "sement": 4808,
      "conus": 4809,
      "undi": 4810,
      "compa": 4811,
      "radiopacity": 4812,
      "duplication": 4813,
      "perirenal": 4814,
      "coronoid": 4815,
      "cardio": 4816,
      "faint": 4817,
      "osteonecro": 4818,
      "orbits": 4819,
      "bulbar": 4820,
      "scallo": 4821,
      "emphysematous": 4822,
      "papilla": 4823,
      "obturator": 4824,
      "antegrade": 4825,
      "clips": 4826,
      "clivus": 4827,
      "flank": 4828,
      "pectoralis": 4829,
      "tentorial": 4830,
      "innominate": 4831,
      "95": 4832,
      "kes": 4833,
      "sb": 4834,
      "t7": 4835,
      "ons": 4836,
      "aty": 4837,
      "yelo": 4838,
      "angiomy": 4839,
      "midbrain": 4840,
      "suggested": 4841,
      "appropri": 4842,
      "peripherally": 4843,
      "hyperech": 4844,
      "standardi": 4845,
      "organs": 4846,
      "craniocaudal": 4847,
      "pyelogram": 4848,
      "periodontal": 4849,
      "spiculated": 4850,
      "optimal": 4851,
      "myxoma": 4852,
      "lordosis": 4853,
      "dextrocardia": 4854,
      "plug": 4855,
      "delivery": 4856,
      "appropriate": 4857,
      "5th": 4858,
      "exi": 4859,
      "teration": 4860,
      "riform": 4861,
      "phied": 4862,
      "ischial": 4863,
      "edullary": 4864,
      "uns": 4865,
      "melan": 4866,
      "cast": 4867,
      "abrupt": 4868,
      "radiogram": 4869,
      "care": 4870,
      "perihilar": 4871,
      "estima": 4872,
      "diabe": 4873,
      "multic": 4874,
      "emboli": 4875,
      "gallstone": 4876,
      "effa": 4877,
      "leads": 4878,
      "mmetry": 4879,
      "ethmoidal": 4880,
      "boundaries": 4881,
      "interpreted": 4882,
      "bridging": 4883,
      "bundle": 4884,
      "steady": 4885,
      "distraction": 4886,
      "sylvian": 4887,
      "remarkable": 4888,
      "encapsulated": 4889,
      "mimicking": 4890,
      "tomodensitometri": 4891,
      "ai": 4892,
      "avascular": 4893,
      "casing": 4894,
      "gent": 4895,
      "msec": 4896,
      "ng": 4897,
      "tar": 4898,
      "ziness": 4899,
      "lac": 4900,
      "cts": 4901,
      "adc": 4902,
      "corner": 4903,
      "gia": 4904,
      "fusiform": 4905,
      "created": 4906,
      "cases": 4907,
      "vasculature": 4908,
      "pigment": 4909,
      "2010": 4910,
      "2014": 4911,
      "integra": 4912,
      "retur": 4913,
      "retrie": 4914,
      "fleche": 4915,
      "moderately": 4916,
      "fixator": 4917,
      "hook": 4918,
      "houns": 4919,
      "current": 4920,
      "erosions": 4921,
      "hemispheric": 4922,
      "pubis": 4923,
      "magnum": 4924,
      "nasopharynx": 4925,
      "subsequently": 4926,
      "supplying": 4927,
      "against": 4928,
      "ischemia": 4929,
      "differentiated": 4930,
      "pelvi": 4931,
      "referred": 4932,
      "would": 4933,
      "adhesion": 4934,
      "plantar": 4935,
      "teratoma": 4936,
      "important": 4937,
      "cruciate": 4938,
      "atypical": 4939,
      "standardized": 4940,
      "hounsfield": 4941,
      "66": 4942,
      "away": 4943,
      "event": 4944,
      "even": 4945,
      "mt": 4946,
      "put": 4947,
      "ptosis": 4948,
      "ror": 4949,
      "ules": 4950,
      "ysis": 4951,
      "enteric": 4952,
      "encasing": 4953,
      "replaced": 4954,
      "ridge": 4955,
      "ctable": 4956,
      "edges": 4957,
      "compla": 4958,
      "check": 4959,
      "accid": 4960,
      "trochle": 4961,
      "ocla": 4962,
      "cavit": 4963,
      "diameters": 4964,
      "locations": 4965,
      "tubes": 4966,
      "prone": 4967,
      "osteosyn": 4968,
      "trin": 4969,
      "earlier": 4970,
      "developing": 4971,
      "usepackage": 4972,
      "limbs": 4973,
      "background": 4974,
      "functional": 4975,
      "hemothorax": 4976,
      "inverted": 4977,
      "tangent": 4978,
      "appreciated": 4979,
      "olipoma": 4980,
      "little": 4981,
      "hippocampal": 4982,
      "71": 4983,
      "wards": 4984,
      "teus": 4985,
      "resh": 4986,
      "remode": 4987,
      "lacri": 4988,
      "ctv": 4989,
      "chrom": 4990,
      "track": 4991,
      "atosis": 4992,
      "isch": 4993,
      "pacing": 4994,
      "concer": 4995,
      "mes": 4996,
      "meal": 4997,
      "categ": 4998,
      "locking": 4999,
      "extrin": 5000,
      "gist": 5001,
      "object": 5002,
      "abdominale": 5003,
      "keeping": 5004,
      "axilla": 5005,
      "endocardial": 5006,
      "extradural": 5007,
      "minim": 5008,
      "abnormally": 5009,
      "elements": 5010,
      "changed": 5011,
      "situated": 5012,
      "annular": 5013,
      "globus": 5014,
      "hypertrophic": 5015,
      "septated": 5016,
      "migrated": 5017,
      "pink": 5018,
      "incidence": 5019,
      "cystourethrogram": 5020,
      "volumes": 5021,
      "spiral": 5022,
      "sternocleid": 5023,
      "valvular": 5024,
      "amplatzer": 5025,
      "restricted": 5026,
      "confined": 5027,
      "lacrimal": 5028,
      "85": 5029,
      "rhe": 5030,
      "seed": 5031,
      "lamine": 5032,
      "scann": 5033,
      "file": 5034,
      "excre": 5035,
      "lucent": 5036,
      "operatively": 5037,
      "fove": 5038,
      "rug": 5039,
      "intrathoracic": 5040,
      "midpoint": 5041,
      "medius": 5042,
      "since": 5043,
      "ilio": 5044,
      "calcium": 5045,
      "ductus": 5046,
      "esophagogram": 5047,
      "triangular": 5048,
      "tracts": 5049,
      "corresponds": 5050,
      "impaction": 5051,
      "classified": 5052,
      "vesico": 5053,
      "vocal": 5054,
      "cortico": 5055,
      "reverse": 5056,
      "coarse": 5057,
      "squamo": 5058,
      "sarcoid": 5059,
      "costophrenic": 5060,
      "beneath": 5061,
      "osteonecrosis": 5062,
      "melanoma": 5063,
      "sternocleidomastoid": 5064,
      "apo": 5065,
      "hn": 5066,
      "lli": 5067,
      "lled": 5068,
      "alteration": 5069,
      "reformation": 5070,
      "lei": 5071,
      "lep": 5072,
      "station": 5073,
      "ord": 5074,
      "sero": 5075,
      "decid": 5076,
      "ollen": 5077,
      "itor": 5078,
      "vir": 5079,
      "proce": 5080,
      "projecting": 5081,
      "ckle": 5082,
      "diaphyseal": 5083,
      "testicle": 5084,
      "parathyroid": 5085,
      "mediolateral": 5086,
      "better": 5087,
      "satis": 5088,
      "ilium": 5089,
      "supple": 5090,
      "thrombol": 5091,
      "donor": 5092,
      "myco": 5093,
      "texture": 5094,
      "epigastric": 5095,
      "whereas": 5096,
      "human": 5097,
      "hemoperitoneum": 5098,
      "opathic": 5099,
      "resected": 5100,
      "remains": 5101,
      "swollen": 5102,
      "schwannoma": 5103,
      "palpable": 5104,
      "ement": 5105,
      "insuf": 5106,
      "ente": 5107,
      "rema": 5108,
      "phos": 5109,
      "pes": 5110,
      "gel": 5111,
      "usual": 5112,
      "scout": 5113,
      "itant": 5114,
      "ssfp": 5115,
      "lopi": 5116,
      "look": 5117,
      "latera": 5118,
      "opposite": 5119,
      "upright": 5120,
      "api": 5121,
      "foley": 5122,
      "obser": 5123,
      "cmr": 5124,
      "pulse": 5125,
      "t10": 5126,
      "proximally": 5127,
      "lymphatic": 5128,
      "metaphyseal": 5129,
      "cerebra": 5130,
      "2015": 5131,
      "shortening": 5132,
      "embolized": 5133,
      "dorso": 5134,
      "trabeculation": 5135,
      "vestibular": 5136,
      "denotes": 5137,
      "tympanic": 5138,
      "oclavicular": 5139,
      "extrinsic": 5140,
      "ava": 5141,
      "lm": 5142,
      "mpa": 5143,
      "slo": 5144,
      "sper": 5145,
      "xel": 5146,
      "ystic": 5147,
      "zing": 5148,
      "°.": 5149,
      "induced": 5150,
      "instability": 5151,
      "arc": 5152,
      "str": 5153,
      "supero": 5154,
      "beak": 5155,
      "inear": 5156,
      "arean": 5157,
      "pressed": 5158,
      "subcarinal": 5159,
      "stectomy": 5160,
      "intersection": 5161,
      "inib": 5162,
      "cannot": 5163,
      "lene": 5164,
      "femoris": 5165,
      "aneurysms": 5166,
      "foraminal": 5167,
      "inflamed": 5168,
      "univer": 5169,
      "150": 5170,
      "archite": 5171,
      "radiotracer": 5172,
      "bridge": 5173,
      "gluteus": 5174,
      "produit": 5175,
      "grossly": 5176,
      "intimal": 5177,
      "idiopathic": 5178,
      "artefact": 5179,
      "received": 5180,
      "anesthetic": 5181,
      "immun": 5182,
      "damage": 5183,
      "intubation": 5184,
      "atresia": 5185,
      "hyperechogenic": 5186,
      "squamous": 5187,
      "a1": 5188,
      "nc": 5189,
      "pc": 5190,
      "pda": 5191,
      "rm": 5192,
      "t6": 5193,
      "inated": 5194,
      "them": 5195,
      "ens": 5196,
      "adher": 5197,
      "ilinear": 5198,
      "lie": 5199,
      "excell": 5200,
      "yema": 5201,
      "intradural": 5202,
      "ventila": 5203,
      "manually": 5204,
      "what": 5205,
      "extensor": 5206,
      "bowing": 5207,
      "viding": 5208,
      "displays": 5209,
      "sizes": 5210,
      "stim": 5211,
      "occlusive": 5212,
      "contains": 5213,
      "variable": 5214,
      "avm": 5215,
      "split": 5216,
      "tonsil": 5217,
      "turbul": 5218,
      "thalami": 5219,
      "electron": 5220,
      "work": 5221,
      "empyema": 5222,
      "acromi": 5223,
      "acromion": 5224,
      "differentiation": 5225,
      "laryngeal": 5226,
      "incidentally": 5227,
      "pterygoid": 5228,
      "discontinuity": 5229,
      "determination": 5230,
      "effacement": 5231,
      "sarcoidosis": 5232,
      "phosph": 5233,
      "excellent": 5234,
      "fted": 5235,
      "gtv": 5236,
      "pti": 5237,
      "wound": 5238,
      "rating": 5239,
      "onto": 5240,
      "onodular": 5241,
      "ala": 5242,
      "reci": 5243,
      "requi": 5244,
      "ription": 5245,
      "omen": 5246,
      "omic": 5247,
      "olus": 5248,
      "atum": 5249,
      "contigu": 5250,
      "comprom": 5251,
      "sisted": 5252,
      "calcin": 5253,
      "transhe": 5254,
      "dering": 5255,
      "chori": 5256,
      "ampul": 5257,
      "mities": 5258,
      "sagittale": 5259,
      "echoes": 5260,
      "key": 5261,
      "ilia": 5262,
      "haziness": 5263,
      "marginated": 5264,
      "consolidations": 5265,
      "arthrodesis": 5266,
      "hydroureter": 5267,
      "polyp": 5268,
      "successfully": 5269,
      "facing": 5270,
      "perineal": 5271,
      "metabol": 5272,
      "curvilinear": 5273,
      "scrotum": 5274,
      "voiding": 5275,
      "reticul": 5276,
      "stream": 5277,
      "heterotopic": 5278,
      "fovea": 5279,
      "cerebrale": 5280,
      "transhepatic": 5281,
      "73": 5282,
      "cog": 5283,
      "drug": 5284,
      "fc": 5285,
      "jv": 5286,
      "rog": 5287,
      "t9": 5288,
      "twi": 5289,
      "uri": 5290,
      "asd": 5291,
      "attem": 5292,
      "tated": 5293,
      "fies": 5294,
      "proptosis": 5295,
      "posteri": 5296,
      "calf": 5297,
      "colo": 5298,
      "hypoechogenic": 5299,
      "tures": 5300,
      "oriented": 5301,
      "positions": 5302,
      "retin": 5303,
      "penile": 5304,
      "blush": 5305,
      "thrombosed": 5306,
      "gastroduodenal": 5307,
      "coiling": 5308,
      "distributed": 5309,
      "appendiceal": 5310,
      "asymmetry": 5311,
      "penetration": 5312,
      "occurred": 5313,
      "deltoid": 5314,
      "printed": 5315,
      "cirrhosis": 5316,
      "impingement": 5317,
      "turbinate": 5318,
      "remained": 5319,
      "acromioclavicular": 5320,
      "76": 5321,
      "eure": 5322,
      "gone": 5323,
      "miliary": 5324,
      "rpe": 5325,
      "vary": 5326,
      "reactive": 5327,
      "omedullary": 5328,
      "room": 5329,
      "edu": 5330,
      "toe": 5331,
      "teria": 5332,
      "experi": 5333,
      "extru": 5334,
      "given": 5335,
      "opal": 5336,
      "amy": 5337,
      "transaxial": 5338,
      "lunate": 5339,
      "izing": 5340,
      "cica": 5341,
      "thylene": 5342,
      "endoleak": 5343,
      "diagonal": 5344,
      "bullo": 5345,
      "alysis": 5346,
      "screen": 5347,
      "surfaces": 5348,
      "tendons": 5349,
      "fallopi": 5350,
      "hospitalization": 5351,
      "hypertrophied": 5352,
      "horse": 5353,
      "vegetations": 5354,
      "pyelography": 5355,
      "caecal": 5356,
      "square": 5357,
      "folds": 5358,
      "fibrilla": 5359,
      "accident": 5360,
      "laminectomy": 5361,
      "deciduous": 5362,
      "availa": 5363,
      "fallopian": 5364,
      "gru": 5365,
      "gam": 5366,
      "hs": 5367,
      "nature": 5368,
      "anom": 5369,
      "retraction": 5370,
      "orosis": 5371,
      "latero": 5372,
      "traject": 5373,
      "conal": 5374,
      "until": 5375,
      "lodge": 5376,
      "fective": 5377,
      "domain": 5378,
      "bifid": 5379,
      "cough": 5380,
      "subretinal": 5381,
      "interphalangeal": 5382,
      "interrupted": 5383,
      "distant": 5384,
      "gated": 5385,
      "infero": 5386,
      "osteopen": 5387,
      "endodon": 5388,
      "pyra": 5389,
      "wash": 5390,
      "perforated": 5391,
      "gyrus": 5392,
      "equal": 5393,
      "divided": 5394,
      "magnified": 5395,
      "ofib": 5396,
      "hollow": 5397,
      "young": 5398,
      "ctivant": 5399,
      "lithiasis": 5400,
      "objectivant": 5401,
      "sphincter": 5402,
      "pallidus": 5403,
      "contiguous": 5404,
      "available": 5405,
      "anomaly": 5406,
      "aqu": 5407,
      "eo": 5408,
      "kys": 5409,
      "pine": 5410,
      "rography": 5411,
      "thm": 5412,
      "lev": 5413,
      "stral": 5414,
      "entra": 5415,
      "tracing": 5416,
      "usually": 5417,
      "tocol": 5418,
      "toire": 5419,
      "commis": 5420,
      "bezo": 5421,
      "acral": 5422,
      "movie": 5423,
      "contrasted": 5424,
      "cycle": 5425,
      "predomin": 5426,
      "brachy": 5427,
      "intracardiac": 5428,
      "saphen": 5429,
      "appearances": 5430,
      "patch": 5431,
      "embolisation": 5432,
      "distances": 5433,
      "variant": 5434,
      "grafting": 5435,
      "ologically": 5436,
      "computerised": 5437,
      "arthrosis": 5438,
      "prominence": 5439,
      "evaluated": 5440,
      "infrarenal": 5441,
      "chiasm": 5442,
      "critical": 5443,
      "overlapping": 5444,
      "steroid": 5445,
      "easi": 5446,
      "multicystic": 5447,
      "satisfactory": 5448,
      "thrombolysis": 5449,
      "calcinosis": 5450,
      "cne": 5451,
      "cure": 5452,
      "cub": 5453,
      "ith": 5454,
      "ptor": 5455,
      "directed": 5456,
      "serous": 5457,
      "lat": 5458,
      "geminal": 5459,
      "touch": 5460,
      "sures": 5461,
      "lim": 5462,
      "exer": 5463,
      "yer": 5464,
      "dots": 5465,
      "plaques": 5466,
      "blastoma": 5467,
      "cm2": 5468,
      "ulating": 5469,
      "pseud": 5470,
      "incl": 5471,
      "incre": 5472,
      "scleral": 5473,
      "orthopantomography": 5474,
      "detection": 5475,
      "correspond": 5476,
      "gastrocne": 5477,
      "atrophic": 5478,
      "turcica": 5479,
      "(*).": 5480,
      "smv": 5481,
      "caliper": 5482,
      "paroi": 5483,
      "differential": 5484,
      "synovitis": 5485,
      "acromial": 5486,
      "histopathology": 5487,
      "ofluorescence": 5488,
      "expanding": 5489,
      "introduced": 5490,
      "quadriceps": 5491,
      "except": 5492,
      "radiologist": 5493,
      "staging": 5494,
      "reticulonodular": 5495,
      "aded": 5496,
      "ess": 5497,
      "fb": 5498,
      "hl": 5499,
      "ld": 5500,
      "nic": 5501,
      "sans": 5502,
      "xray": 5503,
      "°,": 5504,
      "antic": 5505,
      "reo": 5506,
      "reprinted": 5507,
      "ork": 5508,
      "dee": 5509,
      "assi": 5510,
      "pool": 5511,
      "poten": 5512,
      "units": 5513,
      "neon": 5514,
      "vermis": 5515,
      "viewed": 5516,
      "foveal": 5517,
      "lling": 5518,
      "mius": 5519,
      "infundi": 5520,
      "failed": 5521,
      "vasogenic": 5522,
      "pie": 5523,
      "pixel": 5524,
      "valves": 5525,
      "initially": 5526,
      "representation": 5527,
      "causes": 5528,
      "windows": 5529,
      "suprarenal": 5530,
      "projections": 5531,
      "osteochond": 5532,
      "passed": 5533,
      "intestinalis": 5534,
      "contoured": 5535,
      "ossified": 5536,
      "global": 5537,
      "characteristics": 5538,
      "extreme": 5539,
      "gleno": 5540,
      "athero": 5541,
      "minimum": 5542,
      "gastrocnemius": 5543,
      "05": 5544,
      "plo": 5545,
      "ught": 5546,
      "”.": 5547,
      "rare": 5548,
      "ondy": 5549,
      "dialysis": 5550,
      "seminal": 5551,
      "dered": 5552,
      "deposit": 5553,
      "rosthe": 5554,
      "unting": 5555,
      "web": 5556,
      "acry": 5557,
      "expo": 5558,
      "opar": 5559,
      "projected": 5560,
      "presacral": 5561,
      "daugh": 5562,
      "musculature": 5563,
      "nipple": 5564,
      "figures": 5565,
      "cuts": 5566,
      "extracted": 5567,
      "forms": 5568,
      "mortem": 5569,
      "embolus": 5570,
      "isodense": 5571,
      "drains": 5572,
      "300": 5573,
      "2007": 5574,
      "clinic": 5575,
      "horns": 5576,
      "transplanted": 5577,
      "mitted": 5578,
      "spots": 5579,
      "sulci": 5580,
      "glottis": 5581,
      "adnexa": 5582,
      "crystal": 5583,
      "osteophyte": 5584,
      "osteophytes": 5585,
      "cochlea": 5586,
      "choledochal": 5587,
      "limiting": 5588,
      "particularly": 5589,
      "ankylosis": 5590,
      "existing": 5591,
      "estimated": 5592,
      "leiomy": 5593,
      "virtu": 5594,
      "strut": 5595,
      "adherent": 5596,
      "varying": 5597,
      "endodontic": 5598,
      "bezoar": 5599,
      "saphenous": 5600,
      "potential": 5601,
      "daughter": 5602,
      "bare": 5603,
      "epa": 5604,
      "evol": 5605,
      "ily": 5606,
      "ocy": 5607,
      "panel": 5608,
      "togenic": 5609,
      "inlet": 5610,
      "teen": 5611,
      "alg": 5612,
      "ana": 5613,
      "tight": 5614,
      "rid": 5615,
      "stap": 5616,
      "sem": 5617,
      "dehis": 5618,
      "roscopy": 5619,
      "asper": 5620,
      "olis": 5621,
      "duplex": 5622,
      "opll": 5623,
      "placing": 5624,
      "carditis": 5625,
      "tubal": 5626,
      "ize": 5627,
      "osteosarcoma": 5628,
      "regene": 5629,
      "pneumocephalus": 5630,
      "cession": 5631,
      "mostly": 5632,
      "microcatheter": 5633,
      "shell": 5634,
      "illustrated": 5635,
      "newly": 5636,
      "classical": 5637,
      "neurolog": 5638,
      "odontogenic": 5639,
      "repeated": 5640,
      "obtuse": 5641,
      "determine": 5642,
      "stabilization": 5643,
      "receptor": 5644,
      "allows": 5645,
      "varus": 5646,
      "dissecting": 5647,
      "stroke": 5648,
      "covering": 5649,
      "cervico": 5650,
      "osteoporosis": 5651,
      "cystitis": 5652,
      "transoesophageal": 5653,
      "osteosynthesis": 5654,
      "category": 5655,
      "university": 5656,
      "required": 5657,
      "%,": 5658,
      "78": 5659,
      "avi": 5660,
      "cric": 5661,
      "dal": 5662,
      "eb": 5663,
      "frequency": 5664,
      "han": 5665,
      "ice": 5666,
      "ired": 5667,
      "sle": 5668,
      "altered": 5669,
      "ters": 5670,
      "netw": 5671,
      "adap": 5672,
      "tau": 5673,
      "demonstration": 5674,
      "transi": 5675,
      "subacute": 5676,
      "distress": 5677,
      "intensive": 5678,
      "preoperatively": 5679,
      "cros": 5680,
      "crosses": 5681,
      "compressive": 5682,
      "endobronchial": 5683,
      "pylor": 5684,
      "sensi": 5685,
      "penis": 5686,
      "calculation": 5687,
      "radiolucencies": 5688,
      "resulted": 5689,
      "expansive": 5690,
      "distention": 5691,
      "mbling": 5692,
      "ballooning": 5693,
      "sixth": 5694,
      "tubercle": 5695,
      "turbo": 5696,
      "continued": 5697,
      "techne": 5698,
      "premolars": 5699,
      "resembling": 5700,
      "cannulation": 5701,
      "cisterns": 5702,
      "aortography": 5703,
      "tampon": 5704,
      "oblastoma": 5705,
      "structural": 5706,
      "silicone": 5707,
      "scannographique": 5708,
      "leptom": 5709,
      "osteopenia": 5710,
      "easily": 5711,
      "exposure": 5712,
      "asperg": 5713,
      "dans": 5714,
      "fas": 5715,
      "hg": 5716,
      "ig": 5717,
      "kg": 5718,
      "n1": 5719,
      "nus": 5720,
      "pg": 5721,
      "pren": 5722,
      "indistinct": 5723,
      "tices": 5724,
      "ulceration": 5725,
      "arrowed": 5726,
      "concha": 5727,
      "itus": 5728,
      "fish": 5729,
      "acia": 5730,
      "accu": 5731,
      "cial": 5732,
      "sous": 5733,
      "force": 5734,
      "cyan": 5735,
      "cyto": 5736,
      "coronale": 5737,
      "plus": 5738,
      "hypersignal": 5739,
      "hyperdensity": 5740,
      "cystography": 5741,
      "stasis": 5742,
      "orithm": 5743,
      "suppor": 5744,
      "thrombi": 5745,
      "aspects": 5746,
      "association": 5747,
      "aux": 5748,
      "orthop": 5749,
      "united": 5750,
      "triple": 5751,
      "torsion": 5752,
      "passes": 5753,
      "diverticula": 5754,
      "producing": 5755,
      "drawing": 5756,
      "activation": 5757,
      "downward": 5758,
      "encephalopathy": 5759,
      "umbilic": 5760,
      "exhibits": 5761,
      "cochlear": 5762,
      "partici": 5763,
      "iodine": 5764,
      "ectasia": 5765,
      "educt": 5766,
      "algorithm": 5767,
      "pylorus": 5768,
      "120": 5769,
      "d1": 5770,
      "mta": 5771,
      "pra": 5772,
      "t5": 5773,
      "tha": 5774,
      "inous": 5775,
      "rads": 5776,
      "ofac": 5777,
      "ril": 5778,
      "laser": 5779,
      "istered": 5780,
      "sube": 5781,
      "comet": 5782,
      "loose": 5783,
      "noise": 5784,
      "urine": 5785,
      "tomas": 5786,
      "percent": 5787,
      "protocol": 5788,
      "posteromedial": 5789,
      "operatoire": 5790,
      "interbody": 5791,
      "intraparenchymal": 5792,
      "distingu": 5793,
      "disorder": 5794,
      "arteriosus": 5795,
      "osteoma": 5796,
      "embed": 5797,
      "catheters": 5798,
      "endoscopy": 5799,
      "oropharynx": 5800,
      "splenium": 5801,
      "augment": 5802,
      "ureters": 5803,
      "identification": 5804,
      "membranous": 5805,
      "characterized": 5806,
      "anastomotic": 5807,
      "odontic": 5808,
      "tility": 5809,
      "nasopharyngeal": 5810,
      "convexity": 5811,
      "coccygeal": 5812,
      "traversing": 5813,
      "immuno": 5814,
      "opalatine": 5815,
      "inclination": 5816,
      "leptomening": 5817,
      "ofacial": 5818,
      "cil": 5819,
      "cune": 5820,
      "htt": 5821,
      "vt": 5822,
      "institu": 5823,
      "rabb": 5824,
      "recog": 5825,
      "rig": 5826,
      "string": 5827,
      "macula": 5828,
      "deficiency": 5829,
      "cep": 5830,
      "icd": 5831,
      "ulcer": 5832,
      "asses": 5833,
      "meatus": 5834,
      "bell": 5835,
      "malle": 5836,
      "lished": 5837,
      "taper": 5838,
      "oneph": 5839,
      "prolife": 5840,
      "bir": 5841,
      "cystectomy": 5842,
      "preservation": 5843,
      "precession": 5844,
      "obsc": 5845,
      "obiliary": 5846,
      "subst": 5847,
      "aml": 5848,
      "dysp": 5849,
      "sym": 5850,
      "tissulaire": 5851,
      "supplied": 5852,
      "vascularized": 5853,
      "pneumopericardium": 5854,
      "cessive": 5855,
      "cesarean": 5856,
      "shock": 5857,
      "capillary": 5858,
      "fibroid": 5859,
      "orthopantam": 5860,
      "generated": 5861,
      "identify": 5862,
      "glue": 5863,
      "fibrin": 5864,
      "laminar": 5865,
      "mapping": 5866,
      "orescent": 5867,
      "larynx": 5868,
      "flattening": 5869,
      "exhibiting": 5870,
      "bronchovascular": 5871,
      "corporeal": 5872,
      "provided": 5873,
      "aqueduct": 5874,
      "kystique": 5875,
      "distingui": 5876,
      "//": 5877,
      "://": 5878,
      "ased": 5879,
      "brow": 5880,
      "ejection": 5881,
      "fn": 5882,
      "hcc": 5883,
      "ius": 5884,
      "ko": 5885,
      "lmca": 5886,
      "ost": 5887,
      "s2": 5888,
      "rather": 5889,
      "stus": 5890,
      "situs": 5891,
      "seem": 5892,
      "veri": 5893,
      "labral": 5894,
      "uly": 5895,
      "comminu": 5896,
      "cortices": 5897,
      "chez": 5898,
      "expected": 5899,
      "operated": 5900,
      "subtrochanteric": 5901,
      "substance": 5902,
      "heada": 5903,
      "intraocular": 5904,
      "porta": 5905,
      "pient": 5906,
      "nonunion": 5907,
      "spacer": 5908,
      "support": 5909,
      "ostial": 5910,
      "endoscope": 5911,
      "mina": 5912,
      "diagram": 5913,
      "discs": 5914,
      "break": 5915,
      "episo": 5916,
      "cauda": 5917,
      "eroding": 5918,
      "avoid": 5919,
      "include": 5920,
      "199": 5921,
      "fungal": 5922,
      "pushing": 5923,
      "ecmo": 5924,
      "thelial": 5925,
      "obliterated": 5926,
      "electrodes": 5927,
      "intima": 5928,
      "placental": 5929,
      "complications": 5930,
      "blur": 5931,
      "spondylo": 5932,
      "epithelial": 5933,
      "schematic": 5934,
      "instrumentation": 5935,
      "tmj": 5936,
      "protein": 5937,
      "invagination": 5938,
      "rectosigmoid": 5939,
      "pineal": 5940,
      "glenohumeral": 5941,
      "olisthesis": 5942,
      "tamponade": 5943,
      "fascic": 5944,
      "umbilicus": 5945,
      "7th": 5946,
      "83": 5947,
      "cence": 5948,
      "fna": 5949,
      "kv": 5950,
      "kine": 5951,
      "lc": 5952,
      "lve": 5953,
      "myelo": 5954,
      "psa": 5955,
      "pns": 5956,
      "rf": 5957,
      "thening": 5958,
      "timi": 5959,
      "rein": 5960,
      "recanal": 5961,
      "dibular": 5962,
      "segmented": 5963,
      "unerupted": 5964,
      "comes": 5965,
      "loric": 5966,
      "loading": 5967,
      "radical": 5968,
      "tome": 5969,
      "lipos": 5970,
      "lipse": 5971,
      "mosa": 5972,
      "perihepatic": 5973,
      "periprosthetic": 5974,
      "apla": 5975,
      "coiled": 5976,
      "posttreatment": 5977,
      "dermoid": 5978,
      "submucosa": 5979,
      "random": 5980,
      "stain": 5981,
      "septic": 5982,
      "figs": 5983,
      "pyloric": 5984,
      "cranium": 5985,
      "disclo": 5986,
      "irregularly": 5987,
      "undergoing": 5988,
      "much": 5989,
      "orthodontic": 5990,
      "ways": 5991,
      "shoe": 5992,
      "cerebello": 5993,
      "condyles": 5994,
      "infiltrations": 5995,
      "cug": 5996,
      "jejunostomy": 5997,
      "haemo": 5998,
      "tuberculous": 5999,
      "blind": 6000,
      "exclusion": 6001,
      "honeycombing": 6002,
      "pelvienne": 6003,
      "trajectory": 6004,
      "eosin": 6005,
      "crossed": 6006,
      "embedded": 6007,
      "comminuted": 6008,
      "mosaic": 6009,
      ".(": 6010,
      "d2": 6011,
      "ee": 6012,
      "far": 6013,
      "gres": 6014,
      "ib": 6015,
      "kni": 6016,
      "lpa": 6017,
      "mut": 6018,
      "nis": 6019,
      "natal": 6020,
      "pci": 6021,
      "rcc": 6022,
      "thresh": 6023,
      "tele": 6024,
      "enal": 6025,
      "recor": 6026,
      "often": 6027,
      "stret": 6028,
      "phys": 6029,
      "char": 6030,
      "chron": 6031,
      "unchanged": 6032,
      "abil": 6033,
      "imaged": 6034,
      "fee": 6035,
      "xide": 6036,
      "persis": 6037,
      "duction": 6038,
      "spar": 6039,
      "proved": 6040,
      "carbon": 6041,
      "april": 6042,
      "step": 6043,
      "cardiomy": 6044,
      "march": 6045,
      "intensi": 6046,
      "pulmonaire": 6047,
      "safe": 6048,
      "nonspecific": 6049,
      "intensely": 6050,
      "class": 6051,
      "minated": 6052,
      "ivus": 6053,
      "adenopath": 6054,
      "arises": 6055,
      "gust": 6056,
      "august": 6057,
      "palmar": 6058,
      "jux": 6059,
      "echographie": 6060,
      "suprapatellar": 6061,
      "trigeminal": 6062,
      "lengthening": 6063,
      "invaded": 6064,
      "hypero": 6065,
      "coursing": 6066,
      "minimally": 6067,
      "infratemporal": 6068,
      "bursitis": 6069,
      "bands": 6070,
      "aligned": 6071,
      "pointed": 6072,
      "neurofib": 6073,
      "frontoparietal": 6074,
      "pedunculated": 6075,
      "slit": 6076,
      "micrograph": 6077,
      "apices": 6078,
      "turbulent": 6079,
      "levator": 6080,
      "network": 6081,
      "participan": 6082,
      "cardiomyopathy": 6083,
      "6th": 6084,
      "a2": 6085,
      "fam": 6086,
      "hp": 6087,
      "ijv": 6088,
      "lima": 6089,
      "rfa": 6090,
      "sand": 6091,
      "tas": 6092,
      "vd": 6093,
      "µm": 6094,
      "page": 6095,
      "constri": 6096,
      "live": 6097,
      "cia": 6098,
      "hyal": 6099,
      "aggres": 6100,
      "coxa": 6101,
      "transit": 6102,
      "subtracted": 6103,
      "dymal": 6104,
      "transfer": 6105,
      "manual": 6106,
      "imrt": 6107,
      "septem": 6108,
      "periton": 6109,
      "endocr": 6110,
      "vastus": 6111,
      "ivs": 6112,
      "ivu": 6113,
      "auto": 6114,
      "visualised": 6115,
      "various": 6116,
      "trus": 6117,
      "histology": 6118,
      "arthroscopic": 6119,
      "omalacia": 6120,
      "combination": 6121,
      "septae": 6122,
      "extremities": 6123,
      "criteria": 6124,
      "masseter": 6125,
      "voluminous": 6126,
      "pneumati": 6127,
      "running": 6128,
      "sternoclavicular": 6129,
      "tangential": 6130,
      "channels": 6131,
      "particles": 6132,
      "prolapse": 6133,
      "animal": 6134,
      "angiomyolipoma": 6135,
      "return": 6136,
      "trochlear": 6137,
      "lodged": 6138,
      "dehiscence": 6139,
      "rabbit": 6140,
      "endocrine": 6141,
      "bin": 6142,
      "bold": 6143,
      "ela": 6144,
      "fene": 6145,
      "iform": 6146,
      "july": 6147,
      "ou": 6148,
      "slow": 6149,
      "alpha": 6150,
      "stom": 6151,
      "stant": 6152,
      "vember": 6153,
      "lame": 6154,
      "dece": 6155,
      "deux": 6156,
      "defibrilla": 6157,
      "traced": 6158,
      "tox": 6159,
      "congru": 6160,
      "nea": 6161,
      "respect": 6162,
      "lock": 6163,
      "november": 6164,
      "ads": 6165,
      "adductor": 6166,
      "exc": 6167,
      "moy": 6168,
      "modu": 6169,
      "carri": 6170,
      "perirectal": 6171,
      "perilesional": 6172,
      "agulation": 6173,
      "laris": 6174,
      "undant": 6175,
      "cot": 6176,
      "lvot": 6177,
      "intravascular": 6178,
      "echotexture": 6179,
      "gate": 6180,
      "follows": 6181,
      "niotic": 6182,
      "desmo": 6183,
      "retory": 6184,
      "indent": 6185,
      "echographique": 6186,
      "circumference": 6187,
      "originated": 6188,
      "ileus": 6189,
      "capital": 6190,
      "epiphyses": 6191,
      "microcalcifications": 6192,
      "cartilaginous": 6193,
      "occupied": 6194,
      "homogenously": 6195,
      "functioning": 6196,
      "ovaries": 6197,
      "endometrium": 6198,
      "fascial": 6199,
      "additionally": 6200,
      "cannulated": 6201,
      "outlining": 6202,
      "spondyl": 6203,
      "hemato": 6204,
      "settings": 6205,
      "conduit": 6206,
      "retrieval": 6207,
      "remodeling": 6208,
      "recipient": 6209,
      "gamma": 6210,
      "curet": 6211,
      "virtual": 6212,
      "september": 6213,
      "ciliary": 6214,
      "ires": 6215,
      "ober": 6216,
      "pfo": 6217,
      "rax": 6218,
      "anu": 6219,
      "tide": 6220,
      "retracted": 6221,
      "dimini": 6222,
      "dividing": 6223,
      "design": 6224,
      "cej": 6225,
      "trace": 6226,
      "concent": 6227,
      "unclear": 6228,
      "iding": 6229,
      "feet": 6230,
      "exis": 6231,
      "excessive": 6232,
      "hiatus": 6233,
      "contraction": 6234,
      "hystero": 6235,
      "bise": 6236,
      "coun": 6237,
      "coord": 6238,
      "rudi": 6239,
      "dentition": 6240,
      "stein": 6241,
      "atria": 6242,
      "cemento": 6243,
      "extracranial": 6244,
      "extracorporeal": 6245,
      "drained": 6246,
      "cranon": 6247,
      "temporary": 6248,
      "olecranon": 6249,
      "planned": 6250,
      "esophagram": 6251,
      "osteochondral": 6252,
      "epidi": 6253,
      "restri": 6254,
      "umab": 6255,
      "targeted": 6256,
      "october": 6257,
      "pneumonitis": 6258,
      "feature": 6259,
      "vesicle": 6260,
      "suspicion": 6261,
      "thought": 6262,
      "pyeloneph": 6263,
      "metacarpals": 6264,
      "coverage": 6265,
      "iditis": 6266,
      "resolving": 6267,
      "documented": 6268,
      "cornea": 6269,
      "artere": 6270,
      "pockets": 6271,
      "glome": 6272,
      "blunt": 6273,
      "polye": 6274,
      "embryo": 6275,
      "bullae": 6276,
      "neutral": 6277,
      "tomodensitometrie": 6278,
      "architecture": 6279,
      "horseshoe": 6280,
      "increasing": 6281,
      "leptomeningeal": 6282,
      "birth": 6283,
      "77": 6284,
      "bc": 6285,
      "hod": 6286,
      "ki": 6287,
      "lca": 6288,
      "m1": 6289,
      "nidus": 6290,
      "prono": 6291,
      "sening": 6292,
      "rami": 6293,
      "array": 6294,
      "deposition": 6295,
      "deformed": 6296,
      "cerated": 6297,
      "usa": 6298,
      "contrib": 6299,
      "cable": 6300,
      "nose": 6301,
      "virus": 6302,
      "radicular": 6303,
      "tate": 6304,
      "rican": 6305,
      "plexi": 6306,
      "cosis": 6307,
      "pars": 6308,
      "cm3": 6309,
      "transgastric": 6310,
      "bleed": 6311,
      "tub": 6312,
      "paragangli": 6313,
      "ietal": 6314,
      "seconds": 6315,
      "mination": 6316,
      "indentation": 6317,
      "carcinoid": 6318,
      "pseudom": 6319,
      "omandibular": 6320,
      "confirmation": 6321,
      "capture": 6322,
      "ligaments": 6323,
      "2006": 6324,
      "gauge": 6325,
      "neuroendocrine": 6326,
      "chiari": 6327,
      "encephalic": 6328,
      "swallowing": 6329,
      "fingers": 6330,
      "noticed": 6331,
      "ventriculogram": 6332,
      "flattened": 6333,
      "sliding": 6334,
      "gutter": 6335,
      "interpretation": 6336,
      "strongly": 6337,
      "blunting": 6338,
      "peroneal": 6339,
      "beginning": 6340,
      "follicular": 6341,
      "lacun": 6342,
      "ventilation": 6343,
      "percentage": 6344,
      "http": 6345,
      "dyspnea": 6346,
      "brown": 6347,
      "persistence": 6348,
      "aggressive": 6349,
      "hodg": 6350,
      "eve": 6351,
      "fren": 6352,
      "gar": 6353,
      "hc": 6354,
      "lining": 6355,
      "twe": 6356,
      "inju": 6357,
      "investi": 6358,
      "incorpo": 6359,
      "altern": 6360,
      "remission": 6361,
      "reha": 6362,
      "stogram": 6363,
      "seroma": 6364,
      "ulmon": 6365,
      "paired": 6366,
      "sci": 6367,
      "sun": 6368,
      "sustained": 6369,
      "unced": 6370,
      "montre": 6371,
      "percha": 6372,
      "mole": 6373,
      "utine": 6374,
      "ers": 6375,
      "prevent": 6376,
      "prepara": 6377,
      "colli": 6378,
      "colitis": 6379,
      "subdiaphragmatic": 6380,
      "subtalar": 6381,
      "doi": 6382,
      "thoraces": 6383,
      "multidetector": 6384,
      "syrin": 6385,
      "impression": 6386,
      "ellipse": 6387,
      "fav": 6388,
      "hyperinflation": 6389,
      "kera": 6390,
      "salping": 6391,
      "pectomy": 6392,
      "hazy": 6393,
      "relapse": 6394,
      "thirds": 6395,
      "ctatic": 6396,
      "groin": 6397,
      "navicular": 6398,
      "ligamentum": 6399,
      "erosive": 6400,
      "hydropneumothorax": 6401,
      "tonsi": 6402,
      "membranes": 6403,
      "diverticulitis": 6404,
      "reflection": 6405,
      "fissures": 6406,
      "voids": 6407,
      "servative": 6408,
      "snare": 6409,
      "epicondy": 6410,
      "neoplastic": 6411,
      "autofluorescence": 6412,
      "baby": 6413,
      "inversus": 6414,
      "helical": 6415,
      "aortopulmonary": 6416,
      "articulation": 6417,
      "anterio": 6418,
      "atlantoaxial": 6419,
      "concerning": 6420,
      "metabolism": 6421,
      "augmentation": 6422,
      "liposarcoma": 6423,
      "cerebellopontine": 6424,
      "adenopathies": 6425,
      "hyperostosis": 6426,
      "defibrillator": 6427,
      "diminished": 6428,
      "rudimentary": 6429,
      "pronounced": 6430,
      "hodgkin": 6431,
      "injuries": 6432,
      "rehaus": 6433,
      "ulmonary": 6434,
      "syrinx": 6435,
      "(“": 6436,
      "84": 6437,
      "clysis": 6438,
      "equi": 6439,
      "hot": 6440,
      "tunic": 6441,
      "inspi": 6442,
      "arri": 6443,
      "start": 6444,
      "mask": 6445,
      "laa": 6446,
      "lady": 6447,
      "ogy": 6448,
      "rotated": 6449,
      "rall": 6450,
      "conglome": 6451,
      "compen": 6452,
      "visi": 6453,
      "persi": 6454,
      "exact": 6455,
      "carpo": 6456,
      "bilatera": 6457,
      "boid": 6458,
      "postgadolinium": 6459,
      "dermal": 6460,
      "interosseous": 6461,
      "intramuscular": 6462,
      "weighed": 6463,
      "transrectal": 6464,
      "transmural": 6465,
      "mmhg": 6466,
      "volar": 6467,
      "inferie": 6468,
      "gravid": 6469,
      "crohn": 6470,
      "cutting": 6471,
      "retrosternal": 6472,
      "thinned": 6473,
      "glandular": 6474,
      "metric": 6475,
      "studies": 6476,
      "bases": 6477,
      "totally": 6478,
      "variation": 6479,
      "asterix": 6480,
      "resistance": 6481,
      "pathway": 6482,
      "overall": 6483,
      "typically": 6484,
      "controle": 6485,
      "closely": 6486,
      "clinically": 6487,
      "callosal": 6488,
      "abdomino": 6489,
      "profil": 6490,
      "detached": 6491,
      "equina": 6492,
      "skelet": 6493,
      "peduncle": 6494,
      "excluded": 6495,
      "gutta": 6496,
      "temporo": 6497,
      "temporopar": 6498,
      "ctivity": 6499,
      "hepatis": 6500,
      "enteroclysis": 6501,
      "coracoid": 6502,
      "possibility": 6503,
      "procedural": 6504,
      "technetium": 6505,
      "assessed": 6506,
      "preparation": 6507,
      "tunica": 6508,
      "%)": 6509,
      "az": 6510,
      "bat": 6511,
      "bica": 6512,
      "dd": 6513,
      "estab": 6514,
      "evacu": 6515,
      "hair": 6516,
      "ian": 6517,
      "ochrom": 6518,
      "s3": 6519,
      "slu": 6520,
      "ucial": 6521,
      "ww": 6522,
      "ware": 6523,
      "ale": 6524,
      "antral": 6525,
      "rich": 6526,
      "destro": 6527,
      "chis": 6528,
      "routine": 6529,
      "assisted": 6530,
      "too": 6531,
      "concom": 6532,
      "unusual": 6533,
      "mesu": 6534,
      "composite": 6535,
      "mono": 6536,
      "admin": 6537,
      "vii": 6538,
      "cords": 6539,
      "vers": 6540,
      "versus": 6541,
      "acd": 6542,
      "exu": 6543,
      "romatosis": 6544,
      "opulmonary": 6545,
      "perisplenic": 6546,
      "peribronchial": 6547,
      "formis": 6548,
      "interruption": 6549,
      "interspinous": 6550,
      "rendering": 6551,
      "pelvical": 6552,
      "ellip": 6553,
      "extend": 6554,
      "graph": 6555,
      "nonenhanced": 6556,
      "cropped": 6557,
      "cementless": 6558,
      "extraluminal": 6559,
      "oropharyngeal": 6560,
      "foramina": 6561,
      "bulum": 6562,
      "embolic": 6563,
      "ortho": 6564,
      "femurs": 6565,
      "hemiarthroplasty": 6566,
      "calculate": 6567,
      "cephalad": 6568,
      "restored": 6569,
      "identifies": 6570,
      "greatest": 6571,
      "stars": 6572,
      "falx": 6573,
      "mixture": 6574,
      "legs": 6575,
      "worsening": 6576,
      "cavern": 6577,
      "cholecystic": 6578,
      "artificial": 6579,
      "reflecting": 6580,
      "demarcation": 6581,
      "delineation": 6582,
      "complication": 6583,
      "labelled": 6584,
      "organized": 6585,
      "myometrial": 6586,
      "accompanying": 6587,
      "histopathological": 6588,
      "release": 6589,
      "details": 6590,
      "dysfunction": 6591,
      "excretion": 6592,
      "slope": 6593,
      "stimulation": 6594,
      "atherosclerotic": 6595,
      "excretory": 6596,
      "pyelonephritis": 6597,
      "polyethylene": 6598,
      "temporoparietal": 6599,
      "concomitant": 6600,
      ")/": 6601,
      "79": 6602,
      "cas": 6603,
      "elu": 6604,
      "fen": 6605,
      "gold": 6606,
      "iol": 6607,
      "janu": 6608,
      "knot": 6609,
      "nan": 6610,
      "osity": 6611,
      "vcug": 6612,
      "ratus": 6613,
      "anteromedial": 6614,
      "enor": 6615,
      "least": 6616,
      "rial": 6617,
      "shunting": 6618,
      "labi": 6619,
      "phan": 6620,
      "phle": 6621,
      "enty": 6622,
      "conservative": 6623,
      "unte": 6624,
      "itate": 6625,
      "load": 6626,
      "locu": 6627,
      "compare": 6628,
      "ille": 6629,
      "weak": 6630,
      "fecal": 6631,
      "lipi": 6632,
      "acid": 6633,
      "hiatal": 6634,
      "lucencies": 6635,
      "bite": 6636,
      "cks": 6637,
      "irradiation": 6638,
      "colored": 6639,
      "parti": 6640,
      "blade": 6641,
      "amniotic": 6642,
      "agement": 6643,
      "ulaire": 6644,
      "transposition": 6645,
      "volunte": 6646,
      "odol": 6647,
      "solution": 6648,
      "lump": 6649,
      "osteoid": 6650,
      "thymus": 6651,
      "curves": 6652,
      "pancreatico": 6653,
      "minute": 6654,
      "ultrasonic": 6655,
      "bronchogenic": 6656,
      "discitis": 6657,
      "undergone": 6658,
      "auric": 6659,
      "automa": 6660,
      "genu": 6661,
      "epiphyseal": 6662,
      "layered": 6663,
      "shifted": 6664,
      "eyes": 6665,
      "injured": 6666,
      "identifying": 6667,
      "surgically": 6668,
      "culture": 6669,
      "ventrally": 6670,
      "legend": 6671,
      "caverno": 6672,
      "ecg": 6673,
      "furthermore": 6674,
      "thelioma": 6675,
      "hepatomegaly": 6676,
      "grand": 6677,
      "volumet": 6678,
      "fiducial": 6679,
      "gonial": 6680,
      "bronchograms": 6681,
      "expandable": 6682,
      "highlighting": 6683,
      "possibly": 6684,
      "observe": 6685,
      "pyramid": 6686,
      "commissure": 6687,
      "predominance": 6688,
      "brachytherapy": 6689,
      "infundibulum": 6690,
      "adapted": 6691,
      "tapering": 6692,
      "proliferation": 6693,
      "headache": 6694,
      "recorded": 6695,
      "spondylolisthesis": 6696,
      "plexiform": 6697,
      "bicaval": 6698,
      "mesurant": 6699,
      "january": 6700,
      "lipiodol": 6701,
      "81": 6702,
      "eu": 6703,
      "gun": 6704,
      "gine": 6705,
      "hic": 6706,
      "oscopy": 6707,
      "pp": 6708,
      "pump": 6709,
      "tof": 6710,
      "inci": 6711,
      "information": 6712,
      "raised": 6713,
      "till": 6714,
      "rip": 6715,
      "riformis": 6716,
      "semic": 6717,
      "tions": 6718,
      "deri": 6719,
      "peg": 6720,
      "ising": 6721,
      "umed": 6722,
      "torax": 6723,
      "concave": 6724,
      "subo": 6725,
      "itated": 6726,
      "capi": 6727,
      "bel": 6728,
      "beads": 6729,
      "radiology": 6730,
      "perfused": 6731,
      "duplic": 6732,
      "hiv": 6733,
      "span": 6734,
      "spasm": 6735,
      "bited": 6736,
      "coded": 6737,
      "partum": 6738,
      "intracerebral": 6739,
      "intraosseous": 6740,
      "fran": 6741,
      "paracolic": 6742,
      "twenty": 6743,
      "serpi": 6744,
      "iety": 6745,
      "partly": 6746,
      "june": 6747,
      "ubm": 6748,
      "cellulitis": 6749,
      "bulge": 6750,
      "reconstructions": 6751,
      "needles": 6752,
      "microscopy": 6753,
      "hyperat": 6754,
      "thrombotic": 6755,
      "mucocele": 6756,
      "shifting": 6757,
      "pushed": 6758,
      "olith": 6759,
      "scarring": 6760,
      "those": 6761,
      "craniotomy": 6762,
      "meniscal": 6763,
      "nephrostomy": 6764,
      "guiding": 6765,
      "ofibular": 6766,
      "frog": 6767,
      "pterygopalatine": 6768,
      "glom": 6769,
      "sharply": 6770,
      "trapezius": 6771,
      "ploic": 6772,
      "knife": 6773,
      "french": 6774,
      "skeleton": 6775,
      "administered": 6776,
      "serpiginous": 6777,
      "],": 6778,
      "]).": 6779,
      "eme": 6780,
      "fh": 6781,
      "gr": 6782,
      "hill": 6783,
      "ocytoma": 6784,
      "spa": 6785,
      "stis": 6786,
      "yx": 6787,
      "}{": 6788,
      "tili": 6789,
      "enthe": 6790,
      "replacing": 6791,
      "stop": 6792,
      "seiz": 6793,
      "dement": 6794,
      "deformation": 6795,
      "peu": 6796,
      "entine": 6797,
      "rostral": 6798,
      "olfactory": 6799,
      "unts": 6800,
      "capa": 6801,
      "vivo": 6802,
      "tace": 6803,
      "fie": 6804,
      "fier": 6805,
      "duration": 6806,
      "exposed": 6807,
      "periportal": 6808,
      "pericholecystic": 6809,
      "biomic": 6810,
      "forceps": 6811,
      "reader": 6812,
      "costo": 6813,
      "transca": 6814,
      "error": 6815,
      "subscapular": 6816,
      "tumeur": 6817,
      "intertrochanteric": 6818,
      "intermedius": 6819,
      "intraductal": 6820,
      "surfacing": 6821,
      "transformation": 6822,
      "pulled": 6823,
      "faction": 6824,
      "porto": 6825,
      "paramedian": 6826,
      "soluble": 6827,
      "vascul": 6828,
      "metacarpo": 6829,
      "iectomy": 6830,
      "display": 6831,
      "template": 6832,
      "fills": 6833,
      "akine": 6834,
      "gallstones": 6835,
      "borderline": 6836,
      "patterns": 6837,
      "times": 6838,
      "layering": 6839,
      "ureteropelvic": 6840,
      "detectable": 6841,
      "clavicles": 6842,
      "ready": 6843,
      "bule": 6844,
      "numerable": 6845,
      "kyste": 6846,
      "cholecystectomy": 6847,
      "oxygen": 6848,
      "culae": 6849,
      "topography": 6850,
      "myeloma": 6851,
      "developmental": 6852,
      "tortuosity": 6853,
      "overlaid": 6854,
      "medullaris": 6855,
      "autograft": 6856,
      "denoted": 6857,
      "help": 6858,
      "difficul": 6859,
      "ileocecal": 6860,
      "brevis": 6861,
      "tendinous": 6862,
      "uvant": 6863,
      "digit": 6864,
      "compacted": 6865,
      "integration": 6866,
      "insufficiency": 6867,
      "amyloid": 6868,
      "epais": 6869,
      "cricoid": 6870,
      "recogn": 6871,
      "juxta": 6872,
      "constriction": 6873,
      "compensat": 6874,
      "eluting": 6875,
      "volunteer": 6876,
      "automatically": 6877,
      "hyperattenu": 6878,
      "09": 6879,
      "bg": 6880,
      "dumb": 6881,
      "gan": 6882,
      "lary": 6883,
      "nation": 6884,
      "rx": 6885,
      "ya": 6886,
      "inset": 6887,
      "innumerable": 6888,
      "tel": 6889,
      "tesis": 6890,
      "ener": 6891,
      "rise": 6892,
      "inges": 6893,
      "diss": 6894,
      "math": 6895,
      "veine": 6896,
      "vector": 6897,
      "vehic": 6898,
      "demyel": 6899,
      "wil": 6900,
      "trapped": 6901,
      "scence": 6902,
      "construct": 6903,
      "unstable": 6904,
      "ado": 6905,
      "added": 6906,
      "aryte": 6907,
      "perme": 6908,
      "perfect": 6909,
      "mott": 6910,
      "gives": 6911,
      "opened": 6912,
      "socket": 6913,
      "areolar": 6914,
      "cystis": 6915,
      "postmortem": 6916,
      "presumed": 6917,
      "transmission": 6918,
      "multilevel": 6919,
      "hypodensities": 6920,
      "fair": 6921,
      "mictu": 6922,
      "multiples": 6923,
      "indirect": 6924,
      "gram": 6925,
      "serum": 6926,
      "nonenhancing": 6927,
      "retrom": 6928,
      "pheochrom": 6929,
      "adenoid": 6930,
      "tracheostomy": 6931,
      "born": 6932,
      "drop": 6933,
      "pneumocystis": 6934,
      "olysis": 6935,
      "torn": 6936,
      "epiglottis": 6937,
      "isoechoic": 6938,
      "uneven": 6939,
      "generator": 6940,
      "horizontally": 6941,
      "massively": 6942,
      "characterised": 6943,
      "widely": 6944,
      "600": 6945,
      "cholecystitis": 6946,
      "spreading": 6947,
      "growing": 6948,
      "bedside": 6949,
      "requent": 6950,
      "pouching": 6951,
      "ventriculo": 6952,
      "exhibited": 6953,
      "photoreceptor": 6954,
      "debridement": 6955,
      "99mtc": 6956,
      "iodinated": 6957,
      "incisional": 6958,
      "scalloping": 6959,
      "diabetes": 6960,
      "rheuma": 6961,
      "alterations": 6962,
      "tonsils": 6963,
      "bullosa": 6964,
      "leiomyoma": 6965,
      "neurological": 6966,
      "mutation": 6967,
      "feeder": 6968,
      "intensifier": 6969,
      "peritonitis": 6970,
      "carried": 6971,
      "restriction": 6972,
      "kerato": 6973,
      "semicir": 6974,
      "compensatory": 6975,
      "dumbbell": 6976,
      "energy": 6977,
      ")-": 6978,
      ".”": 6979,
      "dden": 6980,
      "lp": 6981,
      "mir": 6982,
      "nit": 6983,
      "p1": 6984,
      "sant": 6985,
      "women": 6986,
      "yceal": 6987,
      "inity": 6988,
      "influ": 6989,
      "article": 6990,
      "recording": 6991,
      "resurfacing": 6992,
      "leman": 6993,
      "orn": 6994,
      "disp": 6995,
      "diges": 6996,
      "maxi": 6997,
      "cea": 6998,
      "attrib": 6999,
      "scription": 7000,
      "conver": 7001,
      "sudden": 7002,
      "neither": 7003,
      "cad": 7004,
      "cam": 7005,
      "vision": 7006,
      "fered": 7007,
      "cheek": 7008,
      "cised": 7009,
      "opt": 7010,
      "periarticular": 7011,
      "afferent": 7012,
      "hybrid": 7013,
      "bipolar": 7014,
      "calvari": 7015,
      "postnatal": 7016,
      "iron": 7017,
      "obtain": 7018,
      "fluorescent": 7019,
      "multilobulated": 7020,
      "valent": 7021,
      "manub": 7022,
      "outcome": 7023,
      "hypothalamus": 7024,
      "hypoattenuating": 7025,
      "cystadenoma": 7026,
      "medicine": 7027,
      "disrupted": 7028,
      "superieur": 7029,
      "gradual": 7030,
      "gracil": 7031,
      "rectangle": 7032,
      "femora": 7033,
      "ski": 7034,
      "centesis": 7035,
      "adjuvant": 7036,
      "breach": 7037,
      "irregularities": 7038,
      "orthog": 7039,
      "nasion": 7040,
      "basis": 7041,
      "esophagography": 7042,
      "contain": 7043,
      "otherwise": 7044,
      "deviated": 7045,
      "scalp": 7046,
      "caudally": 7047,
      "perforator": 7048,
      "clinoid": 7049,
      "spongi": 7050,
      "blocked": 7051,
      "arthrogram": 7052,
      "resultant": 7053,
      "cholangiocarcinoma": 7054,
      "suscepti": 7055,
      "sacroili": 7056,
      "encephalitis": 7057,
      "anomalies": 7058,
      "ometry": 7059,
      "laryngo": 7060,
      "stenoses": 7061,
      "disseminated": 7062,
      "eruption": 7063,
      "seventh": 7064,
      "physiological": 7065,
      "chondrosarcoma": 7066,
      "ileocolic": 7067,
      "spherical": 7068,
      "peroneus": 7069,
      "consisting": 7070,
      "ronodu": 7071,
      "diabetic": 7072,
      "serosa": 7073,
      "supplemental": 7074,
      "piece": 7075,
      "prenatal": 7076,
      "seems": 7077,
      "hysterosalping": 7078,
      "phantom": 7079,
      "biomicroscopy": 7080,
      "arytenoid": 7081,
      "gracilis": 7082,
      "(#": 7083,
      "2a": 7084,
      "86": 7085,
      "edi": 7086,
      "eca": 7087,
      "frequent": 7088,
      "kir": 7089,
      "oxide": 7090,
      "p2": 7091,
      "pcl": 7092,
      "slab": 7093,
      "vf": 7094,
      "vage": 7095,
      "yl": 7096,
      "za": 7097,
      "onasal": 7098,
      "encase": 7099,
      "encircled": 7100,
      "reli": 7101,
      "review": 7102,
      "dium": 7103,
      "sect": 7104,
      "sector": 7105,
      "mastic": 7106,
      "depressed": 7107,
      "wir": 7108,
      "ctpa": 7109,
      "pau": 7110,
      "painf": 7111,
      "scm": 7112,
      "iden": 7113,
      "correlation": 7114,
      "cher": 7115,
      "chement": 7116,
      "tag": 7117,
      "acc": 7118,
      "mos": 7119,
      "mois": 7120,
      "upstream": 7121,
      "undum": 7122,
      "reached": 7123,
      "postsurgical": 7124,
      "subglottic": 7125,
      "subacromial": 7126,
      "dox": 7127,
      "denti": 7128,
      "interhemispheric": 7129,
      "plas": 7130,
      "player": 7131,
      "might": 7132,
      "syring": 7133,
      "imit": 7134,
      "elle": 7135,
      "hyperfluorescence": 7136,
      "micronodu": 7137,
      "centrum": 7138,
      "missed": 7139,
      "piriformis": 7140,
      "jour": 7141,
      "mention": 7142,
      "involve": 7143,
      "cerebri": 7144,
      "integ": 7145,
      "session": 7146,
      "ivp": 7147,
      "formations": 7148,
      "confirm": 7149,
      "pneumothoraces": 7150,
      "must": 7151,
      "suprasternal": 7152,
      "lengths": 7153,
      "shear": 7154,
      "health": 7155,
      "factor": 7156,
      "tivity": 7157,
      "diverticular": 7158,
      "offset": 7159,
      "analyzed": 7160,
      "repetition": 7161,
      "sacrococcygeal": 7162,
      "symptomatic": 7163,
      "myelogram": 7164,
      "hemangi": 7165,
      "fistulogram": 7166,
      "dentin": 7167,
      "allowing": 7168,
      "nephrostogram": 7169,
      "occurs": 7170,
      "explo": 7171,
      "neovascularization": 7172,
      "mesothelioma": 7173,
      "polypoidal": 7174,
      "coraco": 7175,
      "cardiothoracic": 7176,
      "sbrt": 7177,
      "ischium": 7178,
      "ischae": 7179,
      "ampullary": 7180,
      "entrapped": 7181,
      "limits": 7182,
      "calipers": 7183,
      "antico": 7184,
      "rosthesis": 7185,
      "malleolus": 7186,
      "december": 7187,
      "concentration": 7188,
      "arrival": 7189,
      "volumetric": 7190,
      "duplicated": 7191,
      "vehicle": 7192,
      "painful": 7193,
      "3t": 7194,
      "8th": 7195,
      "agi": 7196,
      "bent": 7197,
      "dc": 7198,
      "dat": 7199,
      "eli": 7200,
      "elast": 7201,
      "flip": 7202,
      "h1": 7203,
      "iud": 7204,
      "moma": 7205,
      "pw": 7206,
      "pted": 7207,
      "sation": 7208,
      "tant": 7209,
      "vc": 7210,
      "incar": 7211,
      "ston": 7212,
      "stroma": 7213,
      "maps": 7214,
      "shrin": 7215,
      "lax": 7216,
      "ulous": 7217,
      "olum": 7218,
      "atric": 7219,
      "unremarkable": 7220,
      "meck": 7221,
      "means": 7222,
      "nerv": 7223,
      "compara": 7224,
      "itself": 7225,
      "became": 7226,
      "admitted": 7227,
      "febru": 7228,
      "anced": 7229,
      "xiphoid": 7230,
      "tac": 7231,
      "tape": 7232,
      "tative": 7233,
      "taining": 7234,
      "ack": 7235,
      "excised": 7236,
      "caries": 7237,
      "forni": 7238,
      "postpartum": 7239,
      "transpar": 7240,
      "foc": 7241,
      "prescription": 7242,
      "subhepatic": 7243,
      "subphrenic": 7244,
      "llofemoral": 7245,
      "fluor": 7246,
      "mian": 7247,
      "rendered": 7248,
      "managed": 7249,
      "pulmonic": 7250,
      "pararenal": 7251,
      "paraesophageal": 7252,
      "vertebro": 7253,
      "sate": 7254,
      "vaso": 7255,
      "lymphangi": 7256,
      "sky": 7257,
      "suprag": 7258,
      "examined": 7259,
      "severity": 7260,
      "stiff": 7261,
      "sequential": 7262,
      "crani": 7263,
      "vault": 7264,
      "opacite": 7265,
      "therapeu": 7266,
      "palli": 7267,
      "evidenced": 7268,
      "consolidated": 7269,
      "suprapubic": 7270,
      "certain": 7271,
      "vicinity": 7272,
      "ligamentous": 7273,
      "syndesmo": 7274,
      "hemorrhages": 7275,
      "lobed": 7276,
      "patellofemoral": 7277,
      "custom": 7278,
      "2004": 7279,
      "approximate": 7280,
      "situation": 7281,
      "osseuse": 7282,
      "creating": 7283,
      "septate": 7284,
      "calibre": 7285,
      "trabeculae": 7286,
      "mesio": 7287,
      "nailing": 7288,
      "definitive": 7289,
      "longest": 7290,
      "nephrocalcinosis": 7291,
      "hardware": 7292,
      "kyphotic": 7293,
      "actual": 7294,
      "asymmetrical": 7295,
      "jaws": 7296,
      "macroadenoma": 7297,
      "llous": 7298,
      "heterogeneity": 7299,
      "mineralization": 7300,
      "calyceal": 7301,
      "hamar": 7302,
      "coccyx": 7303,
      "integrated": 7304,
      "neonate": 7305,
      "osteochondroma": 7306,
      "extremely": 7307,
      "orthopant": 7308,
      "threshold": 7309,
      "physaire": 7310,
      "participant": 7311,
      "fenestration": 7312,
      "curettage": 7313,
      "twelve": 7314,
      "epicondyle": 7315,
      "evacuation": 7316,
      "pelvicalyceal": 7317,
      "metacarpophalangeal": 7318,
      "semicircular": 7319,
      "february": 7320,
      "therapeutic": 7321,
      "1a": 7322,
      "amon": 7323,
      "bd": 7324,
      "cow": 7325,
      "egg": 7326,
      "ffa": 7327,
      "hold": 7328,
      "uses": 7329,
      "utili": 7330,
      "already": 7331,
      "anter": 7332,
      "anten": 7333,
      "repaired": 7334,
      "shallow": 7335,
      "lag": 7336,
      "icu": 7337,
      "pav": 7338,
      "tool": 7339,
      "sutures": 7340,
      "composed": 7341,
      "beration": 7342,
      "abundant": 7343,
      "lipo": 7344,
      "accep": 7345,
      "expression": 7346,
      "lateralis": 7347,
      "mod": 7348,
      "moiety": 7349,
      "bio": 7350,
      "forward": 7351,
      "reaches": 7352,
      "predi": 7353,
      "tesla": 7354,
      "observ": 7355,
      "obilia": 7356,
      "aneuri": 7357,
      "ventro": 7358,
      "interventional": 7359,
      "platy": 7360,
      "surve": 7361,
      "valle": 7362,
      "mann": 7363,
      "fae": 7364,
      "grav": 7365,
      "pier": 7366,
      "echocardiograph": 7367,
      "involves": 7368,
      "metaphyses": 7369,
      "anterosuperior": 7370,
      "angled": 7371,
      "maxill": 7372,
      "ostero": 7373,
      "pneumobilia": 7374,
      "12th": 7375,
      "epiglottic": 7376,
      "grafts": 7377,
      "localised": 7378,
      "systems": 7379,
      "courses": 7380,
      "romedial": 7381,
      "avera": 7382,
      "selection": 7383,
      "inates": 7384,
      "biloma": 7385,
      "burst": 7386,
      "magna": 7387,
      "aerated": 7388,
      "oedematous": 7389,
      "perineum": 7390,
      "pregnant": 7391,
      "intestines": 7392,
      "pathologically": 7393,
      "craniocervical": 7394,
      "cisterna": 7395,
      "corticostero": 7396,
      "endplates": 7397,
      "suffered": 7398,
      "correctly": 7399,
      "distorted": 7400,
      "bicor": 7401,
      "instrument": 7402,
      "granuloma": 7403,
      "font": 7404,
      "complaint": 7405,
      "corticospinal": 7406,
      "compromise": 7407,
      "attempt": 7408,
      "extrusion": 7409,
      "inferolateral": 7410,
      "orthopantamograph": 7411,
      "episode": 7412,
      "aplasia": 7413,
      "paraganglioma": 7414,
      "tonsillar": 7415,
      "sludge": 7416,
      "transcathe": 7417,
      "encasement": 7418,
      "masticator": 7419,
      "meckel": 7420,
      "supraglot": 7421,
      "4a": 7422,
      "5cm": 7423,
      "82": 7424,
      "asi": 7425,
      "bili": 7426,
      "ev": 7427,
      "emia": 7428,
      "iter": 7429,
      "igg": 7430,
      "mf": 7431,
      "nmr": 7432,
      "vant": 7433,
      "teno": 7434,
      "tiform": 7435,
      "encomp": 7436,
      "entered": 7437,
      "orphic": 7438,
      "sial": 7439,
      "simus": 7440,
      "died": 7441,
      "sesa": 7442,
      "decompressed": 7443,
      "depression": 7444,
      "trapping": 7445,
      "route": 7446,
      "paving": 7447,
      "scimit": 7448,
      "conjun": 7449,
      "neath": 7450,
      "abductor": 7451,
      "ilic": 7452,
      "viable": 7453,
      "corn": 7454,
      "lowest": 7455,
      "expi": 7456,
      "prob": 7457,
      "products": 7458,
      "carpi": 7459,
      "utaneous": 7460,
      "posing": 7461,
      "reach": 7462,
      "transection": 7463,
      "food": 7464,
      "prepontine": 7465,
      "oblong": 7466,
      "observation": 7467,
      "whirl": 7468,
      "subperiosteal": 7469,
      "subendocardial": 7470,
      "steel": 7471,
      "dystro": 7472,
      "pulpo": 7473,
      "berg": 7474,
      "sono": 7475,
      "lumbor": 7476,
      "axe": 7477,
      "define": 7478,
      "facets": 7479,
      "extramedullary": 7480,
      "commonly": 7481,
      "carcinomatosis": 7482,
      "occluding": 7483,
      "suspect": 7484,
      "butto": 7485,
      "metry": 7486,
      "dorsum": 7487,
      "processing": 7488,
      "urethrography": 7489,
      "histologically": 7490,
      "occipi": 7491,
      "quadratus": 7492,
      "nodularity": 7493,
      "striatum": 7494,
      "master": 7495,
      "includes": 7496,
      "perforating": 7497,
      "newborn": 7498,
      "evaluate": 7499,
      "pedicles": 7500,
      "encephaly": 7501,
      "spectrum": 7502,
      "canines": 7503,
      "schner": 7504,
      "references": 7505,
      "considerable": 7506,
      "ideal": 7507,
      "suffer": 7508,
      "reverberation": 7509,
      "dentate": 7510,
      "reticulation": 7511,
      "emptying": 7512,
      "runs": 7513,
      "differences": 7514,
      "crazy": 7515,
      "bundles": 7516,
      "highlights": 7517,
      "calyces": 7518,
      "digitor": 7519,
      "voxels": 7520,
      "copy": 7521,
      "conducted": 7522,
      "nephrectomy": 7523,
      "tarsal": 7524,
      "cavitating": 7525,
      "mycobac": 7526,
      "spermatic": 7527,
      "ncct": 7528,
      "ampulla": 7529,
      "hydroureteronephrosis": 7530,
      "transitional": 7531,
      "sensitivity": 7532,
      "cuneiform": 7533,
      "recanalization": 7534,
      "epididy": 7535,
      "locules": 7536,
      "difficulty": 7537,
      "digestive": 7538,
      "susceptibility": 7539,
      "sacroiliitis": 7540,
      "kirschner": 7541,
      "among": 7542,
      "transcatheter": 7543,
      "scimitar": 7544,
      "conjuncti": 7545,
      "lumborum": 7546,
      "digitorum": 7547,
      "2cm": 7548,
      "clar": 7549,
      "dt": 7550,
      "hb": 7551,
      "ito": 7552,
      "nano": 7553,
      "psing": 7554,
      "rograph": 7555,
      "spati": 7556,
      "vul": 7557,
      "war": 7558,
      "arov": 7559,
      "orph": 7560,
      "die": 7561,
      "seeding": 7562,
      "defective": 7563,
      "cera": 7564,
      "pera": 7565,
      "cto": 7566,
      "cty": 7567,
      "olitis": 7568,
      "usted": 7569,
      "leftward": 7570,
      "neigh": 7571,
      "cake": 7572,
      "monro": 7573,
      "monitor": 7574,
      "ably": 7575,
      "wer": 7576,
      "chem": 7577,
      "yet": 7578,
      "strated": 7579,
      "mother": 7580,
      "opor": 7581,
      "sole": 7582,
      "pericardi": 7583,
      "agitated": 7584,
      "please": 7585,
      "cyt": 7586,
      "coexisting": 7587,
      "prefrontal": 7588,
      "prescribed": 7589,
      "iring": 7590,
      "subtotal": 7591,
      "stereo": 7592,
      "intermit": 7593,
      "amorph": 7594,
      "intraretinal": 7595,
      "pling": 7596,
      "normalization": 7597,
      "mista": 7598,
      "pulsed": 7599,
      "elm": 7600,
      "else": 7601,
      "hypokine": 7602,
      "turia": 7603,
      "dacty": 7604,
      "micron": 7605,
      "muscul": 7606,
      "highest": 7607,
      "thymic": 7608,
      "olucent": 7609,
      "transversus": 7610,
      "flowing": 7611,
      "10th": 7612,
      "endop": 7613,
      "ologous": 7614,
      "extraocular": 7615,
      "extraconal": 7616,
      "pyriform": 7617,
      "creation": 7618,
      "tibio": 7619,
      "craniectomy": 7620,
      "films": 7621,
      "implantable": 7622,
      "retrobulbar": 7623,
      "homogene": 7624,
      "underneath": 7625,
      "autom": 7626,
      "injections": 7627,
      "180": 7628,
      "screening": 7629,
      "cephaly": 7630,
      "osteosclerosis": 7631,
      "crossover": 7632,
      "necroti": 7633,
      "effective": 7634,
      "cancellous": 7635,
      "invades": 7636,
      "140": 7637,
      "lingular": 7638,
      "collagen": 7639,
      "controlled": 7640,
      "materials": 7641,
      "separately": 7642,
      "fragmentation": 7643,
      "falcine": 7644,
      "mammographic": 7645,
      "turn": 7646,
      "turned": 7647,
      "fundal": 7648,
      "meningocele": 7649,
      "anastomo": 7650,
      "neurovascular": 7651,
      "advancement": 7652,
      "calibra": 7653,
      "granular": 7654,
      "synovium": 7655,
      "corticated": 7656,
      "corticomedullary": 7657,
      "ventriculography": 7658,
      "ventriculomegaly": 7659,
      "laparotomy": 7660,
      "peduncles": 7661,
      "streaks": 7662,
      "semiovale": 7663,
      "haemorrhagic": 7664,
      "mesorectal": 7665,
      "chondrosis": 7666,
      "tentorium": 7667,
      "sphere": 7668,
      "calyx": 7669,
      "simultaneously": 7670,
      "tomodensitometrique": 7671,
      "trabeculations": 7672,
      "beaking": 7673,
      "pooling": 7674,
      "spanning": 7675,
      "fiesta": 7676,
      "subscapularis": 7677,
      "pheochromocytoma": 7678,
      "rheumatoid": 7679,
      "identical": 7680,
      "focused": 7681,
      "supraglottic": 7682,
      "sesamoid": 7683,
      "occipito": 7684,
      "epididymis": 7685,
      "intermittent": 7686,
      "amorphous": 7687,
      "89": 7688,
      "])": 7689,
      "dpi": 7690,
      "ectomy": 7691,
      "ffe": 7692,
      "gp": 7693,
      "gs": 7694,
      "grid": 7695,
      "kage": 7696,
      "nt": 7697,
      "osa": 7698,
      "pto": 7699,
      "pment": 7700,
      "rb": 7701,
      "swe": 7702,
      "vue": 7703,
      "}\\": 7704,
      "independent": 7705,
      "rachis": 7706,
      "tim": 7707,
      "ritic": 7708,
      "orenal": 7709,
      "omorphic": 7710,
      "signe": 7711,
      "dian": 7712,
      "making": 7713,
      "makes": 7714,
      "death": 7715,
      "pear": 7716,
      "geographic": 7717,
      "chd": 7718,
      "rods": 7719,
      "usc": 7720,
      "uscular": 7721,
      "scc": 7722,
      "condens": 7723,
      "uncemented": 7724,
      "coming": 7725,
      "resusc": 7726,
      "terium": 7727,
      "loaded": 7728,
      "adole": 7729,
      "lyse": 7730,
      "iliz": 7731,
      "viii": 7732,
      "lice": 7733,
      "xia": 7734,
      "takes": 7735,
      "excav": 7736,
      "moved": 7737,
      "moving": 7738,
      "proposed": 7739,
      "perigastric": 7740,
      "peribronchovascular": 7741,
      "count": 7742,
      "transc": 7743,
      "fov": 7744,
      "precontrast": 7745,
      "pancreat": 7746,
      "densite": 7747,
      "interposition": 7748,
      "interlobar": 7749,
      "plasma": 7750,
      "cardiover": 7751,
      "intralesional": 7752,
      "multis": 7753,
      "transseptal": 7754,
      "veno": 7755,
      "illoma": 7756,
      "hypox": 7757,
      "hypovascular": 7758,
      "hypophysis": 7759,
      "gain": 7760,
      "hyperreflective": 7761,
      "paracardiac": 7762,
      "infecti": 7763,
      "ket": 7764,
      "completed": 7765,
      "scopically": 7766,
      "ogenesis": 7767,
      "cingulate": 7768,
      "pica": 7769,
      "displaces": 7770,
      "vara": 7771,
      "ponde": 7772,
      "landmark": 7773,
      "description": 7774,
      "phases": 7775,
      "autop": 7776,
      "palatine": 7777,
      "hemiazygos": 7778,
      "rings": 7779,
      "colors": 7780,
      "archi": 7781,
      "goiter": 7782,
      "resting": 7783,
      "synchondrosis": 7784,
      "spindle": 7785,
      "gastroesophageal": 7786,
      "hyperex": 7787,
      "inclusion": 7788,
      "prostheses": 7789,
      "2005": 7790,
      "phenomen": 7791,
      "lipomatous": 7792,
      "falci": 7793,
      "chias": 7794,
      "000": 7795,
      "germany": 7796,
      "obliterating": 7797,
      "morphological": 7798,
      "secundum": 7799,
      "compartments": 7800,
      "neurons": 7801,
      "kinking": 7802,
      "waveform": 7803,
      "glioma": 7804,
      "temporomandibular": 7805,
      "optimi": 7806,
      "oblastic": 7807,
      "quantitative": 7808,
      "invagin": 7809,
      "consists": 7810,
      "centimeter": 7811,
      "manifestation": 7812,
      "vesicoureteral": 7813,
      "dorsolateral": 7814,
      "superolateral": 7815,
      "chorionic": 7816,
      "cubital": 7817,
      "essential": 7818,
      "pixels": 7819,
      "evolution": 7820,
      "ability": 7821,
      "cementoenamel": 7822,
      "equivalent": 7823,
      "inspiration": 7824,
      "vasculitis": 7825,
      "recognized": 7826,
      "mottled": 7827,
      "maximus": 7828,
      "micronodules": 7829,
      "mentioned": 7830,
      "anticoagulation": 7831,
      "dactyly": 7832,
      "automated": 7833,
      "ilizarov": 7834,
      "autopsy": 7835,
      "..": 7836,
      "aids": 7837,
      "b1": 7838,
      "bag": 7839,
      "dnis": 7840,
      "flight": 7841,
      "gis": 7842,
      "kind": 7843,
      "kins": 7844,
      "mni": 7845,
      "n0": 7846,
      "nat": 7847,
      "nut": 7848,
      "nhl": 7849,
      "obe": 7850,
      "pup": 7851,
      "sfa": 7852,
      "thor": 7853,
      "inar": 7854,
      "tegment": 7855,
      "thetic": 7856,
      "arches": 7857,
      "tile": 7858,
      "encro": 7859,
      "enza": 7860,
      "recesses": 7861,
      "rison": 7862,
      "secre": 7863,
      "secu": 7864,
      "lamp": 7865,
      "assum": 7866,
      "atous": 7867,
      "conical": 7868,
      "sung": 7869,
      "imat": 7870,
      "itu": 7871,
      "heavi": 7872,
      "loo": 7873,
      "tomograph": 7874,
      "scanogram": 7875,
      "urethro": 7876,
      "corpectomy": 7877,
      "person": 7878,
      "iner": 7879,
      "exa": 7880,
      "spared": 7881,
      "opro": 7882,
      "protube": 7883,
      "prolon": 7884,
      "hydra": 7885,
      "bien": 7886,
      "former": 7887,
      "pleomorphic": 7888,
      "cyl": 7889,
      "postop": 7890,
      "preseptal": 7891,
      "prednis": 7892,
      "steal": 7893,
      "internus": 7894,
      "ventricule": 7895,
      "intraspinal": 7896,
      "intraorbital": 7897,
      "fract": 7898,
      "mimic": 7899,
      "multiseptated": 7900,
      "lobectomy": 7901,
      "management": 7902,
      "creases": 7903,
      "outpouching": 7904,
      "candi": 7905,
      "trocar": 7906,
      "paraaortic": 7907,
      "axes": 7908,
      "joined": 7909,
      "etre": 7910,
      "anteroinferior": 7911,
      "2016": 7912,
      "cursor": 7913,
      "ometa": 7914,
      "overload": 7915,
      "thermal": 7916,
      "tibiofibular": 7917,
      "shortly": 7918,
      "program": 7919,
      "automatic": 7920,
      "achala": 7921,
      "waist": 7922,
      "visualizing": 7923,
      "holes": 7924,
      "lossal": 7925,
      "efficient": 7926,
      "dorsally": 7927,
      "posterosuperior": 7928,
      "tibialis": 7929,
      "lobules": 7930,
      "whose": 7931,
      "cule": 7932,
      "speckle": 7933,
      "hydroxy": 7934,
      "separating": 7935,
      "400": 7936,
      "effects": 7937,
      "hallu": 7938,
      "produce": 7939,
      "entirely": 7940,
      "bursal": 7941,
      "blockage": 7942,
      "antibody": 7943,
      "neuroblastoma": 7944,
      "culaire": 7945,
      "thighs": 7946,
      "(*),": 7947,
      "001": 7948,
      "laminae": 7949,
      "regurgitant": 7950,
      "apparently": 7951,
      "requiring": 7952,
      "anteversion": 7953,
      "ckets": 7954,
      "emergent": 7955,
      "hematuria": 7956,
      "cryo": 7957,
      "steroids": 7958,
      "punctu": 7959,
      "transversale": 7960,
      "cvc": 7961,
      "engor": 7962,
      "tendinopathy": 7963,
      "quantification": 7964,
      "hepatique": 7965,
      "relevant": 7966,
      "listhesis": 7967,
      "leuko": 7968,
      "apophysis": 7969,
      "mycotic": 7970,
      "extruded": 7971,
      "cubitus": 7972,
      "latter": 7973,
      "hanche": 7974,
      "accurate": 7975,
      "symbol": 7976,
      "distinguish": 7977,
      "reinfor": 7978,
      "lamellar": 7979,
      "indenting": 7980,
      "captured": 7981,
      "anterioposterior": 7982,
      "derived": 7983,
      "fairly": 7984,
      "h1n1": 7985,
      "hamartoma": 7986,
      "maxillofacial": 7987,
      "adolescent": 7988,
      "cardioverter": 7989,
      "multislice": 7990,
      "heavily": 7991,
      "achalasia": 7992,
      "(∗": 7993,
      "87": 7994,
      "epan": 7995,
      "gle": 7996,
      "gic": 7997,
      "ias": 7998,
      "ji": 7999,
      "mrv": 8000,
      "pare": 8001,
      "rp": 8002,
      "rence": 8003,
      "sad": 8004,
      "yr": 8005,
      "online": 8006,
      "lea": 8007,
      "rique": 8008,
      "dip": 8009,
      "sein": 8010,
      "lap": 8011,
      "cectomy": 8012,
      "terne": 8013,
      "chs": 8014,
      "chain": 8015,
      "road": 8016,
      "olio": 8017,
      "edent": 8018,
      "pod": 8019,
      "poses": 8020,
      "past": 8021,
      "pachy": 8022,
      "scores": 8023,
      "sural": 8024,
      "meg": 8025,
      "become": 8026,
      "hemic": 8027,
      "hearing": 8028,
      "illosis": 8029,
      "radiate": 8030,
      "corre": 8031,
      "lium": 8032,
      "lique": 8033,
      "ligation": 8034,
      "lates": 8035,
      "exiting": 8036,
      "oneuro": 8037,
      "agram": 8038,
      "appara": 8039,
      "fort": 8040,
      "pleuro": 8041,
      "coe": 8042,
      "subsegmental": 8043,
      "liner": 8044,
      "dou": 8045,
      "doses": 8046,
      "intercondylar": 8047,
      "interscalene": 8048,
      "clearance": 8049,
      "ami": 8050,
      "ranged": 8051,
      "ulae": 8052,
      "ulator": 8053,
      "translation": 8054,
      "multifid": 8055,
      "imp": 8056,
      "hypochond": 8057,
      "cystoid": 8058,
      "paravalvular": 8059,
      "cessation": 8060,
      "eningocele": 8061,
      "inferomedial": 8062,
      "dism": 8063,
      "disper": 8064,
      "lymphadenopathies": 8065,
      "bars": 8066,
      "salpin": 8067,
      "thrombe": 8068,
      "clamp": 8069,
      "tempera": 8070,
      "iliacus": 8071,
      "bolus": 8072,
      "ubic": 8073,
      "boring": 8074,
      "visualisation": 8075,
      "vague": 8076,
      "epidermoid": 8077,
      "sclerosing": 8078,
      "locally": 8079,
      "shion": 8080,
      "microscopic": 8081,
      "sheep": 8082,
      "occiput": 8083,
      "eyeball": 8084,
      "quadran": 8085,
      "devices": 8086,
      "strictures": 8087,
      "lingula": 8088,
      "urothelial": 8089,
      "nuate": 8090,
      "vertically": 8091,
      "connectivity": 8092,
      "polycystic": 8093,
      "coupes": 8094,
      "infrapatellar": 8095,
      "infraspinatus": 8096,
      "burr": 8097,
      "fibroma": 8098,
      "meningo": 8099,
      "cholecysto": 8100,
      "hydronephro": 8101,
      "encephalomalacia": 8102,
      "photon": 8103,
      "directional": 8104,
      "enters": 8105,
      "american": 8106,
      "varial": 8107,
      "precise": 8108,
      "aaa": 8109,
      "bicuspid": 8110,
      "bulbous": 8111,
      "physical": 8112,
      "clockwise": 8113,
      "bronchiolitis": 8114,
      "gliosis": 8115,
      "zoom": 8116,
      "contusions": 8117,
      "rapidly": 8118,
      "ankylo": 8119,
      "compaction": 8120,
      "looks": 8121,
      "bullous": 8122,
      "entrapment": 8123,
      "sleeve": 8124,
      "aspergillosis": 8125,
      "myelopathy": 8126,
      "eosinoph": 8127,
      "existence": 8128,
      "lacunar": 8129,
      "conglomerate": 8130,
      "established": 8131,
      "cavernoma": 8132,
      "capacity": 8133,
      "oxygenation": 8134,
      "wirsung": 8135,
      "paucity": 8136,
      "tactic": 8137,
      "antenatal": 8138,
      "suffering": 8139,
      "spatial": 8140,
      "chemical": 8141,
      "mistaken": 8142,
      "necrotizing": 8143,
      "infectious": 8144,
      "itude": 8145,
      "cylind": 8146,
      "epanchement": 8147,
      "multifidus": 8148,
      "salpinx": 8149,
      "\".": 8150,
      "(+": 8151,
      "(‘": 8152,
      ")—": 8153,
      "1b": 8154,
      "750": 8155,
      "9th": 8156,
      "bank": 8157,
      "ccta": 8158,
      "fab": 8159,
      "idism": 8160,
      "ln": 8161,
      "lge": 8162,
      "mlo": 8163,
      "mant": 8164,
      "mble": 8165,
      "nv": 8166,
      "oe": 8167,
      "otomy": 8168,
      "pil": 8169,
      "pron": 8170,
      "pins": 8171,
      "sf": 8172,
      "san": 8173,
      "uccal": 8174,
      "vom": 8175,
      "vum": 8176,
      "°)": 8177,
      "”)": 8178,
      "inence": 8179,
      "tectomy": 8180,
      "alan": 8181,
      "arcu": 8182,
      "oring": 8183,
      "dire": 8184,
      "mach": 8185,
      "phili": 8186,
      "pest": 8187,
      "ografi": 8188,
      "chia": 8189,
      "ulce": 8190,
      "atz": 8191,
      "scored": 8192,
      "consequence": 8193,
      "consequent": 8194,
      "context": 8195,
      "sional": 8196,
      "mega": 8197,
      "commen": 8198,
      "becomes": 8199,
      "heel": 8200,
      "ssy": 8201,
      "ssfse": 8202,
      "lost": 8203,
      "nosus": 8204,
      "adal": 8205,
      "tenting": 8206,
      "radiating": 8207,
      "spgr": 8208,
      "periaortic": 8209,
      "periodon": 8210,
      "pericolic": 8211,
      "aponeuro": 8212,
      "cytic": 8213,
      "call": 8214,
      "coated": 8215,
      "diastasis": 8216,
      "tism": 8217,
      "obuccal": 8218,
      "sublingual": 8219,
      "particle": 8220,
      "sterectomy": 8221,
      "interference": 8222,
      "interdental": 8223,
      "cardiophrenic": 8224,
      "pulsa": 8225,
      "reno": 8226,
      "outlines": 8227,
      "syne": 8228,
      "rvg": 8229,
      "tropic": 8230,
      "sao": 8231,
      "sachs": 8232,
      "pia": 8233,
      "regar": 8234,
      "splaying": 8235,
      "slip": 8236,
      "extraperitoneal": 8237,
      "colonoscopy": 8238,
      "minution": 8239,
      "frontale": 8240,
      "reconstitu": 8241,
      "125": 8242,
      "ivary": 8243,
      "pseudotumor": 8244,
      "haste": 8245,
      "breasts": 8246,
      "thyroidism": 8247,
      "metre": 8248,
      "navi": 8249,
      "supratentorial": 8250,
      "trig": 8251,
      "capitate": 8252,
      "tumours": 8253,
      "msct": 8254,
      "avf": 8255,
      "cuboid": 8256,
      "connective": 8257,
      "staged": 8258,
      "tubercular": 8259,
      "electronic": 8260,
      "worm": 8261,
      "meningitis": 8262,
      "arthrography": 8263,
      "arthritic": 8264,
      "maxillaire": 8265,
      "strands": 8266,
      "activated": 8267,
      "delay": 8268,
      "chisis": 8269,
      "tuberculoma": 8270,
      "grayscale": 8271,
      "primar": 8272,
      "abuts": 8273,
      "abutment": 8274,
      "volumine": 8275,
      "sufficient": 8276,
      "intervening": 8277,
      "occurring": 8278,
      "autologous": 8279,
      "thoracostomy": 8280,
      "refers": 8281,
      "linked": 8282,
      "exostosis": 8283,
      "princi": 8284,
      "prolapsing": 8285,
      "antibiotics": 8286,
      "cysticer": 8287,
      "bassin": 8288,
      "fontan": 8289,
      "aires": 8290,
      "llite": 8291,
      "supplementary": 8292,
      "artefacts": 8293,
      "acrylate": 8294,
      "institute": 8295,
      "rigid": 8296,
      "substan": 8297,
      "blurred": 8298,
      "modulated": 8299,
      "incorporation": 8300,
      "labial": 8301,
      "buttock": 8302,
      "phenomenon": 8303,
      "encroach": 8304,
      "edentulous": 8305,
      "coeliac": 8306,
      "thrombectomy": 8307,
      "temperature": 8308,
      "cylindrical": 8309,
      "arcuate": 8310,
      "ografia": 8311,
      "01": 8312,
      "2b": 8313,
      "3a": 8314,
      "88": 8315,
      "96": 8316,
      "eten": 8317,
      "ebus": 8318,
      "gt": 8319,
      "mol": 8320,
      "nb": 8321,
      "pog": 8322,
      "pca": 8323,
      "pure": 8324,
      "pts": 8325,
      "sling": 8326,
      "wat": 8327,
      "zi": 8328,
      "indo": 8329,
      "instead": 8330,
      "rap": 8331,
      "onco": 8332,
      "onyx": 8333,
      "teres": 8334,
      "tenosis": 8335,
      "alone": 8336,
      "arca": 8337,
      "inge": 8338,
      "mainten": 8339,
      "make": 8340,
      "lain": 8341,
      "laires": 8342,
      "decreas": 8343,
      "decubitus": 8344,
      "phleg": 8345,
      "celes": 8346,
      "peti": 8347,
      "geometry": 8348,
      "chin": 8349,
      "roli": 8350,
      "isse": 8351,
      "ischio": 8352,
      "umon": 8353,
      "concurrent": 8354,
      "constant": 8355,
      "suit": 8356,
      "ita": 8357,
      "cada": 8358,
      "restenosis": 8359,
      "ablated": 8360,
      "compri": 8361,
      "wear": 8362,
      "spas": 8363,
      "carious": 8364,
      "perivascular": 8365,
      "hysterectomy": 8366,
      "apposition": 8367,
      "forme": 8368,
      "calvarial": 8369,
      "coefficient": 8370,
      "irri": 8371,
      "subxiphoid": 8372,
      "dopa": 8373,
      "pannic": 8374,
      "tumora": 8375,
      "interne": 8376,
      "thoracentesis": 8377,
      "intratumoral": 8378,
      "gingi": 8379,
      "normalized": 8380,
      "mice": 8381,
      "impe": 8382,
      "impossible": 8383,
      "initis": 8384,
      "fashion": 8385,
      "ocente": 8386,
      "angulated": 8387,
      "sinonasal": 8388,
      "lentiform": 8389,
      "notching": 8390,
      "nigra": 8391,
      "panorama": 8392,
      "desce": 8393,
      "extracapsular": 8394,
      "dramatic": 8395,
      "obliqu": 8396,
      "retroversion": 8397,
      "discove": 8398,
      "associe": 8399,
      "tuberous": 8400,
      "augmented": 8401,
      "palsy": 8402,
      "flavum": 8403,
      "orbed": 8404,
      "thirty": 8405,
      "needed": 8406,
      "narrowest": 8407,
      "button": 8408,
      "waves": 8409,
      "visualize": 8410,
      "triceps": 8411,
      "tractography": 8412,
      "glas": 8413,
      "depiction": 8414,
      "hilus": 8415,
      "histo": 8416,
      "avp": 8417,
      "amounts": 8418,
      "2000": 8419,
      "hydrocele": 8420,
      "membranosus": 8421,
      "myositis": 8422,
      "finally": 8423,
      "antia": 8424,
      "infarctions": 8425,
      "insular": 8426,
      "smoothly": 8427,
      "sphenoidal": 8428,
      "malformations": 8429,
      "ectopia": 8430,
      "delineating": 8431,
      "numbers": 8432,
      "periosteum": 8433,
      "crowns": 8434,
      "snow": 8435,
      "galen": 8436,
      "interaction": 8437,
      "amelo": 8438,
      "vestibule": 8439,
      "viscera": 8440,
      "flexible": 8441,
      "neoadjuvant": 8442,
      "bronchoscopy": 8443,
      "tendinosis": 8444,
      "granulomatous": 8445,
      "provides": 8446,
      "cirrhotic": 8447,
      "camera": 8448,
      "millimeters": 8449,
      "castleman": 8450,
      "adhesions": 8451,
      "remodelling": 8452,
      "seeds": 8453,
      "phosphon": 8454,
      "chorio": 8455,
      "neonatal": 8456,
      "sensitive": 8457,
      "substantia": 8458,
      "aqueductal": 8459,
      "family": 8460,
      "task": 8461,
      "pneumatization": 8462,
      "elastic": 8463,
      "investigation": 8464,
      "fenetre": 8465,
      "pancreaticoduodenal": 8466,
      "ventriculoperitoneal": 8467,
      "manubrium": 8468,
      "orthogonal": 8469,
      "hysterosalpingogram": 8470,
      "integrity": 8471,
      "incarcerated": 8472,
      "shrinkage": 8473,
      "probable": 8474,
      "copyright": 8475,
      "ceramic": 8476,
      "stereotactic": 8477,
      "imatinib": 8478,
      "prolonged": 8479,
      "douglas": 8480,
      "substantial": 8481,
      "maintenance": 8482,
      "decreasing": 8483,
      "rolimus": 8484,
      "discovered": 8485,
      "%).": 8486,
      "3cm": 8487,
      "97": 8488,
      "aper": 8489,
      "bf": 8490,
      "bm": 8491,
      "cte": 8492,
      "cous": 8493,
      "dxa": 8494,
      "ffin": 8495,
      "gence": 8496,
      "gase": 8497,
      "gda": 8498,
      "hence": 8499,
      "jon": 8500,
      "kne": 8501,
      "lined": 8502,
      "m2": 8503,
      "oil": 8504,
      "pty": 8505,
      "rone": 8506,
      "rha": 8507,
      "rms": 8508,
      "tp": 8509,
      "tronic": 8510,
      "vp": 8511,
      "thread": 8512,
      "injecting": 8513,
      "thered": 8514,
      "anth": 8515,
      "anser": 8516,
      "arms": 8517,
      "tiger": 8518,
      "enca": 8519,
      "reh": 8520,
      "omes": 8521,
      "mato": 8522,
      "laby": 8523,
      "deteri": 8524,
      "cet": 8525,
      "icg": 8526,
      "entrance": 8527,
      "ason": 8528,
      "pop": 8529,
      "scolio": 8530,
      "conium": 8531,
      "undisplaced": 8532,
      "net": 8533,
      "hepate": 8534,
      "ilm": 8535,
      "malrotation": 8536,
      "litis": 8537,
      "perform": 8538,
      "tailed": 8539,
      "exe": 8540,
      "exit": 8541,
      "talo": 8542,
      "romas": 8543,
      "mobil": 8544,
      "opl": 8545,
      "ones": 8546,
      "hyg": 8547,
      "lesionnel": 8548,
      "agar": 8549,
      "abdomy": 8550,
      "biventricular": 8551,
      "appen": 8552,
      "ford": 8553,
      "formal": 8554,
      "coronar": 8555,
      "quer": 8556,
      "bore": 8557,
      "fosse": 8558,
      "testes": 8559,
      "chosen": 8560,
      "dendal": 8561,
      "steat": 8562,
      "interposed": 8563,
      "ambi": 8564,
      "intraabdominal": 8565,
      "intravesical": 8566,
      "mito": 8567,
      "venile": 8568,
      "hyposignal": 8569,
      "dao": 8570,
      "ocutaneous": 8571,
      "medtronic": 8572,
      "vertex": 8573,
      "nondisplaced": 8574,
      "joins": 8575,
      "notable": 8576,
      "thymoma": 8577,
      "eminence": 8578,
      "endoly": 8579,
      "osum": 8580,
      "shorter": 8581,
      "infiltrated": 8582,
      "sensor": 8583,
      "rhabdomy": 8584,
      "clots": 8585,
      "juvenile": 8586,
      "freely": 8587,
      "herniating": 8588,
      "myoma": 8589,
      "cranially": 8590,
      "supraclinoid": 8591,
      "dorsol": 8592,
      "host": 8593,
      "originates": 8594,
      "microbubbles": 8595,
      "passive": 8596,
      "thromboembolism": 8597,
      "shoulders": 8598,
      "stripe": 8599,
      "superselective": 8600,
      "arthropathy": 8601,
      "speed": 8602,
      "ximab": 8603,
      "hallux": 8604,
      "pudendal": 8605,
      "burden": 8606,
      "pneumonic": 8607,
      "progressed": 8608,
      "spheno": 8609,
      "analyses": 8610,
      "aeration": 8611,
      "encephalocele": 8612,
      "emplo": 8613,
      "schatz": 8614,
      "resemble": 8615,
      "anatomically": 8616,
      "myelography": 8617,
      "terminale": 8618,
      "rotational": 8619,
      "metatarsals": 8620,
      "idectomy": 8621,
      "stented": 8622,
      "denote": 8623,
      "purposes": 8624,
      "thoracotomy": 8625,
      "semimembranosus": 8626,
      "azygous": 8627,
      "held": 8628,
      "reporting": 8629,
      "gonadal": 8630,
      "drill": 8631,
      "fractions": 8632,
      "plantation": 8633,
      "bruch": 8634,
      "hypogastric": 8635,
      "objective": 8636,
      "siemen": 8637,
      "anterieure": 8638,
      "sequestration": 8639,
      "xylin": 8640,
      "leuke": 8641,
      "milliseconds": 8642,
      "trochlea": 8643,
      "twisted": 8644,
      "hsg": 8645,
      "washout": 8646,
      "deepest": 8647,
      "staple": 8648,
      "cyanine": 8649,
      "supporting": 8650,
      "distinguished": 8651,
      "congruent": 8652,
      "bisecting": 8653,
      "garden": 8654,
      "incisive": 8655,
      "frank": 8656,
      "glomus": 8657,
      "micturating": 8658,
      "mirror": 8659,
      "influenza": 8660,
      "attributed": 8661,
      "calvarium": 8662,
      "skiagram": 8663,
      "ischaemic": 8664,
      "fluorine": 8665,
      "vasospasm": 8666,
      "igg4": 8667,
      "encompas": 8668,
      "oportal": 8669,
      "cytology": 8670,
      "condensation": 8671,
      "punctuate": 8672,
      "apparatus": 8673,
      "quadrants": 8674,
      "machine": 8675,
      "periodontitis": 8676,
      "synechia": 8677,
      "indocyanine": 8678,
      "ocentesis": 8679,
      "hepatectomy": 8680,
      "schatzker": 8681,
      "(>": 8682,
      "5t": 8683,
      "91": 8684,
      "98": 8685,
      "a3": 8686,
      "b2": 8687,
      "bp": 8688,
      "br": 8689,
      "bis": 8690,
      "cold": 8691,
      "cator": 8692,
      "d3": 8693,
      "dj": 8694,
      "dence": 8695,
      "dry": 8696,
      "d12": 8697,
      "eigh": 8698,
      "fed": 8699,
      "fly": 8700,
      "gv": 8701,
      "hop": 8702,
      "jam": 8703,
      "kd": 8704,
      "oh": 8705,
      "oca": 8706,
      "oci": 8707,
      "oir": 8708,
      "tch": 8709,
      "tfe": 8710,
      "wed": 8711,
      "wich": 8712,
      "°).": 8713,
      "onsd": 8714,
      "tether": 8715,
      "arfi": 8716,
      "tiology": 8717,
      "eno": 8718,
      "enlar": 8719,
      "refo": 8720,
      "recall": 8721,
      "sical": 8722,
      "sider": 8723,
      "sickle": 8724,
      "dir": 8725,
      "icular": 8726,
      "ctin": 8727,
      "gerous": 8728,
      "chus": 8729,
      "ghorn": 8730,
      "traite": 8731,
      "rough": 8732,
      "atta": 8733,
      "atretic": 8734,
      "isant": 8735,
      "poles": 8736,
      "umo": 8737,
      "umbar": 8738,
      "pation": 8739,
      "scole": 8740,
      "conspic": 8741,
      "consecu": 8742,
      "unaffected": 8743,
      "mester": 8744,
      "meconium": 8745,
      "neobla": 8746,
      "cates": 8747,
      "loculation": 8748,
      "adven": 8749,
      "adreno": 8750,
      "malpositioned": 8751,
      "mentation": 8752,
      "lift": 8753,
      "lipid": 8754,
      "verted": 8755,
      "tak": 8756,
      "tauro": 8757,
      "expressed": 8758,
      "talon": 8759,
      "strati": 8760,
      "soap": 8761,
      "bilobed": 8762,
      "bos": 8763,
      "coin": 8764,
      "cardiopulmonary": 8765,
      "ams": 8766,
      "intrathecal": 8767,
      "franc": 8768,
      "survi": 8769,
      "manip": 8770,
      "aorte": 8771,
      "midportion": 8772,
      "tumorous": 8773,
      "hyperenhancement": 8774,
      "hyperinflated": 8775,
      "rvoir": 8776,
      "mphatic": 8777,
      "izumab": 8778,
      "lenticular": 8779,
      "graphic": 8780,
      "otrip": 8781,
      "stachi": 8782,
      "staghorn": 8783,
      "lymphocy": 8784,
      "flows": 8785,
      "compresses": 8786,
      "endocarditis": 8787,
      "endosteal": 8788,
      "milk": 8789,
      "hau": 8790,
      "filum": 8791,
      "descent": 8792,
      "adenomy": 8793,
      "duodeno": 8794,
      "pseudocysts": 8795,
      "closing": 8796,
      "author": 8797,
      "pendymal": 8798,
      "surrounds": 8799,
      "clearing": 8800,
      "cessed": 8801,
      "hemipelvis": 8802,
      "diaphragms": 8803,
      "fistulas": 8804,
      "sclera": 8805,
      "triangles": 8806,
      "trimester": 8807,
      "cerb": 8808,
      "varix": 8809,
      "epiploic": 8810,
      "localisation": 8811,
      "balanced": 8812,
      "synchron": 8813,
      "parenchymate": 8814,
      "spina": 8815,
      "gastrohepatic": 8816,
      "gastrostomy": 8817,
      "speck": 8818,
      "256": 8819,
      "occupies": 8820,
      "heights": 8821,
      "continuing": 8822,
      "infrared": 8823,
      "pediatric": 8824,
      "cholelithiasis": 8825,
      "methods": 8826,
      "vesicles": 8827,
      "perineural": 8828,
      "reflect": 8829,
      "hepatobiliary": 8830,
      "mesioden": 8831,
      "reservoir": 8832,
      "profund": 8833,
      "sulcal": 8834,
      "myelin": 8835,
      "sitting": 8836,
      "fistulography": 8837,
      "reversible": 8838,
      "mechanism": 8839,
      "hypervascularity": 8840,
      "laparoscopy": 8841,
      "varic": 8842,
      "connections": 8843,
      "swan": 8844,
      "hematome": 8845,
      "stool": 8846,
      "neovascular": 8847,
      "avulsed": 8848,
      "crack": 8849,
      "elongation": 8850,
      "receiving": 8851,
      "cnv": 8852,
      "appreciable": 8853,
      "lithotrip": 8854,
      "clustered": 8855,
      "lordotic": 8856,
      "anesthesia": 8857,
      "hepatitis": 8858,
      "conditions": 8859,
      "radiologique": 8860,
      "siege": 8861,
      "pollic": 8862,
      "sequestrum": 8863,
      "harve": 8864,
      "concern": 8865,
      "objects": 8866,
      "insufficient": 8867,
      "laterale": 8868,
      "architect": 8869,
      "posterieure": 8870,
      "deeper": 8871,
      "rarefaction": 8872,
      "rosthetic": 8873,
      "struts": 8874,
      "regeneration": 8875,
      "transient": 8876,
      "subependymal": 8877,
      "obscured": 8878,
      "randomly": 8879,
      "neurofibroma": 8880,
      "sandwich": 8881,
      "toxic": 8882,
      "locked": 8883,
      "hematoxylin": 8884,
      "coordinate": 8885,
      "bilaterales": 8886,
      "destroying": 8887,
      "acdf": 8888,
      "auricular": 8889,
      "eustachi": 8890,
      "satellite": 8891,
      "stiffness": 8892,
      "orthopantogram": 8893,
      "acceptable": 8894,
      "averaged": 8895,
      "mycobacterium": 8896,
      "neighboring": 8897,
      "endoprosthesis": 8898,
      "hyperextension": 8899,
      "falciform": 8900,
      "invaginatus": 8901,
      "exacerb": 8902,
      "ometacarpal": 8903,
      "leaving": 8904,
      "hypochondrium": 8905,
      "hydronephrotic": 8906,
      "vomiting": 8907,
      "phlegmon": 8908,
      "panniculitis": 8909,
      "phosphonate": 8910,
      "gaseous": 8911,
      "knees": 8912,
      "ptysis": 8913,
      "siderin": 8914,
      "traitement": 8915,
      "scolex": 8916,
      "consecutive": 8917,
      "neobladder": 8918,
      "adventi": 8919,
      "taurodon": 8920,
      "eustachian": 8921,
      "(→": 8922,
      "04": 8923,
      "07": 8924,
      "ay": 8925,
      "bending": 8926,
      "d5": 8927,
      "dx": 8928,
      "ety": 8929,
      "evo": 8930,
      "fus": 8931,
      "fresh": 8932,
      "hv": 8933,
      "kit": 8934,
      "mci": 8935,
      "mcp": 8936,
      "oi": 8937,
      "pb": 8938,
      "pml": 8939,
      "rn": 8940,
      "sentine": 8941,
      "uip": 8942,
      "wk": 8943,
      "wt": 8944,
      "yol": 8945,
[...]
